/**
  ******************************************************************************
  * @file    weights/conv2d.cc
  * @author  Pierre-Emmanuel Novac <penovac@unice.fr>, LEAT, CNRS, Université Côte d'Azur, France
  * @version V2.0
  * @date    24 march 2020
  * @brief   Template generating plain C code for the implementation of Convolutional Neural Networks on MCU
  */

#include <stdint.h>

#define INPUT_CHANNELS     32
#define CONV_FILTERS       64
#define CONV_KERNEL_SIZE_Y 3
#define CONV_KERNEL_SIZE_X 3
#define CONV_GROUPS        1


const float conv2d_1_bias[CONV_FILTERS] = {0x1.b89cc20000000p-3, -0x1.bcfba00000000p-6, 0x1.0a22860000000p-2, 0x1.6e1fa00000000p-5, 0x1.3f919c0000000p-3, 0x1.04934c0000000p-5, 0x1.a323620000000p-4, 0x1.53d8720000000p-11, 0x1.3515820000000p-4, 0x1.6dcb1c0000000p-2, 0x1.195aec0000000p-2, 0x1.292e0e0000000p-6, 0x1.2975ba0000000p-4, 0x1.974d1c0000000p-3, 0x1.ccfc260000000p-9, 0x1.63fd6e0000000p-3, 0x1.22680c0000000p-2, 0x1.7eaa240000000p-3, 0x1.cdbb8c0000000p-6, 0x1.3badba0000000p-3, 0x1.c749340000000p-4, 0x1.a99e4e0000000p-8, 0x1.a732740000000p-3, 0x1.1218c20000000p-3, 0x1.29d0e40000000p-7, -0x1.15d2cc0000000p-6, 0x1.7e89a40000000p-2, -0x1.f360060000000p-7, 0x1.121e360000000p-2, 0x1.6d59d00000000p-3, -0x1.4a72220000000p-6, -0x1.3ad36e0000000p-8, 0x1.d5d3a40000000p-3, -0x1.5e374c0000000p-4, 0x1.9e50360000000p-6, 0x1.cf51ee0000000p-4, 0x1.e42d0a0000000p-3, 0x1.3e6d160000000p-3, 0x1.a351880000000p-6, 0x1.c608520000000p-8, 0x1.bab61a0000000p-4, 0x1.802b680000000p-3, 0x1.62f6e00000000p-4, 0x1.27e0e80000000p-4, 0x1.c374ea0000000p-4, 0x1.13ac660000000p-3, 0x1.3fdd840000000p-3, 0x1.107d2a0000000p-2, 0x1.0a6bfc0000000p-2, 0x1.9236d00000000p-3, 0x1.c432900000000p-3, -0x1.84fc3a0000000p-7, -0x1.4b94d40000000p-5, 0x1.0ad0d60000000p-2, -0x1.a480760000000p-6, 0x1.3c9cf40000000p-3, 0x1.c8e88c0000000p-5, 0x1.e1b8020000000p-3, 0x1.53613c0000000p-3, 0x1.f2ccc20000000p-5, 0x1.7008c40000000p-4, 0x1.5778760000000p-2, 0x1.9c0cc60000000p-3, 0x1.3244080000000p-3}
;


const float conv2d_1_kernel[CONV_FILTERS][CONV_KERNEL_SIZE_Y][CONV_KERNEL_SIZE_X][INPUT_CHANNELS / CONV_GROUPS] = {{{{-0x1.c6eee20000000p-4, -0x1.0c886c0000000p-2, 0x1.a0221a0000000p-3, 0x1.061da00000000p-3, 0x1.91bc460000000p-3, -0x1.1d68b60000000p-10, -0x1.1b94480000000p-7, -0x1.aa39380000000p-3, 0x1.7d86ae0000000p-6, 0x1.206ab00000000p-2, -0x1.e5bd940000000p-4, 0x1.0ab52e0000000p-3, -0x1.3dd43c0000000p-4, 0x1.85444e0000000p-4, 0x1.4bcf120000000p-8, -0x1.82f3a40000000p-5, -0x1.429c2c0000000p-3, -0x1.bc314a0000000p-2, 0x1.53a8aa0000000p-3, -0x1.77c9640000000p-4, 0x1.f38aea0000000p-4, -0x1.cf298a0000000p-4, 0x1.85007c0000000p-3, -0x1.e6afa00000000p-4, 0x1.7996360000000p-4, -0x1.3a86bc0000000p-3, -0x1.1281480000000p-4, -0x1.4fc6540000000p-7, 0x1.50e0d00000000p-5, -0x1.13b65c0000000p-7, 0x1.35c3820000000p-7, 0x1.ba1b100000000p-4}
, {-0x1.3e75d40000000p-3, -0x1.fb4c680000000p-3, 0x1.111ad20000000p-1, -0x1.73f8000000000p-3, -0x1.53a13e0000000p-9, -0x1.5166b60000000p-3, -0x1.4448d80000000p-2, -0x1.caaad60000000p-6, -0x1.bf2e420000000p-4, 0x1.20eaa40000000p-2, -0x1.7826c40000000p-3, -0x1.3c38aa0000000p-3, 0x1.281a900000000p-4, 0x1.e1f03a0000000p-3, 0x1.68b39a0000000p-5, -0x1.d429b20000000p-4, -0x1.a53d540000000p-3, -0x1.66c20e0000000p-3, -0x1.7d8ee80000000p-5, -0x1.0cdf560000000p-3, 0x1.7746280000000p-3, -0x1.63bca80000000p-4, 0x1.2a824a0000000p-5, 0x1.44b5fa0000000p-4, -0x1.c4cf8c0000000p-3, 0x1.d2c0820000000p-5, 0x1.2c4e8e0000000p-4, 0x1.9ccb680000000p-4, 0x1.9b82c80000000p-5, 0x1.9b63a40000000p-5, 0x1.195c140000000p-8, -0x1.729ee40000000p-3}
, {-0x1.d795ea0000000p-9, 0x1.2eda600000000p-2, 0x1.d3e5c60000000p-3, -0x1.0618b20000000p-3, 0x1.4b8e220000000p-2, -0x1.4d3afa0000000p-4, -0x1.7fa2a00000000p-3, -0x1.5d0c360000000p-11, -0x1.476dc60000000p-4, 0x1.663a100000000p-3, -0x1.c9c2660000000p-6, 0x1.4f2fec0000000p-4, -0x1.4dad200000000p-3, 0x1.17a7760000000p-1, 0x1.ce8d780000000p-2, -0x1.c4b9740000000p-3, -0x1.9682e60000000p-4, -0x1.85671e0000000p-4, -0x1.6d82c40000000p-4, -0x1.77e9a60000000p-4, 0x1.221d5a0000000p-4, 0x1.481cca0000000p-4, 0x1.58e0800000000p-2, -0x1.97cfae0000000p-4, 0x1.55c88a0000000p-4, 0x1.bf87480000000p-2, 0x1.16842c0000000p-7, -0x1.8ba22a0000000p-5, -0x1.9237e80000000p-3, 0x1.2c09de0000000p-5, -0x1.c6a0d60000000p-4, -0x1.37a6e00000000p-7}
}
, {{-0x1.c04f1a0000000p-3, -0x1.0317640000000p-3, -0x1.6e338e0000000p-3, 0x1.c4f40a0000000p-5, 0x1.1dd7900000000p-4, 0x1.540e900000000p-3, -0x1.48284e0000000p-4, -0x1.4fefd60000000p-3, 0x1.b74d220000000p-14, 0x1.cc493e0000000p-5, 0x1.fc6efc0000000p-6, 0x1.67c2340000000p-4, -0x1.58e4000000000p-2, -0x1.ad692c0000000p-2, -0x1.b2813a0000000p-2, 0x1.d2c2600000000p-5, -0x1.2ac8bc0000000p-4, -0x1.bb340e0000000p-2, -0x1.e604700000000p-3, -0x1.5a35dc0000000p-3, -0x1.dc6c740000000p-3, -0x1.31a6580000000p-1, 0x1.a3cd280000000p-3, -0x1.7a2d980000000p-3, 0x1.1b51ea0000000p-3, -0x1.558fb00000000p-1, -0x1.ffe4b40000000p-6, -0x1.a6fb380000000p-3, 0x1.287cac0000000p-3, 0x1.7500ca0000000p-4, -0x1.817f4a0000000p-6, 0x1.adc3560000000p-4}
, {-0x1.a289ba0000000p-3, -0x1.4f39580000000p-2, 0x1.ba49ae0000000p-3, 0x1.7af3860000000p-3, -0x1.3b3eb40000000p-3, 0x1.6af20c0000000p-4, -0x1.323d9e0000000p-8, -0x1.6d23320000000p-3, 0x1.08776e0000000p-3, -0x1.99505a0000000p-4, -0x1.3e63620000000p-3, -0x1.00e1b40000000p-2, 0x1.9a2a260000000p-3, -0x1.d67f960000000p-5, -0x1.90882a0000000p-2, -0x1.fc900c0000000p-4, 0x1.da66d80000000p-9, 0x1.976c740000000p-2, 0x1.f1f8e00000000p-3, 0x1.79f73c0000000p-13, 0x1.2da4b60000000p-2, -0x1.a5547a0000000p-2, -0x1.0512d20000000p-2, -0x1.4613fe0000000p-6, -0x1.26f0ce0000000p-4, -0x1.15258a0000000p-3, 0x1.0b84580000000p-4, -0x1.359fbc0000000p-3, 0x1.e6dccc0000000p-5, -0x1.0033580000000p-7, 0x1.de392e0000000p-5, -0x1.56b3820000000p-2}
, {-0x1.dea05a0000000p-5, 0x1.093b680000000p-2, -0x1.0989c20000000p-5, 0x1.d611440000000p-3, 0x1.0a7e1c0000000p-3, -0x1.57d54c0000000p-3, 0x1.36a1680000000p-3, -0x1.9be3ae0000000p-3, -0x1.0975980000000p-7, 0x1.f4b4f20000000p-3, -0x1.0bee780000000p-2, -0x1.38420c0000000p-5, 0x1.bfc6260000000p-5, 0x1.7dd86c0000000p-2, 0x1.8b569c0000000p-2, -0x1.4616200000000p-3, -0x1.fbcaf80000000p-3, 0x1.c964420000000p-4, 0x1.25e2320000000p-5, 0x1.c726940000000p-4, 0x1.fdc1180000000p-2, -0x1.e6da9a0000000p-4, -0x1.13e4560000000p-5, -0x1.2cbca60000000p-4, -0x1.79e73e0000000p-4, 0x1.0fa0e60000000p-2, 0x1.7d63e20000000p-5, 0x1.568a0e0000000p-3, -0x1.b3671a0000000p-3, 0x1.514b060000000p-5, 0x1.77b89c0000000p-7, -0x1.34c26e0000000p-4}
}
, {{-0x1.2fc8c60000000p-4, -0x1.7041380000000p-4, -0x1.36284e0000000p-1, -0x1.21d2da0000000p-2, -0x1.39e8140000000p-9, 0x1.2c7b6a0000000p-4, -0x1.37a3ee0000000p-4, -0x1.617aee0000000p-3, 0x1.1eadfc0000000p-6, -0x1.5111320000000p-3, -0x1.e018e60000000p-5, -0x1.795dc60000000p-9, -0x1.e8c8000000000p-3, -0x1.6aa2920000000p-1, -0x1.24fb1c0000000p-1, 0x1.58943e0000000p-3, -0x1.6393280000000p-9, -0x1.2b77e40000000p-2, -0x1.71cb5a0000000p-2, -0x1.3c0f9a0000000p-3, -0x1.d52ea60000000p-2, -0x1.5f2efe0000000p-3, 0x1.0a17ce0000000p-5, -0x1.1e21d60000000p-4, -0x1.f62aee0000000p-5, -0x1.f77c4a0000000p-2, -0x1.74fbf80000000p-6, -0x1.2bb4720000000p-2, 0x1.ac70800000000p-3, 0x1.2bcfa20000000p-4, 0x1.de2b260000000p-4, 0x1.77a9680000000p-3}
, {-0x1.70b6a80000000p-4, -0x1.927a380000000p-2, -0x1.ebf1a00000000p-3, -0x1.2993800000000p-9, -0x1.def5d00000000p-4, 0x1.b7a7a20000000p-3, -0x1.aaef4c0000000p-4, -0x1.8ca81c0000000p-4, 0x1.1840040000000p-3, -0x1.c6bd980000000p-2, 0x1.c0f34a0000000p-5, -0x1.d777a60000000p-2, -0x1.0da4860000000p-2, -0x1.aa685e0000000p-2, -0x1.8b56960000000p-2, -0x1.ffea6a0000000p-5, 0x1.69428e0000000p-4, -0x1.78675e0000000p-4, -0x1.5d27820000000p-3, -0x1.8c8f380000000p-3, -0x1.101b6a0000000p-3, -0x1.4502720000000p-3, -0x1.005be20000000p-2, -0x1.8278820000000p-3, -0x1.8de01a0000000p-3, -0x1.6749da0000000p-2, -0x1.1b9dfa0000000p-4, -0x1.813f8c0000000p-2, 0x1.6cf1c20000000p-3, -0x1.63eb5a0000000p-5, 0x1.b44a580000000p-4, -0x1.a023180000000p-2}
, {-0x1.63b8c20000000p-3, 0x1.d840ce0000000p-3, 0x1.a5ea240000000p-3, 0x1.e9f7100000000p-2, -0x1.9944780000000p-4, -0x1.71fc7c0000000p-10, 0x1.126ee80000000p-3, -0x1.e7625a0000000p-4, -0x1.60bba80000000p-6, -0x1.24c3b20000000p-3, -0x1.b790e80000000p-2, -0x1.3e49220000000p-2, 0x1.93701e0000000p-3, 0x1.3374600000000p-1, -0x1.cd9f820000000p-5, -0x1.1dc8d40000000p-2, -0x1.7fb7fe0000000p-3, -0x1.4b4c8e0000000p-4, 0x1.98cd680000000p-4, 0x1.51e18a0000000p-4, 0x1.13fea00000000p-1, -0x1.8576620000000p-2, -0x1.6912cc0000000p-2, -0x1.a2e9220000000p-4, -0x1.b29d260000000p-2, 0x1.6089640000000p-3, -0x1.2f3de00000000p-6, -0x1.2535c60000000p-2, -0x1.bfdada0000000p-4, 0x1.17447c0000000p-5, 0x1.789b240000000p-5, -0x1.7eb83c0000000p-2}
}
}
, {{{-0x1.dc1cac0000000p-5, 0x1.2863100000000p-3, 0x1.c3f8da0000000p-3, -0x1.dd79080000000p-7, -0x1.3a9c2c0000000p-4, 0x1.0a160e0000000p-5, 0x1.175bd00000000p-4, -0x1.017f100000000p-3, -0x1.be0a000000000p-4, 0x1.d73cbc0000000p-10, 0x1.f016820000000p-8, 0x1.4761a20000000p-5, 0x1.1af00c0000000p-11, 0x1.0d28ae0000000p-2, 0x1.75e3820000000p-4, -0x1.42cb080000000p-4, -0x1.5ba24e0000000p-3, 0x1.cd3b380000000p-6, -0x1.7290360000000p-2, 0x1.d9fef80000000p-6, 0x1.3813700000000p-6, -0x1.7ac5a80000000p-5, 0x1.4f94340000000p-5, 0x1.6c46380000000p-8, -0x1.45bc9e0000000p-5, -0x1.6f108a0000000p-5, -0x1.941c480000000p-5, 0x1.36d13e0000000p-2, -0x1.03ffce0000000p-4, 0x1.e044ca0000000p-6, -0x1.7b94500000000p-4, 0x1.42d2460000000p-5}
, {-0x1.40b6060000000p-7, -0x1.1f109c0000000p-4, -0x1.1b78400000000p-4, -0x1.a2501a0000000p-2, 0x1.51dca20000000p-3, 0x1.97d08e0000000p-5, -0x1.49e9360000000p-2, -0x1.7464220000000p-3, -0x1.18e18c0000000p-5, -0x1.9571240000000p-7, -0x1.9881be0000000p-5, 0x1.a8b30a0000000p-3, -0x1.b0df0e0000000p-2, -0x1.252c420000000p-4, -0x1.60b5860000000p-2, 0x1.2bf6c20000000p-6, -0x1.0bf9b80000000p-4, -0x1.51fa040000000p-3, -0x1.5f3cc40000000p-3, -0x1.a57ae60000000p-3, -0x1.e88d8c0000000p-2, -0x1.f9926e0000000p-3, 0x1.8e485e0000000p-4, -0x1.c090420000000p-6, 0x1.9f2b200000000p-4, -0x1.00ef2a0000000p-2, 0x1.42176a0000000p-4, -0x1.dedbd20000000p-4, 0x1.1690c80000000p-4, -0x1.5ceb6e0000000p-5, -0x1.45c0d00000000p-4, 0x1.ecbc120000000p-6}
, {-0x1.9964140000000p-6, -0x1.3825b00000000p-3, 0x1.40860a0000000p-3, 0x1.a006a20000000p-6, -0x1.a3213c0000000p-2, 0x1.3db01a0000000p-6, -0x1.5711540000000p-6, 0x1.42198e0000000p-7, 0x1.103fd60000000p-4, -0x1.66fbaa0000000p-3, -0x1.21377c0000000p-2, -0x1.c4f08e0000000p-2, 0x1.fdd54c0000000p-5, 0x1.0712500000000p-9, -0x1.242e800000000p-4, -0x1.9f9dcc0000000p-3, -0x1.0fbf000000000p-5, -0x1.c913e40000000p-3, 0x1.bdbdf00000000p-4, 0x1.0074240000000p-6, 0x1.b840100000000p-4, -0x1.92d12e0000000p-6, -0x1.3a73ea0000000p-2, -0x1.8b1d680000000p-4, -0x1.6cdbb80000000p-2, -0x1.0fad660000000p-4, 0x1.060c0a0000000p-4, -0x1.53b19c0000000p-3, 0x1.42256c0000000p-5, 0x1.71f3680000000p-5, -0x1.e9759e0000000p-4, -0x1.7974720000000p-2}
}
, {{-0x1.0d79fc0000000p-4, 0x1.041dce0000000p-3, 0x1.0d399e0000000p-4, -0x1.48a9c80000000p-6, 0x1.cac2ce0000000p-11, -0x1.1c05ba0000000p-4, -0x1.e30ffa0000000p-5, -0x1.4b2d5a0000000p-4, -0x1.9ecc980000000p-4, 0x1.e0fd160000000p-4, -0x1.03c2920000000p-4, 0x1.163a360000000p-4, -0x1.996c640000000p-2, -0x1.0ea4620000000p-4, -0x1.cdc1580000000p-5, -0x1.e176120000000p-5, -0x1.5b82840000000p-3, -0x1.e3d5440000000p-3, -0x1.8704220000000p-2, -0x1.a8f5700000000p-3, -0x1.34ca6e0000000p-5, -0x1.9e65340000000p-2, -0x1.030eee0000000p-5, -0x1.5594a60000000p-2, -0x1.f57a180000000p-4, -0x1.c7425c0000000p-2, -0x1.7d15ea0000000p-7, 0x1.1e776a0000000p-4, -0x1.aff6f00000000p-6, -0x1.f683100000000p-6, -0x1.1d9a3c0000000p-4, 0x1.6df4820000000p-3}
, {0x1.15ab380000000p-4, -0x1.143c8e0000000p-5, 0x1.acc3560000000p-7, -0x1.2cb7740000000p-7, 0x1.f259f80000000p-4, 0x1.4e465a0000000p-4, -0x1.97d3040000000p-4, -0x1.f180360000000p-6, 0x1.b344b80000000p-7, -0x1.5f6a500000000p-3, 0x1.d03d980000000p-4, 0x1.b4abe80000000p-4, 0x1.e70baa0000000p-8, -0x1.9d1f6a0000000p-4, -0x1.21463a0000000p-1, 0x1.1ef93c0000000p-3, -0x1.7f222c0000000p-5, 0x1.18bc980000000p-5, 0x1.f20a340000000p-3, 0x1.6721ba0000000p-6, 0x1.5e1a660000000p-5, 0x1.068f140000000p-4, 0x1.8b25660000000p-5, -0x1.0a34960000000p-4, 0x1.cf97200000000p-3, 0x1.65ab380000000p-5, 0x1.d14bb00000000p-7, -0x1.7d2e9c0000000p-2, 0x1.818f060000000p-3, 0x1.60efb20000000p-5, 0x1.67d0e00000000p-4, 0x1.3d774a0000000p-3}
, {-0x1.1b0c4a0000000p-6, 0x1.1452ca0000000p-3, -0x1.cd45dc0000000p-6, 0x1.3403a80000000p-4, -0x1.fdbee60000000p-4, 0x1.cfdbd00000000p-5, 0x1.23fed40000000p-4, -0x1.61ee7a0000000p-4, 0x1.41529a0000000p-4, 0x1.713af40000000p-2, 0x1.18504c0000000p-8, 0x1.21cb900000000p-2, 0x1.3b56980000000p-3, -0x1.b87b640000000p-3, 0x1.06ad040000000p-2, -0x1.e5be9e0000000p-5, 0x1.a779d00000000p-7, -0x1.cdc38e0000000p-3, -0x1.7870680000000p-4, 0x1.4ac6260000000p-3, 0x1.6db9060000000p-3, 0x1.2b61780000000p-7, -0x1.896c760000000p-6, 0x1.3ff0ea0000000p-8, -0x1.52eb740000000p-12, 0x1.3c33ac0000000p-4, -0x1.d4f1ac0000000p-8, -0x1.73ff7c0000000p-6, -0x1.97bc920000000p-3, -0x1.b65da20000000p-5, -0x1.4072c80000000p-5, 0x1.0f53fe0000000p-2}
}
, {{0x1.0fbea00000000p-7, -0x1.043e500000000p-4, 0x1.2028100000000p-4, 0x1.7ee9460000000p-7, 0x1.939d8c0000000p-4, 0x1.956cb60000000p-3, -0x1.44aabc0000000p-6, -0x1.78d7200000000p-4, 0x1.6c8ac80000000p-5, 0x1.ad9a3c0000000p-3, 0x1.b040f80000000p-7, 0x1.2ec4780000000p-3, -0x1.62914c0000000p-6, -0x1.9609d00000000p-7, -0x1.6d0aac0000000p-3, 0x1.a902d20000000p-4, 0x1.7f13aa0000000p-6, -0x1.dbc7ac0000000p-3, 0x1.78d5e00000000p-5, -0x1.52199c0000000p-5, -0x1.0308100000000p-3, 0x1.87690a0000000p-6, 0x1.2415980000000p-3, -0x1.1162060000000p-3, -0x1.a9c8b60000000p-8, -0x1.49e7da0000000p-3, -0x1.17223c0000000p-4, -0x1.7e2a960000000p-3, 0x1.afce540000000p-3, -0x1.bbaf5a0000000p-5, 0x1.a297a00000000p-4, 0x1.bd3b000000000p-3}
, {0x1.256fb60000000p-3, -0x1.43be9c0000000p-3, -0x1.6955000000000p-2, 0x1.7cfa920000000p-2, -0x1.59c2120000000p-5, 0x1.4cdf240000000p-4, 0x1.a0395a0000000p-3, -0x1.408f140000000p-5, -0x1.928b240000000p-13, -0x1.f83b260000000p-3, -0x1.56063a0000000p-6, -0x1.46e2260000000p-2, 0x1.95c10a0000000p-2, -0x1.d2d1180000000p-3, 0x1.e7f0600000000p-7, -0x1.19f64a0000000p-3, -0x1.f4b7ea0000000p-6, -0x1.2724c20000000p-3, 0x1.bbfe4c0000000p-2, 0x1.7066a60000000p-2, 0x1.22496a0000000p-2, 0x1.098cb00000000p-3, -0x1.3624d60000000p-2, 0x1.843fa40000000p-3, -0x1.4d52a80000000p-5, -0x1.e870780000000p-8, -0x1.8dff140000000p-5, -0x1.ae7d500000000p-5, -0x1.d7a5220000000p-4, -0x1.0b46da0000000p-4, 0x1.35c6e80000000p-4, -0x1.9b2c4e0000000p-2}
, {-0x1.0a6cda0000000p-2, -0x1.b33cc40000000p-5, -0x1.815f2e0000000p-5, -0x1.2815300000000p-2, 0x1.dec0240000000p-3, -0x1.4049740000000p-5, -0x1.9b00fa0000000p-3, -0x1.ebf12e0000000p-5, -0x1.80189a0000000p-4, 0x1.47b7280000000p-2, 0x1.3681c20000000p-6, 0x1.00f18e0000000p-1, -0x1.8c94300000000p-2, -0x1.40fc5a0000000p-3, 0x1.3747840000000p-4, 0x1.fcbbcc0000000p-3, -0x1.fe6e440000000p-8, -0x1.8f78c80000000p-2, -0x1.6098960000000p-2, -0x1.9cf1ec0000000p-2, -0x1.22f4e40000000p-2, -0x1.294a760000000p-3, 0x1.696fe00000000p-2, -0x1.07245e0000000p-3, 0x1.7a8aea0000000p-2, -0x1.2407ce0000000p-3, -0x1.d6c79a0000000p-7, -0x1.9c30e80000000p-7, 0x1.b7c8f60000000p-4, 0x1.870a1a0000000p-7, 0x1.042cfa0000000p-3, 0x1.bcda800000000p-2}
}
}
, {{{-0x1.47e7320000000p-2, 0x1.0aba7a0000000p-5, 0x1.463a260000000p-3, 0x1.2753ba0000000p-4, -0x1.562fd00000000p-4, -0x1.9821ce0000000p-5, -0x1.f134920000000p-3, -0x1.1825b00000000p-2, 0x1.9db5220000000p-5, 0x1.9ecfe80000000p-9, -0x1.08729c0000000p-3, -0x1.0427720000000p-5, -0x1.3873560000000p-1, 0x1.f545e80000000p-8, -0x1.36e5a00000000p-1, -0x1.fb6b4a0000000p-7, -0x1.a4e4e40000000p-4, -0x1.6a506a0000000p-3, -0x1.062e3c0000000p-3, -0x1.b800ac0000000p-3, -0x1.0a98a40000000p-2, -0x1.b668180000000p-2, -0x1.e7bfe40000000p-4, -0x1.197c400000000p-1, -0x1.b0cd2a0000000p-4, -0x1.abe6280000000p-2, 0x1.3fe5680000000p-5, -0x1.45f67a0000000p-2, 0x1.53a8480000000p-6, -0x1.a9f07a0000000p-6, -0x1.6b1eac0000000p-4, -0x1.c6ac280000000p-5}
, {-0x1.31d1d00000000p-3, 0x1.09f6520000000p-3, -0x1.5756be0000000p-6, 0x1.d823fe0000000p-4, -0x1.1879c40000000p-2, 0x1.fff75a0000000p-6, -0x1.2889540000000p-3, -0x1.3723d20000000p-2, -0x1.eb62a40000000p-7, 0x1.ba5a2a0000000p-4, 0x1.c55e440000000p-7, 0x1.f8bd9c0000000p-6, -0x1.1993120000000p-3, -0x1.ec9ada0000000p-3, -0x1.6578f40000000p-3, 0x1.26be5a0000000p-4, -0x1.0871ac0000000p-3, -0x1.bee2d40000000p-2, -0x1.80f70a0000000p-3, -0x1.8f90ba0000000p-7, -0x1.6379ce0000000p-3, -0x1.1b7a160000000p-2, -0x1.5a85ac0000000p-3, -0x1.72935c0000000p-2, -0x1.50aae20000000p-3, -0x1.10b1aa0000000p-1, 0x1.60bb6c0000000p-4, -0x1.2e81ac0000000p-4, 0x1.f52f7a0000000p-5, 0x1.421a900000000p-6, -0x1.5e55d20000000p-4, 0x1.9c25d40000000p-4}
, {-0x1.c5763c0000000p-2, 0x1.ac756c0000000p-6, -0x1.91a70e0000000p-5, -0x1.efe7300000000p-7, -0x1.9903200000000p-3, 0x1.aa0d060000000p-6, -0x1.0ac0ac0000000p-2, -0x1.a941400000000p-3, 0x1.4f72720000000p-4, 0x1.88a1580000000p-9, -0x1.02e91a0000000p-3, 0x1.a633740000000p-9, -0x1.7b9f500000000p-2, -0x1.d557e60000000p-3, -0x1.50a2020000000p-1, 0x1.2a05fe0000000p-4, -0x1.f275d40000000p-4, -0x1.b27a320000000p-2, 0x1.99927e0000000p-3, -0x1.ecdb700000000p-3, -0x1.2dae1a0000000p-3, -0x1.1288320000000p-1, 0x1.0d67520000000p-3, -0x1.e5c5f40000000p-2, 0x1.8f9aca0000000p-8, -0x1.c942800000000p-1, 0x1.b879100000000p-5, -0x1.be59560000000p-2, 0x1.35c32c0000000p-3, -0x1.77bf860000000p-5, -0x1.0b71360000000p-5, 0x1.b9cbfa0000000p-3}
}
, {{-0x1.c506e00000000p-5, -0x1.1d79620000000p-3, 0x1.130c540000000p-5, 0x1.704f3c0000000p-3, 0x1.21bd440000000p-5, -0x1.41354e0000000p-10, -0x1.1d77c20000000p-3, -0x1.de2ed00000000p-4, 0x1.4ebe5c0000000p-4, 0x1.6a66340000000p-4, 0x1.494f400000000p-4, -0x1.03f6e40000000p-8, -0x1.f910580000000p-4, -0x1.2cdb820000000p-4, -0x1.b9d7480000000p-2, -0x1.fa626c0000000p-5, -0x1.5a73d00000000p-4, -0x1.ec7c7c0000000p-3, 0x1.2fe7aa0000000p-5, -0x1.b95d940000000p-6, -0x1.45b29e0000000p-4, -0x1.13df340000000p-3, 0x1.79c6940000000p-7, -0x1.230e400000000p-3, -0x1.cf7f940000000p-6, -0x1.5cada60000000p-3, 0x1.14aeca0000000p-4, -0x1.2a04e20000000p-2, 0x1.bf85860000000p-4, -0x1.9676220000000p-6, 0x1.55dcaa0000000p-5, 0x1.36e36c0000000p-4}
, {-0x1.2fcda40000000p-10, 0x1.a3e5fa0000000p-4, 0x1.eba2ac0000000p-4, 0x1.bcf1e80000000p-3, -0x1.0fb9c40000000p-2, 0x1.814ccc0000000p-5, 0x1.5966d80000000p-8, -0x1.56b47a0000000p-3, 0x1.0698240000000p-4, 0x1.5800b80000000p-2, -0x1.82e2c00000000p-3, 0x1.38a2280000000p-3, 0x1.4b97220000000p-6, 0x1.e865140000000p-5, -0x1.f07a2e0000000p-6, 0x1.0b1ace0000000p-3, -0x1.16b2200000000p-6, -0x1.ea9a5e0000000p-2, -0x1.a259780000000p-6, 0x1.57314c0000000p-3, -0x1.23869c0000000p-11, -0x1.411d440000000p-4, -0x1.3f46920000000p-3, -0x1.60816e0000000p-4, 0x1.71d7880000000p-4, -0x1.21ce740000000p-2, 0x1.5a12400000000p-4, -0x1.292dde0000000p-4, 0x1.ec488a0000000p-3, -0x1.0f50000000000p-4, -0x1.c54d340000000p-4, 0x1.6ff7ca0000000p-2}
, {-0x1.a0737e0000000p-4, -0x1.601b3a0000000p-3, -0x1.1175360000000p-2, 0x1.7792ca0000000p-4, -0x1.5bab520000000p-3, -0x1.9713660000000p-5, 0x1.2310720000000p-5, -0x1.0012440000000p-4, 0x1.b98d8e0000000p-4, -0x1.b71bf80000000p-5, 0x1.6f90960000000p-4, 0x1.03b1fc0000000p-3, 0x1.2d80020000000p-8, -0x1.cf26bc0000000p-2, -0x1.ffc6560000000p-2, 0x1.ec30a80000000p-3, -0x1.8d02800000000p-4, -0x1.09e67c0000000p-1, 0x1.52c93a0000000p-4, -0x1.9fd6d20000000p-6, -0x1.96d0980000000p-4, -0x1.b37ec80000000p-3, 0x1.4a17960000000p-3, 0x1.7a2fcc0000000p-9, 0x1.ace7aa0000000p-3, -0x1.b4a9e20000000p-2, 0x1.a0426c0000000p-4, -0x1.489db20000000p-2, 0x1.591c4c0000000p-3, 0x1.342f660000000p-5, 0x1.0d0e0a0000000p-5, 0x1.984eb80000000p-3}
}
, {{0x1.23413a0000000p-3, -0x1.8bd78a0000000p-3, -0x1.0dffda0000000p-1, 0x1.b90ef40000000p-7, 0x1.06beb00000000p-2, 0x1.a5b6340000000p-5, -0x1.008c5e0000000p-4, -0x1.962b160000000p-5, 0x1.10511a0000000p-3, -0x1.3de6c40000000p-2, 0x1.92c9160000000p-3, -0x1.c00c180000000p-7, 0x1.294d640000000p-4, -0x1.14352a0000000p-1, 0x1.4407920000000p-4, -0x1.7511400000000p-4, 0x1.2df2ce0000000p-4, -0x1.1b91e00000000p-2, -0x1.a9ca400000000p-8, 0x1.0414c20000000p-3, -0x1.fc98660000000p-6, 0x1.fb86c60000000p-5, 0x1.8fc3d00000000p-3, 0x1.fdcf860000000p-4, 0x1.882c080000000p-4, 0x1.bb9a680000000p-3, 0x1.b472680000000p-6, -0x1.7718040000000p-3, 0x1.b715ac0000000p-4, 0x1.4993b60000000p-7, 0x1.65750a0000000p-4, -0x1.2aee940000000p-3}
, {0x1.95603a0000000p-7, -0x1.4541180000000p-6, -0x1.5455f60000000p-5, 0x1.05e9f40000000p-4, -0x1.5aa9900000000p-5, 0x1.61caa80000000p-4, -0x1.344bfa0000000p-4, -0x1.0fa07a0000000p-3, 0x1.e1ef8a0000000p-4, 0x1.27a0bc0000000p-4, -0x1.0dd7180000000p-8, 0x1.0202da0000000p-4, 0x1.b5a8d60000000p-5, -0x1.bd92cc0000000p-7, 0x1.42f1240000000p-3, -0x1.7919e00000000p-7, 0x1.15874c0000000p-6, -0x1.72d3080000000p-2, -0x1.ddecfe0000000p-4, 0x1.2331fe0000000p-3, -0x1.0d0e460000000p-5, -0x1.6633360000000p-9, -0x1.db48f00000000p-4, 0x1.127a840000000p-4, 0x1.1e626a0000000p-5, 0x1.9b1c840000000p-4, -0x1.90f2820000000p-5, 0x1.b536380000000p-4, 0x1.0504300000000p-4, 0x1.253d280000000p-4, -0x1.08b7100000000p-5, -0x1.6c67c60000000p-4}
, {0x1.62d7ca0000000p-5, -0x1.6d41b80000000p-4, -0x1.cdb64a0000000p-3, -0x1.8a8df00000000p-4, 0x1.786cec0000000p-4, -0x1.8c57aa0000000p-5, 0x1.7a18960000000p-5, -0x1.23ea580000000p-3, 0x1.e9bc540000000p-5, -0x1.595bd00000000p-3, -0x1.3bc0100000000p-7, -0x1.8afc720000000p-5, 0x1.4d05c40000000p-3, -0x1.16873e0000000p-2, -0x1.d27ff40000000p-4, 0x1.e7f84a0000000p-6, -0x1.acca720000000p-6, -0x1.e9dff20000000p-2, 0x1.7012240000000p-3, -0x1.9d9f640000000p-6, 0x1.c0c32c0000000p-5, 0x1.7454ea0000000p-5, 0x1.11ff780000000p-4, 0x1.588fbc0000000p-5, 0x1.058e660000000p-8, 0x1.84d6ec0000000p-13, 0x1.3f26e40000000p-4, 0x1.98a0400000000p-5, 0x1.76ec020000000p-3, -0x1.4be12e0000000p-4, 0x1.1ed8f20000000p-3, 0x1.30626c0000000p-4}
}
}
, {{{-0x1.41ee300000000p-9, 0x1.a024720000000p-3, 0x1.94c3060000000p-3, -0x1.0e1dd60000000p-5, -0x1.31140e0000000p-7, -0x1.d28a9a0000000p-3, -0x1.60ff640000000p-3, 0x1.1251340000000p-6, -0x1.666ad40000000p-3, 0x1.dfac140000000p-4, -0x1.32626e0000000p-4, -0x1.9fcc4a0000000p-5, 0x1.e6ea360000000p-6, 0x1.76d8500000000p-2, 0x1.5e31e00000000p-3, -0x1.0f031e0000000p-2, -0x1.f05b9a0000000p-3, -0x1.01c0880000000p-4, 0x1.18e9880000000p-4, 0x1.8c08c60000000p-4, 0x1.a9e4da0000000p-4, 0x1.808d640000000p-4, 0x1.6d78a20000000p-6, 0x1.fdb67c0000000p-4, -0x1.ae9d840000000p-3, 0x1.d8b7a60000000p-3, 0x1.3c6b4a0000000p-5, 0x1.2ae8b20000000p-4, -0x1.42b8ae0000000p-3, -0x1.94042c0000000p-7, -0x1.2afb9a0000000p-3, -0x1.5d4e700000000p-5}
, {-0x1.903f540000000p-7, 0x1.2ac3320000000p-7, -0x1.5f08160000000p-4, -0x1.d4c2120000000p-6, -0x1.79b03e0000000p-3, -0x1.9314800000000p-4, -0x1.fb04040000000p-3, 0x1.984eb20000000p-5, -0x1.3f856a0000000p-3, 0x1.c9cca00000000p-3, -0x1.550c140000000p-3, 0x1.a017d00000000p-3, -0x1.2da5e40000000p-4, 0x1.186aa60000000p-3, 0x1.71f7e80000000p-3, 0x1.5db1e20000000p-5, -0x1.783fd20000000p-3, -0x1.0ad5e60000000p-2, -0x1.3724100000000p-3, 0x1.2bf1500000000p-3, -0x1.0f891c0000000p-4, -0x1.6fc92a0000000p-3, 0x1.0ce4ee0000000p-6, -0x1.12b9140000000p-3, -0x1.864c160000000p-5, -0x1.fcf3700000000p-6, 0x1.ae92e60000000p-5, 0x1.48a3e20000000p-5, 0x1.94991c0000000p-8, -0x1.4426ce0000000p-5, -0x1.9f5f8c0000000p-3, 0x1.b8548a0000000p-5}
, {-0x1.7412b00000000p-2, 0x1.d21edc0000000p-8, 0x1.46685e0000000p-2, -0x1.b4f0a00000000p-4, -0x1.2d33580000000p-2, -0x1.d681740000000p-6, -0x1.79bc7c0000000p-2, 0x1.a094be0000000p-5, 0x1.dbfb740000000p-11, 0x1.adb8840000000p-3, -0x1.fce6a20000000p-3, 0x1.003cb80000000p-3, -0x1.ac7dd40000000p-2, 0x1.1cd6140000000p-2, 0x1.ce46ce0000000p-8, 0x1.fe131c0000000p-3, -0x1.8c36da0000000p-3, -0x1.7b11ca0000000p-2, -0x1.9553780000000p-6, -0x1.4be7c60000000p-1, -0x1.4565660000000p-2, -0x1.7391fa0000000p-1, -0x1.0714180000000p-4, -0x1.4263640000000p-2, -0x1.82cd8c0000000p-8, -0x1.483bb00000000p-2, 0x1.c2f4940000000p-5, 0x1.b645e80000000p-3, 0x1.2edf1c0000000p-3, -0x1.e3c8ce0000000p-5, -0x1.fcbc4a0000000p-4, 0x1.07c6be0000000p-2}
}
, {{-0x1.5dc0040000000p-3, -0x1.11b8a00000000p-2, 0x1.f167f20000000p-3, -0x1.627fe80000000p-6, 0x1.8f435a0000000p-5, 0x1.ebb14a0000000p-6, -0x1.4442f20000000p-3, 0x1.69c5b20000000p-3, -0x1.0ef3d20000000p-5, 0x1.7412fa0000000p-2, 0x1.8c90f80000000p-5, 0x1.6346b00000000p-2, -0x1.0790b80000000p-3, -0x1.9447ea0000000p-5, -0x1.caae360000000p-8, 0x1.9d2fc60000000p-4, -0x1.3150980000000p-4, -0x1.25141e0000000p-2, 0x1.9024a20000000p-3, -0x1.563c3a0000000p-3, -0x1.208e2c0000000p-3, -0x1.b756220000000p-3, 0x1.5ba9ce0000000p-4, 0x1.43bec00000000p-5, 0x1.ebf99e0000000p-3, -0x1.020af20000000p-4, 0x1.6bf1ee0000000p-5, 0x1.b17a440000000p-5, 0x1.8a4b760000000p-3, 0x1.f9f3c60000000p-5, 0x1.644b0a0000000p-8, 0x1.73feca0000000p-2}
, {-0x1.9b042a0000000p-3, -0x1.74bcda0000000p-3, 0x1.d9cee20000000p-9, 0x1.3c7a340000000p-3, 0x1.e77d640000000p-5, 0x1.26b1080000000p-4, 0x1.6500500000000p-3, -0x1.df7a940000000p-5, 0x1.890e840000000p-4, 0x1.5665aa0000000p-2, 0x1.4c13a20000000p-4, 0x1.37b5540000000p-2, -0x1.dca7060000000p-10, 0x1.bcc27c0000000p-3, -0x1.dce7c20000000p-5, 0x1.c92af20000000p-5, 0x1.9ce8bc0000000p-5, -0x1.18b24a0000000p-2, -0x1.5c0e0a0000000p-4, -0x1.0742fc0000000p-3, -0x1.aed9a20000000p-3, -0x1.6c517a0000000p-3, -0x1.ed3b7c0000000p-8, -0x1.18f5300000000p-3, 0x1.eb64000000000p-3, -0x1.ebf3c60000000p-3, -0x1.fd28360000000p-10, 0x1.b8d5080000000p-7, 0x1.76bbde0000000p-4, -0x1.331b180000000p-5, -0x1.73b0260000000p-11, 0x1.fd439e0000000p-3}
, {0x1.1b433c0000000p-4, -0x1.0a71340000000p-2, -0x1.0b1dfe0000000p-2, -0x1.32919c0000000p-5, 0x1.865e940000000p-5, 0x1.d697960000000p-4, 0x1.1475b40000000p-3, 0x1.752e380000000p-9, 0x1.2217a40000000p-3, -0x1.5606a40000000p-4, 0x1.83fa0a0000000p-4, 0x1.91548a0000000p-3, 0x1.3505e80000000p-5, -0x1.49eeac0000000p-2, -0x1.cb90a40000000p-3, 0x1.cca91c0000000p-3, 0x1.73124a0000000p-6, -0x1.f4f8ec0000000p-5, 0x1.78bf640000000p-6, 0x1.1fbe040000000p-4, -0x1.c7732c0000000p-4, -0x1.5e595a0000000p-4, 0x1.e1e7220000000p-5, 0x1.50cef40000000p-4, 0x1.6dbff00000000p-3, -0x1.798f240000000p-2, -0x1.9800220000000p-4, 0x1.590c8a0000000p-4, 0x1.d1ab140000000p-3, -0x1.39e5720000000p-4, 0x1.eb9f420000000p-5, 0x1.dce2da0000000p-4}
}
, {{-0x1.1a29600000000p-4, -0x1.1329540000000p-2, -0x1.72482a0000000p-4, -0x1.fd0eac0000000p-8, 0x1.6dbc420000000p-3, 0x1.e9e9b40000000p-7, 0x1.777af80000000p-4, -0x1.3c13aa0000000p-4, -0x1.73966a0000000p-7, -0x1.fa08120000000p-4, 0x1.37ae160000000p-3, -0x1.3bae400000000p-5, -0x1.73c9d80000000p-4, 0x1.60c34a0000000p-4, -0x1.6510a00000000p-3, -0x1.8afa880000000p-4, 0x1.8240340000000p-13, -0x1.a9a8360000000p-2, -0x1.1544120000000p-5, -0x1.180fbe0000000p-3, -0x1.23e6640000000p-5, 0x1.4bd4160000000p-5, 0x1.4104120000000p-4, -0x1.f9e35c0000000p-4, 0x1.2b34700000000p-11, 0x1.ca856a0000000p-5, 0x1.4d0fa60000000p-4, -0x1.add2640000000p-3, -0x1.290fc40000000p-6, 0x1.3f045e0000000p-6, 0x1.4912940000000p-6, -0x1.beb60c0000000p-6}
, {-0x1.af91980000000p-6, -0x1.01e5aa0000000p-2, -0x1.229afa0000000p-2, 0x1.8d7fc60000000p-3, 0x1.efb9ac0000000p-4, 0x1.71d1dc0000000p-8, 0x1.3b34d00000000p-7, -0x1.8547700000000p-4, 0x1.7db1da0000000p-5, 0x1.1f5aec0000000p-7, -0x1.c06e940000000p-6, -0x1.7f15ec0000000p-5, -0x1.b9a9660000000p-5, -0x1.bc53820000000p-3, -0x1.8941080000000p-3, -0x1.35d9700000000p-5, 0x1.3fbea60000000p-5, -0x1.40cbc80000000p-3, -0x1.8ad6ba0000000p-3, 0x1.aa0b9c0000000p-4, -0x1.4ffa380000000p-4, 0x1.5068640000000p-6, 0x1.4908ca0000000p-6, 0x1.9963140000000p-5, 0x1.09d9520000000p-6, -0x1.0ade6e0000000p-5, 0x1.6bd85e0000000p-5, -0x1.5ed5b80000000p-2, 0x1.8dd49a0000000p-4, 0x1.1044a60000000p-9, 0x1.c364c80000000p-8, -0x1.d314ca0000000p-4}
, {0x1.3ed5fa0000000p-3, 0x1.01d4380000000p-4, -0x1.bcadec0000000p-3, -0x1.cf3c160000000p-6, -0x1.cbc4360000000p-4, 0x1.9786760000000p-5, -0x1.c7886c0000000p-5, 0x1.69fdfe0000000p-9, 0x1.03a6920000000p-6, -0x1.b658f80000000p-2, 0x1.08d6180000000p-4, -0x1.5f9a820000000p-2, 0x1.da10300000000p-5, -0x1.04e73c0000000p-1, -0x1.4896840000000p-3, -0x1.3ecd440000000p-5, -0x1.0c14820000000p-5, -0x1.41d6ee0000000p-2, -0x1.5fe5080000000p-5, 0x1.683e660000000p-3, -0x1.d725dc0000000p-4, 0x1.e530560000000p-4, -0x1.08db500000000p-2, 0x1.fc78a20000000p-4, -0x1.754b7e0000000p-4, -0x1.d71ace0000000p-6, -0x1.e0e0c40000000p-5, -0x1.2f5c0a0000000p-1, 0x1.0ee7640000000p-4, -0x1.6605560000000p-6, -0x1.043bfe0000000p-9, -0x1.112abe0000000p-2}
}
}
, {{{0x1.785dba0000000p-5, 0x1.2605e80000000p-3, -0x1.4bd1220000000p-2, -0x1.61a7140000000p-5, 0x1.cb48040000000p-4, 0x1.c2d4940000000p-4, -0x1.3f88560000000p-3, 0x1.49b1180000000p-4, 0x1.370f140000000p-6, -0x1.553c180000000p-7, 0x1.22b0d80000000p-5, -0x1.0b4fb00000000p-6, 0x1.dfdba00000000p-7, -0x1.0793cc0000000p-3, 0x1.3cea100000000p-7, 0x1.865e3a0000000p-3, -0x1.0ba7140000000p-2, 0x1.0b01300000000p-4, -0x1.8e453e0000000p-3, 0x1.0a04140000000p-5, -0x1.53a0e60000000p-4, 0x1.0138280000000p-5, 0x1.bde1f40000000p-4, -0x1.d79be80000000p-4, 0x1.1a7bc40000000p-4, 0x1.46197c0000000p-3, -0x1.3371860000000p-7, -0x1.34b7420000000p-9, 0x1.9a4ac60000000p-4, -0x1.d6f2180000000p-5, -0x1.ac5a2e0000000p-4, 0x1.a77dd20000000p-5}
, {0x1.72081e0000000p-9, -0x1.ec2dfe0000000p-5, -0x1.84a91e0000000p-2, 0x1.8f30260000000p-5, 0x1.f360560000000p-5, 0x1.7bca6c0000000p-3, -0x1.1332d60000000p-4, 0x1.fe41bc0000000p-4, 0x1.e528a20000000p-7, -0x1.a0a8f00000000p-5, -0x1.2d09a80000000p-8, 0x1.07f6700000000p-5, 0x1.b146760000000p-4, -0x1.f3d3120000000p-4, 0x1.be76220000000p-6, 0x1.90802a0000000p-5, -0x1.835efe0000000p-3, 0x1.2c38800000000p-3, 0x1.a8e9c20000000p-6, 0x1.3ab93c0000000p-3, 0x1.236d0c0000000p-3, 0x1.10c41e0000000p-3, 0x1.9d1ee40000000p-4, 0x1.68d29e0000000p-4, -0x1.e15fb60000000p-6, 0x1.c9c92c0000000p-3, 0x1.9862060000000p-4, 0x1.61252e0000000p-3, 0x1.c6aeba0000000p-5, -0x1.8ec2f20000000p-7, 0x1.8400840000000p-6, -0x1.94b12a0000000p-5}
, {0x1.27ef100000000p-3, -0x1.3392b20000000p-5, -0x1.59d2e40000000p-3, 0x1.c07b620000000p-4, 0x1.1aa60e0000000p-2, 0x1.ac49ac0000000p-3, -0x1.1771060000000p-5, 0x1.cbb9bc0000000p-4, -0x1.277a820000000p-6, -0x1.1005960000000p-6, 0x1.39e7b80000000p-5, 0x1.6b76d60000000p-5, 0x1.287bec0000000p-3, -0x1.148e5c0000000p-3, 0x1.34c8ce0000000p-3, 0x1.d1d06a0000000p-5, -0x1.91e57c0000000p-4, 0x1.0d0d1c0000000p-4, -0x1.db6c280000000p-4, 0x1.0d40aa0000000p-2, -0x1.41fe880000000p-5, 0x1.1a2c9a0000000p-3, 0x1.8ff3a00000000p-4, 0x1.4e3fda0000000p-5, 0x1.b8efbe0000000p-5, 0x1.7e5da40000000p-3, 0x1.ec25ee0000000p-7, 0x1.df98100000000p-4, 0x1.00ca6e0000000p-3, 0x1.1c7a000000000p-4, 0x1.78435c0000000p-4, 0x1.6923f00000000p-6}
}
, {{0x1.df521e0000000p-6, 0x1.b2b4920000000p-5, -0x1.ace8a00000000p-2, -0x1.d29ce20000000p-3, 0x1.4a33c40000000p-3, -0x1.1723f40000000p-3, -0x1.9fd0820000000p-2, -0x1.6c6dc20000000p-5, -0x1.132be80000000p-3, -0x1.3e5b2c0000000p-3, -0x1.c528a40000000p-3, -0x1.325ace0000000p-3, -0x1.037cd20000000p-4, -0x1.bd7ce40000000p-4, -0x1.8ddb160000000p-6, -0x1.bd44440000000p-5, -0x1.2008360000000p-2, -0x1.1f7fe60000000p-5, -0x1.1c3d160000000p-2, -0x1.0eefc40000000p-3, 0x1.abbfa60000000p-10, -0x1.355f260000000p-4, 0x1.06298a0000000p-3, -0x1.5d07480000000p-3, -0x1.9820060000000p-4, 0x1.3d747a0000000p-5, 0x1.62fbc40000000p-4, -0x1.c035820000000p-5, -0x1.4eaed80000000p-2, -0x1.0f37aa0000000p-5, -0x1.62ae740000000p-4, -0x1.3622380000000p-3}
, {-0x1.5ba08a0000000p-4, -0x1.61a5d00000000p-3, -0x1.0f56c80000000p-1, -0x1.473e7a0000000p-4, 0x1.a2bdc80000000p-3, -0x1.32912e0000000p-2, -0x1.de2e260000000p-3, -0x1.c920b60000000p-7, -0x1.99f7940000000p-4, 0x1.98a7d00000000p-6, -0x1.ae73de0000000p-3, -0x1.1d0dd00000000p-7, -0x1.532c0e0000000p-6, -0x1.5094680000000p-3, 0x1.3cb10a0000000p-3, -0x1.07cdea0000000p-2, -0x1.726bf60000000p-2, 0x1.a6c9f60000000p-6, -0x1.9635ca0000000p-4, 0x1.a174d60000000p-4, 0x1.0534b00000000p-5, 0x1.b4de0e0000000p-8, 0x1.bfb6b00000000p-3, -0x1.7ea2120000000p-5, -0x1.06ebfa0000000p-3, 0x1.e094140000000p-5, -0x1.245bd80000000p-7, 0x1.cc3b940000000p-5, -0x1.d0a5020000000p-2, 0x1.07b0b40000000p-7, -0x1.34dd840000000p-4, -0x1.fa44520000000p-5}
, {-0x1.28bab80000000p-3, -0x1.6a8e480000000p-3, -0x1.9d614c0000000p-3, -0x1.6581d20000000p-3, 0x1.0b990c0000000p-2, -0x1.0b7bce0000000p-3, -0x1.3171480000000p-2, 0x1.3db4960000000p-4, -0x1.c7f05a0000000p-4, 0x1.ea51320000000p-11, -0x1.b939240000000p-3, 0x1.45bff20000000p-5, 0x1.2bf10e0000000p-6, -0x1.61fabe0000000p-3, -0x1.6260fa0000000p-7, -0x1.430a120000000p-2, -0x1.c1cc3a0000000p-4, -0x1.2cf6a20000000p-5, -0x1.c3f36c0000000p-3, -0x1.22a3880000000p-7, 0x1.73e0040000000p-4, -0x1.7badd80000000p-3, 0x1.5400320000000p-3, -0x1.d54a480000000p-4, -0x1.710b580000000p-3, 0x1.14d05c0000000p-3, -0x1.7366aa0000000p-5, 0x1.5cf0160000000p-5, -0x1.244a7c0000000p-2, -0x1.955e700000000p-5, -0x1.21ba8e0000000p-5, -0x1.1f49540000000p-3}
}
, {{0x1.4ea8b60000000p-5, 0x1.00e2cc0000000p-3, -0x1.f1d1cc0000000p-3, -0x1.ceb8c00000000p-4, 0x1.c07a7e0000000p-6, -0x1.3086f20000000p-2, -0x1.dc4cdc0000000p-2, -0x1.cb22740000000p-7, -0x1.2a5d3c0000000p-2, -0x1.96d74a0000000p-7, -0x1.5a8dd40000000p-2, -0x1.5480d40000000p-3, -0x1.3b871a0000000p-3, -0x1.7485f00000000p-3, 0x1.2c87bc0000000p-4, -0x1.531ace0000000p-5, -0x1.05a3920000000p-1, -0x1.b6b8b80000000p-6, -0x1.031c040000000p-2, -0x1.1f3a4a0000000p-5, 0x1.90a06e0000000p-4, -0x1.ad06f20000000p-3, 0x1.a8a1a60000000p-4, -0x1.33fdee0000000p-3, -0x1.f1d3540000000p-2, 0x1.538d020000000p-3, 0x1.bd9d860000000p-5, -0x1.ba1cd60000000p-8, -0x1.79c5e60000000p-3, 0x1.b4cb6e0000000p-5, -0x1.72d11c0000000p-3, -0x1.32ebb00000000p-10}
, {-0x1.be1e080000000p-4, -0x1.cf993e0000000p-4, -0x1.805b2e0000000p-4, -0x1.b5b8500000000p-5, 0x1.05c7960000000p-3, -0x1.25052e0000000p-2, -0x1.d3c75c0000000p-2, -0x1.bba3d80000000p-4, -0x1.fa58600000000p-3, 0x1.c2a2600000000p-8, -0x1.6fead00000000p-2, 0x1.867e360000000p-6, -0x1.ffd4620000000p-3, -0x1.946e060000000p-4, 0x1.4e14ee0000000p-2, -0x1.68013c0000000p-3, -0x1.255bb40000000p-1, 0x1.2b7f680000000p-5, -0x1.3143580000000p-1, -0x1.00a25c0000000p-6, 0x1.7563880000000p-4, -0x1.31c68e0000000p-2, 0x1.50b8100000000p-4, -0x1.3292040000000p-3, -0x1.0ac66e0000000p-2, 0x1.2c8fa60000000p-3, -0x1.55e4060000000p-6, 0x1.9b84cc0000000p-3, -0x1.02b9fa0000000p-2, 0x1.5ef4f20000000p-7, -0x1.820e920000000p-3, 0x1.29e9300000000p-3}
, {-0x1.0d871a0000000p-7, -0x1.044d1a0000000p-3, -0x1.8d28f60000000p-6, -0x1.b351840000000p-4, 0x1.6f914a0000000p-3, -0x1.0a3d7c0000000p-2, -0x1.e617ca0000000p-2, 0x1.d67d700000000p-6, -0x1.029c3a0000000p-3, -0x1.3db0d00000000p-4, -0x1.2ce7e20000000p-2, -0x1.d4ddb80000000p-5, -0x1.141d3c0000000p-2, -0x1.c6021a0000000p-3, 0x1.73e4c80000000p-4, -0x1.7bdb1e0000000p-3, -0x1.6c4f7c0000000p-2, -0x1.763aaa0000000p-4, -0x1.41ba7a0000000p-1, 0x1.ef81aa0000000p-9, -0x1.21f7160000000p-14, -0x1.aeb2d80000000p-3, 0x1.b5de580000000p-3, -0x1.5afac60000000p-5, -0x1.5852ba0000000p-3, 0x1.6e019c0000000p-3, 0x1.a07d1a0000000p-10, 0x1.9e5dca0000000p-6, -0x1.2375960000000p-3, -0x1.13bdf40000000p-4, -0x1.1cf7000000000p-5, 0x1.499c880000000p-4}
}
}
, {{{0x1.5ad2740000000p-3, 0x1.8910220000000p-3, -0x1.c0c1c40000000p-2, 0x1.a2afda0000000p-3, -0x1.1f3c5c0000000p-2, 0x1.09ae0c0000000p-3, 0x1.8aa6d00000000p-3, -0x1.c7c6980000000p-5, -0x1.1a9ce40000000p-4, -0x1.9521e20000000p-2, 0x1.52558c0000000p-4, -0x1.fb17a60000000p-2, 0x1.44c9720000000p-4, -0x1.dbd22a0000000p-4, 0x1.ac50600000000p-8, -0x1.757f1c0000000p-4, 0x1.a44e120000000p-4, 0x1.982c940000000p-3, -0x1.a85f2e0000000p-6, 0x1.ae92780000000p-3, 0x1.95e0ee0000000p-3, 0x1.ec59da0000000p-5, -0x1.94d7f40000000p-2, 0x1.795d180000000p-4, -0x1.f5b0f60000000p-4, -0x1.b968a40000000p-4, -0x1.0dd0dc0000000p-4, 0x1.0b78b80000000p-3, 0x1.c4a7300000000p-9, 0x1.66e52e0000000p-4, 0x1.673a2c0000000p-4, -0x1.99d0ca0000000p-3}
, {0x1.1aa7bc0000000p-3, 0x1.aac8a00000000p-2, -0x1.a014c40000000p-2, 0x1.3152c60000000p-2, -0x1.8276960000000p-3, 0x1.6f57400000000p-3, 0x1.6114b40000000p-4, -0x1.e234300000000p-3, 0x1.389f9c0000000p-6, -0x1.be79ac0000000p-3, -0x1.3339b60000000p-4, -0x1.2506e20000000p-2, -0x1.4bf7880000000p-2, -0x1.7292020000000p-3, -0x1.eaa0a40000000p-3, 0x1.a779f00000000p-3, 0x1.0cca5e0000000p-4, 0x1.2229aa0000000p-2, -0x1.2c00060000000p-2, 0x1.a9bcfc0000000p-4, -0x1.73f1040000000p-3, -0x1.95d3600000000p-7, -0x1.3ce7980000000p-3, -0x1.2f38840000000p-3, 0x1.20c5400000000p-7, -0x1.40af5a0000000p-2, 0x1.b03fe60000000p-5, -0x1.bf9c920000000p-4, 0x1.2a4aee0000000p-3, 0x1.9e78f60000000p-7, -0x1.d1ad1a0000000p-5, 0x1.68dd9a0000000p-3}
, {0x1.6c531e0000000p-4, 0x1.516d440000000p-2, -0x1.8c06320000000p-2, 0x1.6aeaa40000000p-3, -0x1.3e06200000000p-3, 0x1.381e2c0000000p-3, 0x1.2a178e0000000p-5, -0x1.5edabc0000000p-3, 0x1.3947440000000p-4, -0x1.4924060000000p-3, 0x1.acad560000000p-4, -0x1.06dab20000000p-3, -0x1.09001a0000000p-2, -0x1.88cf3e0000000p-3, -0x1.b189920000000p-4, 0x1.2263ae0000000p-3, -0x1.6da6140000000p-10, -0x1.c6b6220000000p-4, -0x1.e40bdc0000000p-5, 0x1.251e160000000p-5, -0x1.e29de60000000p-3, 0x1.0726a80000000p-6, -0x1.281f4a0000000p-5, -0x1.17eb7a0000000p-3, 0x1.d9ae620000000p-4, -0x1.2e17e20000000p-3, -0x1.40f9360000000p-4, -0x1.156fbc0000000p-2, 0x1.7759b00000000p-3, -0x1.917f5e0000000p-5, -0x1.2425b00000000p-4, 0x1.4dca720000000p-4}
}
, {{-0x1.55bfb00000000p-4, 0x1.2d57e60000000p-2, -0x1.09c00a0000000p-4, 0x1.5b646c0000000p-3, -0x1.0b15e60000000p-1, 0x1.6040c20000000p-6, 0x1.a09be20000000p-6, -0x1.19b4240000000p-9, 0x1.9270e20000000p-5, -0x1.a112340000000p-2, -0x1.283c7e0000000p-3, -0x1.13424c0000000p-1, -0x1.5b164e0000000p-3, 0x1.83e0880000000p-5, -0x1.0612120000000p-1, 0x1.35c2d40000000p-6, 0x1.89d41c0000000p-9, 0x1.fdccd40000000p-3, -0x1.0d32f00000000p-7, 0x1.5d09b80000000p-4, -0x1.6673be0000000p-5, -0x1.0967b40000000p-2, -0x1.fed0160000000p-2, -0x1.f201e80000000p-3, -0x1.dc33060000000p-3, -0x1.0eeefc0000000p-1, -0x1.242e7c0000000p-4, -0x1.dd24220000000p-5, 0x1.1212a60000000p-5, -0x1.c665ca0000000p-5, -0x1.19b1820000000p-4, -0x1.5cc1b40000000p-4}
, {-0x1.4153c80000000p-3, 0x1.1149580000000p-2, -0x1.0e75a20000000p-1, 0x1.7d50d40000000p-3, -0x1.81ccae0000000p-2, 0x1.a6fbf00000000p-5, -0x1.9d88720000000p-4, -0x1.7e169e0000000p-3, -0x1.5e2a760000000p-4, -0x1.3427c00000000p-2, 0x1.365c9c0000000p-10, -0x1.7cfdc00000000p-2, -0x1.009c800000000p-1, -0x1.60400e0000000p-2, -0x1.5c155a0000000p-1, 0x1.8c4fc20000000p-4, -0x1.043db20000000p-4, -0x1.0e4bbe0000000p-5, -0x1.762d300000000p-2, 0x1.8b61380000000p-7, -0x1.0cbd200000000p-1, -0x1.d99c920000000p-3, -0x1.5ee1380000000p-2, -0x1.d2fa7e0000000p-2, -0x1.c936f40000000p-3, -0x1.3032ee0000000p-1, 0x1.16d6ac0000000p-5, -0x1.5290fc0000000p-2, 0x1.ca0d0c0000000p-4, 0x1.61fcf00000000p-6, -0x1.4960f20000000p-3, -0x1.2d43d00000000p-5}
, {-0x1.cd006c0000000p-5, 0x1.62e0460000000p-2, -0x1.ff74700000000p-3, 0x1.6d63360000000p-3, -0x1.0e7b260000000p-4, 0x1.4793a60000000p-4, -0x1.4ab8b60000000p-3, 0x1.77410c0000000p-5, 0x1.4c01c60000000p-6, 0x1.d61ca60000000p-6, 0x1.0a65ec0000000p-4, 0x1.7b8b560000000p-4, -0x1.b6e8c20000000p-2, -0x1.236d260000000p-2, -0x1.4bb6ee0000000p-2, 0x1.02204c0000000p-2, 0x1.44a2440000000p-4, -0x1.dc5c4a0000000p-4, -0x1.1aab6a0000000p-3, 0x1.8cc3040000000p-6, -0x1.05aada0000000p-2, -0x1.b8fb540000000p-4, 0x1.4fd0620000000p-4, -0x1.994a200000000p-2, 0x1.cf46b00000000p-5, -0x1.f9356c0000000p-2, 0x1.14bc120000000p-9, -0x1.828d7a0000000p-2, 0x1.35ab680000000p-3, -0x1.adf4880000000p-10, 0x1.51fea60000000p-6, 0x1.33df0c0000000p-3}
}
, {{-0x1.668ca40000000p-3, 0x1.20d6da0000000p-3, -0x1.e29bdc0000000p-6, 0x1.4a44f80000000p-2, -0x1.79cd4e0000000p-2, 0x1.80af800000000p-9, 0x1.eef67e0000000p-4, 0x1.e00d240000000p-4, 0x1.a585be0000000p-4, -0x1.f88a920000000p-4, -0x1.8213300000000p-6, -0x1.3108680000000p-3, -0x1.277b720000000p-4, 0x1.570a4e0000000p-5, -0x1.43eb6e0000000p-2, -0x1.6e00720000000p-5, 0x1.4f07a40000000p-3, -0x1.1ba60a0000000p-5, 0x1.5b810c0000000p-3, 0x1.8729da0000000p-4, 0x1.d2f3a00000000p-4, -0x1.02b2040000000p-2, -0x1.8e870e0000000p-2, -0x1.7b78100000000p-6, -0x1.72cb820000000p-3, -0x1.c61ed40000000p-2, 0x1.fd8aa00000000p-8, 0x1.01fe820000000p-5, 0x1.c258c80000000p-4, 0x1.0912d80000000p-4, -0x1.c754e00000000p-6, -0x1.7120e00000000p-3}
, {-0x1.e501620000000p-4, 0x1.80ea0c0000000p-3, -0x1.e93d400000000p-5, 0x1.85c47a0000000p-4, -0x1.9d61a00000000p-2, 0x1.2601fc0000000p-7, -0x1.38fc920000000p-3, 0x1.2d805e0000000p-3, 0x1.33073c0000000p-5, -0x1.26e3fc0000000p-6, -0x1.52350c0000000p-4, 0x1.da0ee60000000p-10, -0x1.ff3a320000000p-2, -0x1.ece6260000000p-10, -0x1.f7c74c0000000p-2, 0x1.aa74000000000p-3, 0x1.2e63220000000p-4, -0x1.80b9220000000p-4, -0x1.99c5c40000000p-3, -0x1.7fb5180000000p-5, -0x1.b956cc0000000p-2, -0x1.b6933e0000000p-4, -0x1.f575160000000p-4, -0x1.1253500000000p-2, -0x1.3410580000000p-8, -0x1.c576380000000p-2, 0x1.522da00000000p-8, -0x1.8b6c040000000p-4, 0x1.d8b9c00000000p-3, 0x1.5e76f60000000p-5, -0x1.844e0a0000000p-7, 0x1.c146060000000p-3}
, {-0x1.58b6de0000000p-4, 0x1.7f93b80000000p-5, -0x1.0423c20000000p-4, -0x1.5be43a0000000p-5, -0x1.97ce920000000p-5, -0x1.02c72c0000000p-5, -0x1.7697e00000000p-4, 0x1.59d5aa0000000p-3, 0x1.9136ac0000000p-4, 0x1.d0e97a0000000p-5, 0x1.31e4820000000p-3, 0x1.a81b1c0000000p-3, -0x1.e0d5160000000p-4, 0x1.fdf7580000000p-3, -0x1.5b0e820000000p-3, 0x1.3ca1840000000p-3, 0x1.ab5e960000000p-3, -0x1.85320e0000000p-6, 0x1.35b8d20000000p-3, -0x1.e2d7880000000p-5, -0x1.19bc940000000p-2, 0x1.415dec0000000p-6, 0x1.184bd40000000p-5, -0x1.0c2d900000000p-3, 0x1.fb868e0000000p-3, -0x1.a5d3540000000p-4, -0x1.e7fa0c0000000p-5, -0x1.0bed380000000p-2, 0x1.513eec0000000p-3, -0x1.22207c0000000p-4, 0x1.4b0ca40000000p-4, 0x1.0f7d580000000p-2}
}
}
, {{{-0x1.adb0440000000p-3, 0x1.e9c9a80000000p-4, 0x1.d1f7f00000000p-6, -0x1.c9f85e0000000p-6, 0x1.f8222c0000000p-4, -0x1.bccf920000000p-3, -0x1.26ea400000000p-3, -0x1.c447500000000p-3, -0x1.3842760000000p-4, 0x1.e0a66e0000000p-6, -0x1.1874a20000000p-2, -0x1.d741a60000000p-3, -0x1.56c6be0000000p-3, 0x1.3a38060000000p-3, 0x1.5269f00000000p-4, -0x1.df1aba0000000p-3, -0x1.cbd6980000000p-3, -0x1.8595f60000000p-4, -0x1.555fb40000000p-3, -0x1.67e1b40000000p-4, 0x1.0fc6c40000000p-3, -0x1.a161f20000000p-2, 0x1.b2b0760000000p-4, -0x1.81f4600000000p-3, -0x1.0594ae0000000p-1, 0x1.06eb8a0000000p-4, 0x1.8440320000000p-5, 0x1.0a5d240000000p-3, -0x1.c242e40000000p-3, -0x1.2a13c00000000p-5, -0x1.1e5aee0000000p-5, -0x1.36d4260000000p-2}
, {-0x1.8d75640000000p-3, -0x1.357e2a0000000p-2, 0x1.7407c60000000p-3, -0x1.34781c0000000p-2, 0x1.cb651a0000000p-3, -0x1.d469fc0000000p-3, -0x1.a13d4a0000000p-3, -0x1.76f9080000000p-5, -0x1.0078660000000p-2, 0x1.67bd480000000p-4, -0x1.a1d62a0000000p-2, -0x1.8a35400000000p-4, -0x1.f1aea40000000p-5, 0x1.496e780000000p-7, 0x1.985c580000000p-3, -0x1.cb61180000000p-2, -0x1.61be440000000p-2, 0x1.0600ae0000000p-6, -0x1.4f88d20000000p-3, -0x1.b4bfb60000000p-3, 0x1.23961a0000000p-3, -0x1.f726440000000p-3, 0x1.afb5b80000000p-3, -0x1.6db19a0000000p-4, -0x1.065d740000000p-1, 0x1.ef36c40000000p-4, 0x1.acdccc0000000p-6, 0x1.1464f60000000p-2, -0x1.6230840000000p-2, 0x1.a527180000000p-6, -0x1.9897b20000000p-7, -0x1.6b2b100000000p-2}
, {-0x1.b83d480000000p-3, -0x1.7160940000000p-3, 0x1.5fad500000000p-3, -0x1.63fc780000000p-3, 0x1.fa09780000000p-3, -0x1.94f60a0000000p-2, -0x1.27e6b80000000p-2, -0x1.b04f900000000p-4, -0x1.0245a60000000p-2, 0x1.3943e40000000p-3, -0x1.938cd40000000p-2, -0x1.0d0ec00000000p-3, -0x1.c711660000000p-3, -0x1.0ca2880000000p-6, 0x1.b733960000000p-6, -0x1.26d9b60000000p-2, -0x1.a32a800000000p-2, 0x1.737a8c0000000p-8, -0x1.a26bcc0000000p-3, -0x1.6513280000000p-3, 0x1.32e8c00000000p-3, -0x1.3261480000000p-2, 0x1.e205b80000000p-3, -0x1.5eb7920000000p-3, -0x1.b7d29a0000000p-2, 0x1.bb54080000000p-5, -0x1.12cb720000000p-4, 0x1.f434a00000000p-4, -0x1.3df8480000000p-2, -0x1.9acf1c0000000p-5, 0x1.5d56e00000000p-7, -0x1.015b580000000p-3}
}
, {{-0x1.7e4a480000000p-3, 0x1.e43d680000000p-5, 0x1.7427d40000000p-2, -0x1.eec5240000000p-6, -0x1.fa344e0000000p-5, 0x1.12f82c0000000p-3, -0x1.85d23a0000000p-4, -0x1.4c7bf20000000p-3, 0x1.7dce7e0000000p-5, 0x1.d0d01c0000000p-5, -0x1.c19ab20000000p-5, -0x1.9fefca0000000p-3, -0x1.d59f500000000p-2, 0x1.7b2ca00000000p-5, -0x1.384d4a0000000p-3, 0x1.c4a9440000000p-5, -0x1.48cd7e0000000p-4, -0x1.b88e4e0000000p-3, -0x1.00ed720000000p-2, -0x1.cde0ac0000000p-3, -0x1.8760580000000p-4, -0x1.e166aa0000000p-3, 0x1.1cab4c0000000p-5, -0x1.1d38aa0000000p-2, -0x1.03ade80000000p-3, -0x1.f8fc840000000p-3, 0x1.350a600000000p-5, -0x1.1458f00000000p-5, 0x1.40f71a0000000p-4, 0x1.fd976c0000000p-5, -0x1.b143d60000000p-6, 0x1.b4fcb20000000p-7}
, {-0x1.ac20180000000p-3, -0x1.41e43c0000000p-2, 0x1.898b000000000p-2, -0x1.4036a40000000p-6, 0x1.b0afb40000000p-6, 0x1.8e78120000000p-8, -0x1.9aff9c0000000p-3, -0x1.ff86b80000000p-3, -0x1.7be7d60000000p-4, 0x1.0146800000000p-3, -0x1.5ab2380000000p-2, -0x1.c654a00000000p-4, -0x1.01f95a0000000p-3, 0x1.8392b00000000p-4, -0x1.66b8f00000000p-5, -0x1.1c6fc00000000p-4, -0x1.3029d40000000p-3, -0x1.413f440000000p-3, -0x1.335f5a0000000p-3, -0x1.53be680000000p-3, 0x1.55bd8e0000000p-4, -0x1.df12340000000p-2, 0x1.1acf520000000p-5, -0x1.d4ef1e0000000p-3, -0x1.1682180000000p-2, -0x1.2fc30a0000000p-4, 0x1.669b7e0000000p-10, 0x1.f4ad280000000p-4, 0x1.93394c0000000p-5, -0x1.29b2ce0000000p-4, -0x1.6650ba0000000p-5, -0x1.0bf7220000000p-7}
, {-0x1.9297fe0000000p-3, -0x1.f68ccc0000000p-3, 0x1.86c4c20000000p-2, -0x1.1ecad00000000p-2, 0x1.7e91f00000000p-6, -0x1.a80b020000000p-8, -0x1.1895120000000p-2, -0x1.9716ca0000000p-3, -0x1.d0b9e60000000p-4, 0x1.98cb4c0000000p-3, -0x1.fd2cc20000000p-4, 0x1.20d6a80000000p-3, -0x1.2951b40000000p-2, -0x1.1b8a180000000p-5, -0x1.d78e9c0000000p-4, 0x1.1598940000000p-5, -0x1.30dd420000000p-2, -0x1.08da840000000p-4, -0x1.9c3b920000000p-2, -0x1.e697440000000p-3, -0x1.f5dd120000000p-7, -0x1.e5dee80000000p-2, 0x1.c4af580000000p-3, -0x1.a5374a0000000p-3, 0x1.62d46a0000000p-4, -0x1.d8c33c0000000p-3, 0x1.aac94e0000000p-5, 0x1.b539de0000000p-5, 0x1.47ef240000000p-6, 0x1.0a5a7e0000000p-4, -0x1.7922180000000p-4, 0x1.debe1a0000000p-3}
}
, {{0x1.0c1c1c0000000p-2, 0x1.77e0100000000p-2, 0x1.2b64380000000p-2, 0x1.60cdb80000000p-7, -0x1.72c3240000000p-5, 0x1.31131e0000000p-2, -0x1.60911a0000000p-6, -0x1.035dd80000000p-3, 0x1.1e8fc40000000p-5, -0x1.7893a40000000p-3, 0x1.4139fe0000000p-2, -0x1.d577780000000p-3, 0x1.06e5520000000p-5, -0x1.e4674c0000000p-4, 0x1.005a160000000p-5, 0x1.01d8e80000000p-3, 0x1.0ad64a0000000p-4, -0x1.8871160000000p-3, -0x1.22743e0000000p-2, 0x1.e49acc0000000p-3, -0x1.461eca0000000p-2, 0x1.635ee60000000p-2, -0x1.8376e60000000p-3, 0x1.50dd1e0000000p-3, -0x1.c8f7900000000p-5, 0x1.3e39760000000p-5, -0x1.c663600000000p-5, -0x1.bf8c680000000p-2, 0x1.bac0180000000p-5, 0x1.8344060000000p-5, 0x1.22685e0000000p-4, -0x1.0b56dc0000000p-5}
, {0x1.4784e60000000p-3, 0x1.7a2c800000000p-5, 0x1.708f0a0000000p-2, 0x1.2851360000000p-3, -0x1.835fe40000000p-3, 0x1.f22a020000000p-4, 0x1.2fb4160000000p-5, -0x1.540b9c0000000p-3, 0x1.12624c0000000p-4, -0x1.21b90c0000000p-8, 0x1.7eb6920000000p-3, -0x1.1d0a8c0000000p-3, 0x1.1de5da0000000p-3, -0x1.0ec2380000000p-3, -0x1.ba6eee0000000p-5, 0x1.bcdd940000000p-4, 0x1.601dac0000000p-9, -0x1.d7d7340000000p-3, -0x1.6468320000000p-6, 0x1.1dbf000000000p-3, -0x1.6377100000000p-4, 0x1.d7dffc0000000p-3, -0x1.57c14a0000000p-3, 0x1.2a1ab20000000p-6, -0x1.3466de0000000p-4, -0x1.1b526c0000000p-3, 0x1.7806160000000p-5, -0x1.31accc0000000p-2, 0x1.05792c0000000p-2, -0x1.3597ea0000000p-4, 0x1.0c9f5e0000000p-5, 0x1.7a1c1a0000000p-4}
, {0x1.6a451a0000000p-4, 0x1.4da6400000000p-7, 0x1.593de40000000p-2, 0x1.086f1a0000000p-5, -0x1.2b95560000000p-4, 0x1.61bc100000000p-3, -0x1.8e398e0000000p-4, -0x1.6623940000000p-5, 0x1.0c13580000000p-4, -0x1.e22cf80000000p-5, -0x1.ca673c0000000p-5, -0x1.b0cd940000000p-5, 0x1.f2ac700000000p-4, -0x1.1a8ba20000000p-5, -0x1.4a113c0000000p-3, 0x1.bb3ce80000000p-6, -0x1.a1278e0000000p-4, -0x1.4943da0000000p-2, -0x1.0f5c2a0000000p-3, 0x1.f40f400000000p-4, -0x1.a651bc0000000p-4, 0x1.89725c0000000p-3, -0x1.05ab860000000p-3, 0x1.ddf9d00000000p-4, 0x1.1cd19e0000000p-11, 0x1.dd45ee0000000p-6, 0x1.744ad40000000p-6, -0x1.68365a0000000p-3, 0x1.25a4520000000p-3, -0x1.fa9d980000000p-5, -0x1.1e54740000000p-5, 0x1.ec024a0000000p-6}
}
}
, {{{0x1.2fb6560000000p-7, 0x1.37a0e20000000p-5, -0x1.0d7d380000000p-5, 0x1.24841a0000000p-4, 0x1.5e305c0000000p-7, -0x1.17203e0000000p-5, -0x1.94f8b40000000p-4, -0x1.f490620000000p-5, -0x1.4354500000000p-4, -0x1.6c1fce0000000p-8, -0x1.0a04b00000000p-3, -0x1.3814400000000p-4, -0x1.91a8120000000p-6, -0x1.f7d8ae0000000p-9, 0x1.d7bd160000000p-9, -0x1.36a5aa0000000p-4, -0x1.6c24520000000p-4, -0x1.349baa0000000p-5, 0x1.1038c00000000p-7, 0x1.087a860000000p-7, -0x1.0717ce0000000p-4, -0x1.f88b200000000p-4, -0x1.2546d00000000p-4, -0x1.da2e3c0000000p-5, 0x1.91e2200000000p-6, -0x1.5939aa0000000p-4, -0x1.b444180000000p-6, 0x1.8f99180000000p-5, -0x1.6e7be60000000p-7, -0x1.9a10000000000p-8, -0x1.783f9a0000000p-5, -0x1.73c9840000000p-4}
, {-0x1.d48b6c0000000p-5, 0x1.a01d880000000p-5, -0x1.8180560000000p-10, 0x1.6114a40000000p-6, -0x1.95ba5c0000000p-4, 0x1.2d0c280000000p-5, -0x1.6ae2300000000p-4, 0x1.f114020000000p-5, -0x1.d4e59a0000000p-5, -0x1.1c70580000000p-4, -0x1.a008a00000000p-6, 0x1.758c320000000p-5, -0x1.1b5c620000000p-4, -0x1.43e7da0000000p-4, 0x1.1093500000000p-6, -0x1.11c5e60000000p-4, -0x1.0bedb80000000p-4, 0x1.05d60c0000000p-4, -0x1.96f8e60000000p-5, -0x1.cc9f220000000p-6, 0x1.0c71020000000p-5, 0x1.b393ce0000000p-6, 0x1.fb4c260000000p-6, -0x1.2dad780000000p-5, 0x1.6644d00000000p-7, -0x1.77deb60000000p-6, -0x1.0555400000000p-6, 0x1.1b070e0000000p-6, 0x1.61d50c0000000p-6, 0x1.c55b8c0000000p-5, -0x1.31491a0000000p-6, -0x1.563a200000000p-5}
, {0x1.9309e40000000p-5, 0x1.bd7c4e0000000p-9, 0x1.7d9fec0000000p-5, -0x1.1f01400000000p-4, -0x1.7b04a80000000p-5, -0x1.8a6dac0000000p-4, -0x1.649ba40000000p-4, -0x1.283d720000000p-4, -0x1.71d7d40000000p-5, -0x1.dbb83c0000000p-5, -0x1.0ecda60000000p-7, -0x1.1b9a3c0000000p-7, -0x1.3cc8f80000000p-4, -0x1.a7ebce0000000p-5, 0x1.e6d2d00000000p-5, -0x1.b65cc00000000p-4, -0x1.5f38e40000000p-4, 0x1.9dd3960000000p-12, -0x1.a7cc060000000p-5, 0x1.7fa09e0000000p-8, -0x1.591a8c0000000p-4, -0x1.392ee80000000p-5, 0x1.860b1c0000000p-5, -0x1.0ec6980000000p-9, -0x1.00ca860000000p-6, -0x1.a421ae0000000p-11, -0x1.0549400000000p-5, -0x1.8dfe1a0000000p-5, -0x1.3ab67e0000000p-4, 0x1.52f2f60000000p-4, 0x1.89c3940000000p-6, -0x1.5c68ae0000000p-5}
}
, {{-0x1.4d3d920000000p-4, -0x1.86aa8c0000000p-8, 0x1.8334480000000p-9, 0x1.133fd80000000p-4, -0x1.e562ce0000000p-5, -0x1.ca17540000000p-7, 0x1.09c05c0000000p-5, -0x1.7988b80000000p-4, 0x1.7e9ba20000000p-6, -0x1.3a1fe00000000p-4, 0x1.8935200000000p-6, -0x1.487f220000000p-7, -0x1.06134c0000000p-6, 0x1.b99de60000000p-6, -0x1.e178960000000p-5, -0x1.07a1be0000000p-6, -0x1.61eb6e0000000p-4, 0x1.ddcc420000000p-5, 0x1.9e05140000000p-11, -0x1.455dc20000000p-5, -0x1.46d23a0000000p-5, -0x1.4f39120000000p-4, 0x1.7c07440000000p-8, 0x1.aed4fc0000000p-5, 0x1.54afaa0000000p-5, -0x1.3cc6e20000000p-11, 0x1.1261c60000000p-4, -0x1.1f930c0000000p-4, 0x1.bc05220000000p-5, -0x1.019c060000000p-4, -0x1.4ece4c0000000p-5, -0x1.02b51c0000000p-5}
, {0x1.0ecd000000000p-5, 0x1.6b0dca0000000p-5, -0x1.1007920000000p-4, -0x1.68f7f60000000p-7, 0x1.8482120000000p-5, 0x1.b01f060000000p-7, 0x1.6a9c5a0000000p-7, 0x1.8bb8640000000p-9, -0x1.29f28a0000000p-11, -0x1.7090100000000p-6, 0x1.9f84a80000000p-7, 0x1.52dae80000000p-4, -0x1.a40fa40000000p-4, -0x1.bda00a0000000p-4, 0x1.374b520000000p-6, 0x1.6a625c0000000p-6, -0x1.4f2db00000000p-4, -0x1.e044aa0000000p-6, -0x1.76396e0000000p-4, 0x1.5945fe0000000p-6, 0x1.4444200000000p-4, 0x1.014d560000000p-5, 0x1.7c427e0000000p-11, 0x1.ce2ab20000000p-11, 0x1.02a2240000000p-5, 0x1.c62d700000000p-7, -0x1.4cf4460000000p-4, 0x1.db26620000000p-8, -0x1.c446d00000000p-7, 0x1.1256020000000p-4, -0x1.b4bd980000000p-4, -0x1.8e0ad00000000p-4}
, {-0x1.45bfcc0000000p-5, 0x1.1788de0000000p-5, -0x1.b6c8d20000000p-5, -0x1.06edf60000000p-4, -0x1.8c56aa0000000p-5, -0x1.5e8bdc0000000p-4, -0x1.b2ecac0000000p-4, -0x1.4a2b640000000p-4, 0x1.fb442c0000000p-6, 0x1.01e2fa0000000p-4, 0x1.f76bea0000000p-6, 0x1.95fb460000000p-5, 0x1.79f4b20000000p-6, 0x1.4856e20000000p-7, -0x1.13ad340000000p-4, -0x1.98edee0000000p-6, -0x1.ffe06c0000000p-6, -0x1.4018080000000p-4, 0x1.47c7c60000000p-6, -0x1.f3633c0000000p-5, 0x1.eed7e00000000p-6, -0x1.eaade20000000p-4, -0x1.99e8cc0000000p-5, -0x1.c58e540000000p-4, -0x1.3659a60000000p-4, -0x1.09a9560000000p-5, 0x1.6133600000000p-8, 0x1.3af2c20000000p-6, -0x1.55313c0000000p-4, -0x1.c2ed200000000p-5, -0x1.c7ff400000000p-6, -0x1.e2f8680000000p-10}
}
, {{-0x1.6fec000000000p-8, 0x1.1e628e0000000p-4, -0x1.2510960000000p-4, 0x1.da27c40000000p-7, -0x1.920b4c0000000p-5, -0x1.3002b20000000p-5, -0x1.9931760000000p-5, -0x1.7e1cae0000000p-4, -0x1.b754e00000000p-5, -0x1.709d140000000p-5, -0x1.81babc0000000p-5, -0x1.5247420000000p-5, -0x1.0da4020000000p-5, 0x1.be2f080000000p-6, -0x1.264fa20000000p-8, -0x1.568bd00000000p-5, -0x1.a7112a0000000p-5, -0x1.3d45120000000p-4, -0x1.337f480000000p-4, 0x1.40fc760000000p-11, 0x1.9d4aa40000000p-6, 0x1.7398ce0000000p-8, -0x1.b681e80000000p-9, -0x1.20c5880000000p-10, -0x1.b3fbae0000000p-4, -0x1.f22ec80000000p-6, 0x1.2efc920000000p-4, -0x1.9f32580000000p-9, -0x1.3d1a480000000p-4, -0x1.2c6f180000000p-6, -0x1.87d7180000000p-6, -0x1.9f33c60000000p-4}
, {0x1.daa6340000000p-5, 0x1.47a0d80000000p-6, 0x1.69fb6a0000000p-5, 0x1.081b380000000p-5, 0x1.1e7d940000000p-6, -0x1.5d33720000000p-4, -0x1.06daf60000000p-4, -0x1.5350ce0000000p-8, -0x1.5fb52c0000000p-4, 0x1.8347000000000p-9, 0x1.d4c2c60000000p-5, 0x1.f928f80000000p-5, -0x1.09a02a0000000p-4, 0x1.b9ceea0000000p-6, -0x1.7087880000000p-6, -0x1.0760c40000000p-5, 0x1.4afef40000000p-6, -0x1.34fcd20000000p-6, 0x1.1d51f20000000p-6, 0x1.9bb8dc0000000p-6, 0x1.6530720000000p-4, -0x1.546ff60000000p-6, 0x1.b2a6ee0000000p-7, -0x1.033cc00000000p-4, 0x1.d19d4c0000000p-5, -0x1.0ec7ea0000000p-5, -0x1.2721a80000000p-6, -0x1.87328a0000000p-6, -0x1.1acc0a0000000p-5, 0x1.d2d1cc0000000p-5, 0x1.1c510e0000000p-5, -0x1.d236a60000000p-5}
, {-0x1.4bc9e40000000p-4, 0x1.3bddf40000000p-4, 0x1.9d743a0000000p-5, -0x1.7329a80000000p-4, 0x1.622f160000000p-5, -0x1.4a1bea0000000p-7, -0x1.3221620000000p-4, -0x1.3b03b00000000p-7, -0x1.1aa87a0000000p-5, 0x1.7926380000000p-5, -0x1.1496fe0000000p-4, -0x1.2530bc0000000p-4, -0x1.ee44fa0000000p-7, 0x1.07f2400000000p-8, 0x1.d993980000000p-5, 0x1.d7a1940000000p-5, -0x1.539e000000000p-5, -0x1.5dd2a80000000p-8, 0x1.02cb760000000p-15, 0x1.27ce420000000p-5, 0x1.cc57e00000000p-5, -0x1.4f34a40000000p-5, -0x1.4dbc340000000p-4, 0x1.1b55300000000p-8, -0x1.28d87a0000000p-4, -0x1.ca4a880000000p-9, 0x1.f64b240000000p-5, -0x1.b80eb60000000p-5, -0x1.a909ec0000000p-5, 0x1.cfe2d40000000p-5, 0x1.62979e0000000p-6, 0x1.466cdc0000000p-5}
}
}
, {{{-0x1.fb2e000000000p-3, -0x1.4986640000000p-2, 0x1.6ffd8e0000000p-4, -0x1.febf3e0000000p-3, 0x1.6d3cfc0000000p-5, -0x1.9d7b960000000p-7, -0x1.6c69f60000000p-3, 0x1.91d7c60000000p-8, 0x1.09a9a40000000p-7, 0x1.e22d3c0000000p-3, -0x1.7f07c80000000p-4, 0x1.e683ec0000000p-3, 0x1.7a1b120000000p-8, -0x1.32ac700000000p-2, -0x1.7201e20000000p-2, 0x1.3d9ad40000000p-4, -0x1.a498ae0000000p-13, -0x1.12fb220000000p-3, -0x1.c33f4a0000000p-4, 0x1.62f0c00000000p-8, -0x1.dabbd80000000p-3, 0x1.07c9a60000000p-7, 0x1.6fe4d60000000p-3, -0x1.32beb40000000p-5, 0x1.65f5900000000p-3, -0x1.1869c20000000p-3, -0x1.0fb1d80000000p-4, -0x1.4ed9c40000000p-3, 0x1.c2fcae0000000p-3, 0x1.2fe8320000000p-4, 0x1.3d325c0000000p-5, 0x1.e52c580000000p-4}
, {-0x1.1c2fec0000000p-5, -0x1.4563e20000000p-3, 0x1.8473fa0000000p-10, -0x1.bd74ac0000000p-5, -0x1.3cc1340000000p-4, 0x1.54be680000000p-4, -0x1.078b900000000p-2, -0x1.2a77d80000000p-6, 0x1.78ebda0000000p-8, -0x1.97f5a80000000p-4, 0x1.ff3d840000000p-7, -0x1.23589e0000000p-3, -0x1.784f3a0000000p-4, -0x1.2a24340000000p-2, -0x1.21b1aa0000000p-2, 0x1.0b7f940000000p-8, -0x1.34b8300000000p-7, -0x1.e018620000000p-2, -0x1.d331fe0000000p-3, 0x1.5dfdb80000000p-5, -0x1.73d1300000000p-2, 0x1.97eeb80000000p-6, -0x1.35fe6e0000000p-3, -0x1.5f11220000000p-3, -0x1.6252620000000p-6, -0x1.0d77b20000000p-2, -0x1.3372080000000p-4, -0x1.c0908e0000000p-3, 0x1.fb842e0000000p-4, -0x1.3fdc680000000p-4, -0x1.51d8d60000000p-6, -0x1.149b3a0000000p-6}
, {0x1.f08dde0000000p-4, 0x1.cb54b80000000p-3, -0x1.f5b1000000000p-4, 0x1.6134940000000p-6, -0x1.456d080000000p-4, 0x1.422d6c0000000p-3, -0x1.7749b80000000p-3, -0x1.3ccba40000000p-4, 0x1.470f420000000p-3, -0x1.eced420000000p-3, 0x1.d332000000000p-3, -0x1.544e980000000p-3, -0x1.64444a0000000p-4, 0x1.bb35460000000p-8, -0x1.4ae0a40000000p-3, 0x1.6a705c0000000p-3, 0x1.73aff40000000p-5, -0x1.12e8020000000p-2, -0x1.72348e0000000p-3, -0x1.10a0260000000p-7, -0x1.4533920000000p-3, 0x1.6a8a820000000p-3, -0x1.c522e60000000p-3, -0x1.e6ccbe0000000p-5, 0x1.f3e23c0000000p-3, -0x1.c4f9960000000p-5, -0x1.4052c40000000p-4, -0x1.34383a0000000p-1, 0x1.cc9e020000000p-5, 0x1.693b780000000p-5, -0x1.6ec81c0000000p-4, 0x1.ca19e20000000p-12}
}
, {{0x1.2a13e00000000p-4, 0x1.87aa240000000p-3, 0x1.c2c7000000000p-4, -0x1.0bbef80000000p-11, 0x1.687cec0000000p-5, -0x1.dbf80a0000000p-7, -0x1.46b0be0000000p-5, 0x1.37b01a0000000p-3, -0x1.917d8e0000000p-5, -0x1.c49e360000000p-7, -0x1.3fc1a40000000p-3, 0x1.4f2c280000000p-8, 0x1.f89e080000000p-4, -0x1.e477220000000p-6, 0x1.3191de0000000p-6, -0x1.2a1c2a0000000p-3, -0x1.3f14520000000p-6, 0x1.1c9bf40000000p-4, 0x1.088f380000000p-2, 0x1.69333e0000000p-3, 0x1.b616a80000000p-5, 0x1.f1c24e0000000p-3, 0x1.7ed34e0000000p-5, 0x1.8322020000000p-7, -0x1.49515e0000000p-4, 0x1.7214740000000p-3, -0x1.1a72320000000p-5, -0x1.5211000000000p-2, 0x1.0352d40000000p-6, -0x1.c6728a0000000p-7, -0x1.0ead000000000p-4, -0x1.0b4de80000000p-5}
, {0x1.6724580000000p-4, 0x1.35a8280000000p-2, 0x1.613aec0000000p-2, -0x1.fa1b9e0000000p-6, 0x1.e836b60000000p-8, 0x1.2fbb4c0000000p-4, -0x1.72a62e0000000p-4, 0x1.fa399e0000000p-3, -0x1.9200fe0000000p-5, -0x1.0d1e9c0000000p-2, 0x1.848df80000000p-5, -0x1.6ec3b80000000p-2, 0x1.45ccd40000000p-3, 0x1.817e840000000p-4, 0x1.20da820000000p-3, -0x1.7b7f220000000p-4, -0x1.3eafe40000000p-4, -0x1.9db21e0000000p-11, -0x1.afa07c0000000p-10, 0x1.6d5ebe0000000p-2, 0x1.6d5b560000000p-11, 0x1.787da20000000p-2, 0x1.9947040000000p-3, 0x1.296d6a0000000p-3, -0x1.eb508a0000000p-4, 0x1.9a566a0000000p-3, 0x1.a031c60000000p-8, -0x1.3e0e7c0000000p-2, -0x1.075d100000000p-6, -0x1.c91af80000000p-6, 0x1.3a4c060000000p-5, -0x1.70b02c0000000p-2}
, {0x1.204cf20000000p-4, 0x1.4bea6e0000000p-2, -0x1.3dbd160000000p-3, 0x1.11d8dc0000000p-4, -0x1.78a6fa0000000p-3, -0x1.9caf120000000p-5, 0x1.5b7b8a0000000p-4, 0x1.d29b860000000p-4, -0x1.233d6a0000000p-6, -0x1.21f7440000000p-4, 0x1.4452660000000p-5, -0x1.0535380000000p-2, 0x1.3623d20000000p-3, -0x1.698cce0000000p-8, 0x1.a38eb40000000p-3, -0x1.db02c00000000p-4, -0x1.4586040000000p-4, -0x1.3ce5440000000p-4, -0x1.6329280000000p-5, 0x1.dda5260000000p-3, 0x1.c00e720000000p-3, 0x1.a84fde0000000p-3, -0x1.f56bda0000000p-5, 0x1.1828480000000p-4, -0x1.a789be0000000p-3, 0x1.84b1c40000000p-4, -0x1.0539200000000p-4, -0x1.35d2d00000000p-3, -0x1.178ad80000000p-3, -0x1.2d6b0c0000000p-6, -0x1.0d2aaa0000000p-6, -0x1.9a53120000000p-5}
}
, {{-0x1.73f0100000000p-4, -0x1.6b54e20000000p-3, -0x1.30fa880000000p-10, 0x1.db4e820000000p-3, 0x1.2f18340000000p-2, 0x1.643f620000000p-9, -0x1.02a0120000000p-4, 0x1.a8bb200000000p-5, -0x1.72b5ca0000000p-5, 0x1.2fd8700000000p-4, -0x1.c817d20000000p-4, 0x1.b5c2460000000p-5, -0x1.2b1ba60000000p-2, 0x1.021bba0000000p-3, -0x1.c58ec40000000p-6, -0x1.809a580000000p-4, -0x1.9d19fa0000000p-5, 0x1.d927700000000p-4, -0x1.a86f2a0000000p-4, -0x1.40ee040000000p-2, 0x1.0b10e40000000p-4, -0x1.27b7460000000p-2, 0x1.433b660000000p-3, -0x1.a3faf20000000p-3, -0x1.33ac2e0000000p-4, 0x1.d5794a0000000p-4, -0x1.6c23100000000p-4, -0x1.11878a0000000p-5, 0x1.5d94a60000000p-6, -0x1.9ab5180000000p-4, 0x1.fb46280000000p-4, -0x1.0ebe9c0000000p-3}
, {-0x1.92b2ce0000000p-4, 0x1.beec420000000p-5, 0x1.909b5c0000000p-3, -0x1.802fb60000000p-4, 0x1.7d329c0000000p-4, 0x1.53589e0000000p-4, -0x1.0dbf740000000p-2, -0x1.fa91a20000000p-7, 0x1.6c7ca40000000p-5, 0x1.6a68fa0000000p-4, -0x1.2daf0e0000000p-3, 0x1.0535d40000000p-8, -0x1.65fa760000000p-2, 0x1.18c3d80000000p-2, -0x1.491e2a0000000p-3, -0x1.2bd4680000000p-5, 0x1.2e5b560000000p-4, -0x1.d5010c0000000p-3, -0x1.2f478a0000000p-2, -0x1.50120e0000000p-2, -0x1.e04b9e0000000p-3, -0x1.2309e80000000p-2, 0x1.ba1da00000000p-4, -0x1.2c06320000000p-3, -0x1.0931380000000p-2, -0x1.8f99320000000p-4, 0x1.01f6bc0000000p-5, -0x1.0851ce0000000p-4, 0x1.6460de0000000p-3, -0x1.fb69980000000p-5, 0x1.2849d60000000p-3, -0x1.5b5ea00000000p-3}
, {-0x1.f30c0a0000000p-6, 0x1.11875c0000000p-2, -0x1.04e1460000000p-4, -0x1.4729420000000p-2, 0x1.f7984c0000000p-5, -0x1.1975460000000p-9, -0x1.7068520000000p-2, 0x1.2cb4320000000p-3, -0x1.eec6340000000p-6, 0x1.bf72240000000p-3, -0x1.725b320000000p-5, 0x1.ab5f460000000p-4, -0x1.c2fcee0000000p-2, 0x1.4504ba0000000p-2, 0x1.2453660000000p-4, 0x1.4934a20000000p-5, 0x1.0c2ec00000000p-5, -0x1.d50af00000000p-3, -0x1.0e882e0000000p-2, -0x1.0e49fa0000000p-2, -0x1.23cbaa0000000p-2, -0x1.3b35520000000p-3, -0x1.de5aba0000000p-5, -0x1.9da5b20000000p-3, -0x1.0e8ee00000000p-6, 0x1.1e8b820000000p-4, 0x1.a6ec880000000p-9, 0x1.1ab6e00000000p-3, 0x1.7077640000000p-4, 0x1.1a67f80000000p-4, 0x1.ad296a0000000p-7, 0x1.58da720000000p-5}
}
}
, {{{-0x1.e149a40000000p-4, -0x1.2a55ae0000000p-1, -0x1.0c768c0000000p-3, -0x1.a8a0c80000000p-3, -0x1.c927220000000p-5, 0x1.39760a0000000p-3, -0x1.fc6cda0000000p-5, 0x1.d104660000000p-8, 0x1.19075e0000000p-3, -0x1.df6e9a0000000p-3, 0x1.723da40000000p-5, -0x1.8102380000000p-3, 0x1.70af700000000p-7, -0x1.75af0c0000000p-1, -0x1.af77a60000000p-2, 0x1.927fbe0000000p-5, 0x1.606c360000000p-3, -0x1.12975c0000000p-5, -0x1.1b9cea0000000p-3, 0x1.25cb180000000p-3, -0x1.76b4880000000p-3, 0x1.6397860000000p-5, -0x1.4ce5160000000p-4, -0x1.d0ee2c0000000p-8, -0x1.33cb6e0000000p-6, -0x1.0580260000000p-1, -0x1.3dd29a0000000p-4, -0x1.0414be0000000p-1, 0x1.a2bc4a0000000p-4, 0x1.9223720000000p-9, 0x1.bf42220000000p-4, -0x1.9a4d1e0000000p-3}
, {0x1.9a86400000000p-11, -0x1.db18a20000000p-2, 0x1.3385c20000000p-4, 0x1.48a6800000000p-3, -0x1.5ab38c0000000p-2, 0x1.87f4000000000p-4, 0x1.3520160000000p-3, 0x1.7af77e0000000p-6, 0x1.0740c20000000p-3, -0x1.b7e47a0000000p-2, -0x1.01eab80000000p-7, -0x1.90e0900000000p-1, 0x1.1e626a0000000p-3, -0x1.4654840000000p-3, -0x1.7844b20000000p-3, -0x1.09492e0000000p-2, 0x1.0001360000000p-3, -0x1.a195c20000000p-3, 0x1.a0ba5c0000000p-3, 0x1.0b98760000000p-2, 0x1.c13d760000000p-4, 0x1.4cb2f20000000p-3, -0x1.79f31a0000000p-1, 0x1.8d276c0000000p-5, -0x1.719eb20000000p-2, -0x1.fa94720000000p-6, 0x1.b7a7620000000p-7, -0x1.9951f00000000p-2, 0x1.40cc3e0000000p-3, 0x1.03c9000000000p-4, 0x1.11ca480000000p-5, -0x1.954ce40000000p-1}
, {-0x1.1da45e0000000p-3, 0x1.26a50a0000000p-2, -0x1.3e64b40000000p-4, 0x1.ecd2120000000p-2, 0x1.1913ca0000000p-4, 0x1.1f21220000000p-5, 0x1.4e19860000000p-9, -0x1.1ef85a0000000p-4, -0x1.ee39c00000000p-7, 0x1.64c83c0000000p-2, -0x1.8fadd80000000p-4, 0x1.3da7740000000p-10, -0x1.4d7d0a0000000p-6, 0x1.70b5d20000000p-2, 0x1.f592380000000p-4, -0x1.21a7460000000p-3, -0x1.2b34a80000000p-5, -0x1.8bdba60000000p-6, -0x1.a3d3fc0000000p-6, 0x1.3371b60000000p-3, 0x1.f197540000000p-3, -0x1.8c15a00000000p-4, -0x1.45b6780000000p-3, -0x1.3877ee0000000p-3, -0x1.4c99880000000p-5, 0x1.11fe580000000p-7, -0x1.0fc7320000000p-4, -0x1.4472f60000000p-4, -0x1.6ba03e0000000p-4, -0x1.2980bc0000000p-4, -0x1.26f07c0000000p-5, 0x1.03a8020000000p-3}
}
, {{0x1.31364a0000000p-3, 0x1.8019360000000p-4, -0x1.16bade0000000p-1, -0x1.7cbe300000000p-3, 0x1.36dfbc0000000p-3, -0x1.5b43760000000p-5, -0x1.f6135a0000000p-3, 0x1.19d3780000000p-7, 0x1.e77d0c0000000p-5, -0x1.34ca640000000p-1, 0x1.1873680000000p-4, -0x1.4657b80000000p-2, 0x1.8cd2a20000000p-6, -0x1.07bd2a0000000p-1, -0x1.4bde460000000p-3, -0x1.5225fa0000000p-3, 0x1.8af25c0000000p-4, 0x1.50c6580000000p-3, 0x1.2b586a0000000p-4, 0x1.7d93d00000000p-5, -0x1.14948a0000000p-2, 0x1.ea090e0000000p-4, 0x1.13983a0000000p-4, -0x1.2884d40000000p-5, -0x1.71a8c80000000p-4, -0x1.2098040000000p-4, -0x1.64c5b20000000p-4, -0x1.22ff9c0000000p-1, -0x1.91e9ac0000000p-5, -0x1.2fe51c0000000p-4, 0x1.89db260000000p-7, -0x1.d1500c0000000p-3}
, {0x1.58030c0000000p-3, -0x1.998b720000000p-3, -0x1.04a8340000000p-2, -0x1.b34f8a0000000p-4, -0x1.4d4af40000000p-3, 0x1.493f920000000p-5, -0x1.f2ea6e0000000p-3, 0x1.671e640000000p-5, 0x1.96fada0000000p-4, -0x1.c551f00000000p-2, 0x1.cd73720000000p-6, -0x1.84e0f80000000p-1, 0x1.03ccec0000000p-5, -0x1.ed317a0000000p-3, 0x1.b4bf740000000p-6, -0x1.26de700000000p-2, 0x1.8e60ea0000000p-4, -0x1.d734a80000000p-4, -0x1.5212540000000p-3, 0x1.3d00c60000000p-5, -0x1.2ebb420000000p-3, 0x1.9bb5ca0000000p-3, -0x1.9b2efc0000000p-3, -0x1.22d78c0000000p-7, -0x1.2f9ea60000000p-2, 0x1.d8d2d80000000p-5, 0x1.f736c20000000p-5, -0x1.163dca0000000p-1, -0x1.03c4120000000p-4, -0x1.41d7ae0000000p-8, -0x1.3c3c800000000p-4, -0x1.4e36860000000p-1}
, {-0x1.060c1c0000000p-2, -0x1.0b14400000000p-3, 0x1.ab82320000000p-6, 0x1.2b91600000000p-2, -0x1.16d85c0000000p-4, -0x1.4d84240000000p-6, 0x1.512a8c0000000p-4, 0x1.75c62c0000000p-3, 0x1.5f77340000000p-6, 0x1.5d313e0000000p-2, -0x1.2d5b6c0000000p-2, 0x1.1485a80000000p-3, -0x1.83dcc80000000p-4, 0x1.e261640000000p-2, 0x1.8da0540000000p-5, 0x1.7808840000000p-6, -0x1.5b582a0000000p-6, -0x1.198a3a0000000p-1, -0x1.679ab00000000p-4, 0x1.7c4a260000000p-3, 0x1.506bf80000000p-3, -0x1.96bdf80000000p-3, 0x1.2549140000000p-4, -0x1.77ec080000000p-3, 0x1.c456de0000000p-6, -0x1.f5f4f80000000p-4, 0x1.3c95c00000000p-5, -0x1.5cbbec0000000p-2, 0x1.01e60e0000000p-4, -0x1.b1d17c0000000p-9, -0x1.73bed00000000p-5, 0x1.7b46a40000000p-3}
}
, {{0x1.5d0f660000000p-6, -0x1.fed28e0000000p-4, -0x1.1827280000000p-2, -0x1.60cd8e0000000p-7, 0x1.3b51940000000p-5, -0x1.65468c0000000p-6, -0x1.315d640000000p-6, 0x1.be63060000000p-4, 0x1.31c41e0000000p-5, -0x1.ce4c5c0000000p-2, 0x1.2a6d7e0000000p-4, -0x1.e3bfee0000000p-3, 0x1.02d4a40000000p-3, -0x1.84842c0000000p-8, 0x1.19be920000000p-5, -0x1.a787920000000p-2, -0x1.49ea9c0000000p-6, 0x1.7a33ac0000000p-2, 0x1.64ec320000000p-3, -0x1.9779e60000000p-6, 0x1.7103640000000p-4, 0x1.1d1c0e0000000p-4, 0x1.ef16a00000000p-3, -0x1.ab658a0000000p-6, -0x1.63d7060000000p-3, 0x1.13260e0000000p-2, 0x1.abc80c0000000p-7, -0x1.9991220000000p-2, -0x1.41f13c0000000p-4, -0x1.58cb7a0000000p-6, 0x1.e198be0000000p-6, -0x1.58740a0000000p-2}
, {0x1.89cffe0000000p-4, -0x1.176c4a0000000p-3, 0x1.dd1c7a0000000p-4, -0x1.2f613e0000000p-2, -0x1.4287260000000p-3, -0x1.df96fe0000000p-4, -0x1.98f8820000000p-2, 0x1.3dd72c0000000p-3, -0x1.2e69aa0000000p-4, 0x1.4655820000000p-3, 0x1.3485d00000000p-5, -0x1.ba3df40000000p-4, -0x1.9dbb580000000p-5, 0x1.2651180000000p-4, 0x1.fc55580000000p-4, -0x1.1457f00000000p-2, -0x1.b60dbe0000000p-5, -0x1.eeea860000000p-2, -0x1.807d700000000p-3, -0x1.58f1d20000000p-5, -0x1.3289fa0000000p-3, 0x1.c83e560000000p-3, -0x1.f9628a0000000p-7, -0x1.06cef20000000p-8, -0x1.e5ba620000000p-3, 0x1.2973920000000p-2, 0x1.74dff40000000p-6, -0x1.f51c600000000p-2, -0x1.86941e0000000p-4, 0x1.1c71200000000p-5, -0x1.3ffb760000000p-8, -0x1.df6be60000000p-3}
, {-0x1.62d2820000000p-4, -0x1.dc43500000000p-3, -0x1.e7da200000000p-4, -0x1.4653700000000p-4, -0x1.7eee5e0000000p-4, -0x1.68a62c0000000p-4, 0x1.53f7500000000p-4, 0x1.2ec0900000000p-3, 0x1.d311bc0000000p-7, 0x1.9b10800000000p-2, -0x1.c0da3e0000000p-4, 0x1.becbd00000000p-2, 0x1.208de80000000p-4, 0x1.b1ae280000000p-6, 0x1.18267c0000000p-3, 0x1.81d56e0000000p-4, 0x1.c7c3f20000000p-7, -0x1.e2ba1a0000000p-2, -0x1.0d813e0000000p-5, 0x1.22c2320000000p-3, 0x1.7706fc0000000p-4, -0x1.c946040000000p-5, 0x1.f72e6a0000000p-3, 0x1.e895e40000000p-5, 0x1.bb7dfe0000000p-3, -0x1.afbd500000000p-4, -0x1.8293ca0000000p-4, 0x1.5786180000000p-5, 0x1.4dbefa0000000p-3, -0x1.2d8f680000000p-4, -0x1.4571a20000000p-4, 0x1.cd70f60000000p-2}
}
}
, {{{-0x1.21ee1a0000000p-4, 0x1.1621c40000000p-5, 0x1.34e0a00000000p-2, 0x1.26e7440000000p-3, 0x1.5e20420000000p-3, -0x1.7fcdea0000000p-6, -0x1.6f564a0000000p-4, -0x1.a8a1b60000000p-5, 0x1.ceb7c80000000p-8, 0x1.54ae5c0000000p-2, -0x1.a23dfe0000000p-6, 0x1.569e180000000p-2, -0x1.192dac0000000p-2, 0x1.4a8b6e0000000p-3, -0x1.b905d00000000p-6, 0x1.3c3f3a0000000p-2, -0x1.7932420000000p-3, -0x1.7e39f20000000p-5, -0x1.1dd6660000000p-2, 0x1.6f3ae60000000p-4, -0x1.77bb980000000p-4, -0x1.2fbde00000000p-2, 0x1.80754a0000000p-2, -0x1.43824a0000000p-3, 0x1.cd4ff80000000p-3, -0x1.cd6fbc0000000p-3, -0x1.6e4d000000000p-11, -0x1.3785ae0000000p-4, 0x1.2b6fc60000000p-3, -0x1.8a870c0000000p-6, -0x1.fb94e80000000p-4, 0x1.cc4c880000000p-2}
, {-0x1.1732420000000p-3, -0x1.216f140000000p-3, 0x1.0ddd760000000p-2, 0x1.02554e0000000p-2, -0x1.441dfc0000000p-3, -0x1.9854920000000p-8, -0x1.4040480000000p-4, 0x1.9943500000000p-4, 0x1.1773920000000p-5, 0x1.be81a80000000p-6, -0x1.e004500000000p-3, -0x1.25dfc80000000p-5, 0x1.4ed6340000000p-5, 0x1.107dc00000000p-2, -0x1.f40d760000000p-4, -0x1.f64d240000000p-5, -0x1.77253e0000000p-6, -0x1.f7f38c0000000p-3, 0x1.891fb40000000p-3, -0x1.b313fe0000000p-8, 0x1.9ba3380000000p-4, -0x1.64179a0000000p-2, -0x1.3bbcb00000000p-4, -0x1.d4631a0000000p-4, -0x1.0d2ae40000000p-3, -0x1.05397a0000000p-2, -0x1.7e17780000000p-4, -0x1.9708520000000p-6, 0x1.13814a0000000p-4, -0x1.b7b2220000000p-6, -0x1.cff3f60000000p-4, -0x1.c30d980000000p-6}
, {-0x1.69da300000000p-4, 0x1.9182700000000p-3, 0x1.c9a1640000000p-2, 0x1.bf53b20000000p-3, -0x1.345f580000000p-3, -0x1.e3fec60000000p-4, 0x1.b270920000000p-4, -0x1.a0dbe60000000p-6, -0x1.b67b600000000p-4, 0x1.bc01240000000p-3, -0x1.b0c50c0000000p-3, 0x1.97cbfe0000000p-5, -0x1.d534b60000000p-4, 0x1.d0af760000000p-2, 0x1.28b9180000000p-3, -0x1.1b144e0000000p-4, -0x1.a521360000000p-3, -0x1.9010400000000p-3, 0x1.d39d500000000p-4, -0x1.3eb4e80000000p-4, 0x1.be3ff60000000p-3, -0x1.629d9e0000000p-6, -0x1.3c0ada0000000p-4, -0x1.4617cc0000000p-3, -0x1.313a060000000p-4, 0x1.8755080000000p-4, -0x1.c03bca0000000p-5, -0x1.aff5940000000p-3, 0x1.acab420000000p-6, 0x1.118ac60000000p-4, -0x1.83a3aa0000000p-4, 0x1.5086680000000p-4}
}
, {{-0x1.8d77b80000000p-6, 0x1.c5bfa00000000p-3, -0x1.e01b100000000p-3, -0x1.86e9820000000p-3, 0x1.109cba0000000p-4, 0x1.7575240000000p-6, -0x1.754a820000000p-2, -0x1.2210740000000p-4, 0x1.19c5540000000p-5, 0x1.99466e0000000p-3, 0x1.3bd5a00000000p-4, 0x1.a4469c0000000p-3, -0x1.d0986a0000000p-2, 0x1.a853880000000p-7, -0x1.01fd4c0000000p-2, 0x1.a405900000000p-3, 0x1.23b6520000000p-5, -0x1.e29f0a0000000p-4, -0x1.5f66740000000p-2, -0x1.a44be00000000p-3, -0x1.fa089e0000000p-2, -0x1.2f847c0000000p-2, 0x1.5fff6c0000000p-3, -0x1.85a59e0000000p-2, 0x1.6dee940000000p-4, -0x1.1d61560000000p-2, -0x1.6968420000000p-5, -0x1.c606ec0000000p-3, 0x1.47df1a0000000p-3, 0x1.237cde0000000p-5, 0x1.49af560000000p-8, 0x1.88ace80000000p-2}
, {-0x1.2e55780000000p-5, -0x1.3894960000000p-3, -0x1.106d780000000p-3, -0x1.04a3ae0000000p-4, -0x1.7eb8dc0000000p-7, 0x1.4ab1020000000p-4, -0x1.353cde0000000p-3, 0x1.66fca60000000p-4, 0x1.4c30840000000p-4, -0x1.f5800c0000000p-3, 0x1.ef21900000000p-6, -0x1.280b5e0000000p-3, -0x1.02c7d40000000p-2, -0x1.1c36120000000p-2, -0x1.1a625a0000000p-1, 0x1.1d66840000000p-4, 0x1.124d9e0000000p-5, -0x1.3f9fec0000000p-3, -0x1.ed13ba0000000p-4, -0x1.5f592e0000000p-3, -0x1.6f2e360000000p-3, -0x1.be13820000000p-3, -0x1.ec17180000000p-5, -0x1.36d0320000000p-3, -0x1.a2770e0000000p-4, -0x1.200a360000000p-1, 0x1.e2f8e40000000p-5, -0x1.66d9200000000p-2, -0x1.e7c6820000000p-8, -0x1.1e90ec0000000p-4, -0x1.0932140000000p-5, 0x1.c103580000000p-6}
, {-0x1.5274de0000000p-3, -0x1.9222a40000000p-5, 0x1.ee9e1c0000000p-3, 0x1.4c37c40000000p-2, -0x1.3f4cd40000000p-2, -0x1.2b6bd80000000p-4, 0x1.431e400000000p-4, -0x1.9641a00000000p-6, -0x1.d2bdc60000000p-5, -0x1.6ee1d20000000p-7, -0x1.6fc2e00000000p-3, -0x1.8d641a0000000p-2, 0x1.85dfce0000000p-4, 0x1.2ec47e0000000p-3, -0x1.7ae88a0000000p-3, -0x1.5ba84c0000000p-4, -0x1.5961f00000000p-4, 0x1.75f0420000000p-6, 0x1.359fac0000000p-3, 0x1.26c26e0000000p-3, 0x1.2b89180000000p-2, -0x1.cb7d3e0000000p-2, -0x1.18e6aa0000000p-1, -0x1.c81e0e0000000p-4, -0x1.2c92c40000000p-2, -0x1.7a5d840000000p-3, 0x1.d208460000000p-5, -0x1.26ccfe0000000p-2, 0x1.82442a0000000p-5, 0x1.2cca820000000p-5, 0x1.4bf05a0000000p-5, -0x1.5bd6d20000000p-2}
}
, {{0x1.5e1cb20000000p-5, -0x1.5a1f0a0000000p-3, -0x1.ce0ea40000000p-3, -0x1.db21a60000000p-2, 0x1.3ccbb20000000p-4, 0x1.af14f00000000p-9, -0x1.822da20000000p-2, 0x1.5c59de0000000p-4, 0x1.75ee480000000p-6, 0x1.edcf0a0000000p-5, 0x1.9dbdd80000000p-6, 0x1.c821b20000000p-3, -0x1.3f827a0000000p-2, -0x1.b538a60000000p-3, -0x1.4038ec0000000p-5, 0x1.20acfe0000000p-3, -0x1.662e920000000p-13, -0x1.07c2fc0000000p-2, -0x1.2b50380000000p-1, -0x1.1cac880000000p-3, -0x1.b915840000000p-2, -0x1.ceb6940000000p-6, 0x1.cd47860000000p-4, -0x1.263e140000000p-3, 0x1.07876a0000000p-4, -0x1.7641000000000p-5, -0x1.52d0a60000000p-4, -0x1.953dee0000000p-5, 0x1.7115c00000000p-3, 0x1.54eab00000000p-6, -0x1.efe4860000000p-5, 0x1.dfdb500000000p-3}
, {-0x1.a0d24c0000000p-5, -0x1.28fd040000000p-2, -0x1.a8c4780000000p-2, -0x1.4f2a900000000p-2, -0x1.6f77500000000p-5, 0x1.0be9ec0000000p-6, -0x1.7c1e2c0000000p-3, 0x1.872eca0000000p-5, 0x1.e26d7a0000000p-4, -0x1.df4a040000000p-2, -0x1.69db480000000p-5, -0x1.1153520000000p-2, -0x1.e17bfe0000000p-3, -0x1.42ee760000000p-1, -0x1.8cb1a60000000p-2, -0x1.a7c8b40000000p-5, 0x1.4de2ac0000000p-5, -0x1.6589f60000000p-3, -0x1.606f1a0000000p-3, -0x1.6aa71a0000000p-3, -0x1.8fcde00000000p-2, 0x1.65e6f20000000p-6, -0x1.1fa1f20000000p-4, -0x1.ef56280000000p-6, -0x1.0020d40000000p-3, -0x1.09bec60000000p-2, -0x1.4720000000000p-11, -0x1.c6a2120000000p-2, -0x1.7a7d7c0000000p-8, 0x1.5644b40000000p-5, 0x1.13d8ea0000000p-5, -0x1.7767160000000p-3}
, {0x1.0622fa0000000p-6, -0x1.14e5940000000p-2, 0x1.90bb2c0000000p-4, 0x1.8a8b160000000p-5, -0x1.4e05b40000000p-3, 0x1.8f17a00000000p-4, 0x1.57469c0000000p-4, 0x1.67b0520000000p-4, 0x1.5645ac0000000p-4, -0x1.149d1a0000000p-2, 0x1.0eccd60000000p-4, -0x1.1efe260000000p-1, 0x1.e07c980000000p-7, -0x1.727bf80000000p-3, -0x1.c44a620000000p-3, -0x1.48076c0000000p-3, 0x1.1eee140000000p-4, -0x1.bc4bca0000000p-4, 0x1.fcfcfc0000000p-5, 0x1.c0ade60000000p-8, 0x1.54802e0000000p-3, -0x1.a3d0840000000p-4, -0x1.8d4f440000000p-2, 0x1.191a560000000p-4, -0x1.d974c20000000p-3, -0x1.024d820000000p-3, 0x1.f6faa80000000p-6, -0x1.19a79e0000000p-1, 0x1.e89efc0000000p-5, 0x1.4425ca0000000p-4, 0x1.2727020000000p-3, -0x1.a0feb60000000p-2}
}
}
, {{{-0x1.1666b60000000p-4, 0x1.a32c040000000p-4, 0x1.013bac0000000p-3, 0x1.d051000000000p-3, -0x1.5898540000000p-5, 0x1.8757f60000000p-6, -0x1.c8ac5e0000000p-5, -0x1.3216dc0000000p-2, -0x1.7bf48c0000000p-3, 0x1.13403c0000000p-3, -0x1.47ac7e0000000p-2, 0x1.1a0b0c0000000p-3, -0x1.d1c2520000000p-4, 0x1.7717660000000p-3, -0x1.e738d80000000p-4, 0x1.937c2a0000000p-4, -0x1.85284c0000000p-2, 0x1.4c69e80000000p-3, -0x1.b396300000000p-4, 0x1.7419160000000p-7, 0x1.348c2a0000000p-13, -0x1.b53e720000000p-3, 0x1.79dd840000000p-4, -0x1.976cae0000000p-3, 0x1.b1ddec0000000p-5, -0x1.5a9cb20000000p-3, -0x1.29dc920000000p-5, 0x1.05f72e0000000p-4, 0x1.14e8380000000p-5, 0x1.4fe6060000000p-6, -0x1.6a146e0000000p-3, 0x1.12d2c40000000p-3}
, {-0x1.793d5a0000000p-4, -0x1.a564b40000000p-3, 0x1.6e2d140000000p-3, -0x1.1946480000000p-1, 0x1.a971700000000p-4, -0x1.43313a0000000p-4, -0x1.53d6940000000p-3, -0x1.9f323a0000000p-3, -0x1.77bde60000000p-7, 0x1.1184800000000p-7, -0x1.7055520000000p-5, 0x1.4b2dd60000000p-3, -0x1.dc9d8a0000000p-3, 0x1.103d200000000p-5, -0x1.f1b1660000000p-3, 0x1.d883800000000p-4, -0x1.35ba6a0000000p-2, -0x1.bf9e780000000p-5, -0x1.6866e60000000p-2, -0x1.49b5e60000000p-2, -0x1.ddaf180000000p-2, -0x1.b84d140000000p-3, 0x1.d501060000000p-3, -0x1.fa5bb60000000p-3, 0x1.3ba8200000000p-5, -0x1.a0f3ee0000000p-2, 0x1.5eb1b60000000p-7, -0x1.2543860000000p-2, -0x1.f1844e0000000p-6, -0x1.d2a7260000000p-9, -0x1.1a4b600000000p-3, 0x1.bf6c3c0000000p-3}
, {0x1.25b2880000000p-3, 0x1.9046dc0000000p-3, -0x1.d449d20000000p-5, 0x1.ad98fa0000000p-4, 0x1.b8d9520000000p-3, -0x1.4d07660000000p-7, -0x1.297ffe0000000p-3, -0x1.1f6ee60000000p-2, -0x1.69351a0000000p-5, -0x1.01efaa0000000p-2, -0x1.064d320000000p-4, -0x1.50c10a0000000p-4, 0x1.e439de0000000p-6, -0x1.8a8e900000000p-6, -0x1.cc4b540000000p-3, -0x1.eb44d20000000p-8, -0x1.898c6e0000000p-4, 0x1.7b41f00000000p-4, -0x1.fc95720000000p-5, 0x1.12a7d40000000p-3, -0x1.edcce40000000p-9, 0x1.f4148a0000000p-4, 0x1.653b860000000p-4, 0x1.3b07ea0000000p-5, 0x1.223c7e0000000p-5, 0x1.a6e61a0000000p-3, -0x1.7682fe0000000p-4, -0x1.b8a0c20000000p-2, -0x1.f79b2e0000000p-5, -0x1.25094c0000000p-5, -0x1.77f9d20000000p-7, -0x1.352a6c0000000p-5}
}
, {{-0x1.6591340000000p-3, -0x1.71b36c0000000p-5, 0x1.3e682c0000000p-2, 0x1.1c70a20000000p-2, 0x1.4d889c0000000p-7, 0x1.ade51c0000000p-6, -0x1.d51dee0000000p-4, -0x1.6da4ca0000000p-3, -0x1.11a2bc0000000p-3, 0x1.261cdc0000000p-3, -0x1.a5bcf60000000p-3, 0x1.8613540000000p-5, -0x1.12a5480000000p-3, 0x1.6510fe0000000p-3, -0x1.127ae20000000p-5, 0x1.cacb940000000p-4, -0x1.baddcc0000000p-3, 0x1.25df840000000p-3, 0x1.721e5c0000000p-6, -0x1.c7d6bc0000000p-6, 0x1.53abd60000000p-3, -0x1.d41dc40000000p-2, 0x1.a4daba0000000p-5, -0x1.7768c80000000p-3, 0x1.58b5940000000p-5, -0x1.03c09a0000000p-3, -0x1.e0b72c0000000p-7, -0x1.9a38680000000p-3, 0x1.a4160e0000000p-5, 0x1.364a0e0000000p-4, -0x1.4c10720000000p-5, 0x1.59cd780000000p-3}
, {0x1.79bf7c0000000p-5, -0x1.2256680000000p-2, 0x1.605c300000000p-4, -0x1.8995460000000p-3, 0x1.b33a900000000p-7, -0x1.b5483a0000000p-5, -0x1.660db40000000p-4, -0x1.e9fff00000000p-3, -0x1.0267140000000p-4, 0x1.d742280000000p-12, 0x1.3abd320000000p-6, 0x1.b4d26c0000000p-3, -0x1.7036460000000p-3, 0x1.d9c9660000000p-7, -0x1.3338500000000p-3, 0x1.33075c0000000p-3, -0x1.4ad7ae0000000p-3, -0x1.b33ba80000000p-5, -0x1.a785600000000p-3, -0x1.73645c0000000p-3, -0x1.eca9a60000000p-3, -0x1.3858000000000p-2, 0x1.f945460000000p-3, -0x1.1841a80000000p-3, 0x1.953fd60000000p-5, -0x1.0c75740000000p-2, -0x1.69b8c00000000p-4, -0x1.4f37400000000p-3, 0x1.9dd5020000000p-4, 0x1.cbfd8e0000000p-5, -0x1.0a5bdc0000000p-3, 0x1.e428c60000000p-3}
, {0x1.5aef3c0000000p-5, 0x1.d5ab0e0000000p-4, -0x1.7f8f620000000p-3, 0x1.ddee540000000p-2, -0x1.1cab560000000p-4, -0x1.67e13c0000000p-4, 0x1.4a5eb20000000p-3, -0x1.e3fd3a0000000p-3, -0x1.e548340000000p-10, -0x1.ae16a20000000p-2, -0x1.06b8da0000000p-2, -0x1.840ef80000000p-2, 0x1.3863f00000000p-3, -0x1.11db860000000p-2, 0x1.1986dc0000000p-4, -0x1.5654d40000000p-2, -0x1.1854580000000p-3, 0x1.2a32c00000000p-3, 0x1.065f8c0000000p-2, 0x1.1046ec0000000p-2, 0x1.89f1620000000p-2, 0x1.22c41c0000000p-5, -0x1.31edac0000000p-2, 0x1.1469ea0000000p-4, -0x1.5f59c80000000p-2, 0x1.6aec080000000p-4, -0x1.3102680000000p-4, -0x1.6e52a60000000p-2, -0x1.adb4740000000p-3, -0x1.c40f1a0000000p-5, -0x1.4dbd3a0000000p-5, -0x1.2b55f40000000p-1}
}
, {{-0x1.77a21c0000000p-5, -0x1.25367c0000000p-3, 0x1.7a0e320000000p-5, 0x1.7857be0000000p-3, 0x1.0723520000000p-4, 0x1.3e2f0c0000000p-4, 0x1.06c3de0000000p-3, -0x1.199a200000000p-3, -0x1.8d46dc0000000p-5, 0x1.9eb4660000000p-5, -0x1.b7827c0000000p-4, 0x1.f36a380000000p-4, -0x1.851f3a0000000p-7, -0x1.fe55920000000p-6, 0x1.fdc50a0000000p-5, 0x1.8cd69a0000000p-5, -0x1.fa739e0000000p-3, 0x1.e24a9a0000000p-4, -0x1.1965e80000000p-3, 0x1.85b7fa0000000p-3, 0x1.f8d2600000000p-4, -0x1.3808c00000000p-5, 0x1.057b140000000p-3, 0x1.e99a0a0000000p-5, -0x1.77fa480000000p-4, 0x1.1130a40000000p-4, -0x1.34d9ca0000000p-7, -0x1.7af9da0000000p-3, 0x1.dc3fe00000000p-5, 0x1.193b360000000p-4, -0x1.7ed2fa0000000p-5, 0x1.8c24300000000p-3}
, {-0x1.17e6500000000p-3, -0x1.05b5880000000p-1, -0x1.183de00000000p-2, -0x1.5f9ac60000000p-3, -0x1.13b0800000000p-8, -0x1.d74a1e0000000p-4, 0x1.51cd200000000p-5, -0x1.91c3340000000p-4, -0x1.6bb2d80000000p-6, -0x1.90ec1c0000000p-3, -0x1.8811640000000p-4, -0x1.fa47460000000p-5, 0x1.fc596c0000000p-5, -0x1.5bf74e0000000p-4, -0x1.2fe7140000000p-2, 0x1.6998240000000p-4, -0x1.655abe0000000p-3, -0x1.9a81700000000p-3, 0x1.1efb3e0000000p-3, 0x1.f2343e0000000p-6, -0x1.9f5d640000000p-5, -0x1.62a0e20000000p-4, 0x1.8c6daa0000000p-4, 0x1.3643bc0000000p-6, -0x1.4ba6420000000p-5, -0x1.78acde0000000p-3, 0x1.d2d43c0000000p-5, -0x1.fe6aa60000000p-3, 0x1.697c7e0000000p-5, 0x1.28916e0000000p-4, -0x1.42040c0000000p-6, 0x1.63f2900000000p-4}
, {-0x1.2309540000000p-3, 0x1.100a3c0000000p-2, -0x1.2b45760000000p-1, 0x1.0a204e0000000p-1, -0x1.6905d80000000p-2, -0x1.98e96e0000000p-4, 0x1.38090e0000000p-3, -0x1.4d67ce0000000p-3, -0x1.7d91e60000000p-4, 0x1.0938520000000p-3, -0x1.6ac68c0000000p-2, -0x1.19b2880000000p-2, -0x1.869ba60000000p-4, -0x1.4eb7780000000p-2, 0x1.c8f0640000000p-7, -0x1.2323ea0000000p-2, -0x1.4507440000000p-2, -0x1.08b0820000000p-2, -0x1.c2deb80000000p-4, 0x1.bfa27e0000000p-3, 0x1.b57b120000000p-3, -0x1.4f38860000000p-2, -0x1.5c871a0000000p-2, -0x1.80f6de0000000p-4, -0x1.97cf6e0000000p-2, -0x1.09b8640000000p-2, 0x1.e0791c0000000p-5, -0x1.8b98500000000p-4, -0x1.c3faee0000000p-3, 0x1.85f5300000000p-5, -0x1.15da740000000p-3, -0x1.4a9d6a0000000p-3}
}
}
, {{{0x1.5b324e0000000p-3, 0x1.724c820000000p-5, -0x1.2360d40000000p-6, -0x1.16abe40000000p-1, -0x1.5e740c0000000p-4, -0x1.d8f5e80000000p-7, -0x1.88cf7e0000000p-3, 0x1.6f07ac0000000p-4, 0x1.db500a0000000p-5, -0x1.9662400000000p-8, 0x1.4a013e0000000p-2, 0x1.3118b60000000p-7, -0x1.1ce51c0000000p-14, -0x1.92e9380000000p-2, 0x1.3e41d40000000p-3, -0x1.6b61260000000p-7, -0x1.f6fc820000000p-5, -0x1.b0da360000000p-2, -0x1.c24b880000000p-3, 0x1.64a7520000000p-7, -0x1.5bc6180000000p-2, 0x1.e00ea00000000p-3, -0x1.c2b52a0000000p-4, 0x1.1e79a60000000p-4, 0x1.0d6d700000000p-4, 0x1.acf2f40000000p-5, 0x1.f63e4e0000000p-5, -0x1.7e295e0000000p-3, 0x1.65853c0000000p-4, 0x1.635a400000000p-6, -0x1.2281f20000000p-4, 0x1.53de140000000p-5}
, {-0x1.75ed200000000p-3, -0x1.2748660000000p-1, -0x1.05310e0000000p-3, -0x1.9df1900000000p-6, -0x1.8665aa0000000p-5, -0x1.c1febc0000000p-7, 0x1.15d17e0000000p-7, 0x1.a28f8c0000000p-5, -0x1.f7004e0000000p-7, -0x1.3d7cb20000000p-3, 0x1.2755ec0000000p-4, -0x1.3a16160000000p-5, 0x1.1e72260000000p-5, -0x1.9fc9120000000p-2, -0x1.3350f00000000p-2, -0x1.4c57b00000000p-4, 0x1.4152260000000p-4, -0x1.aa73ec0000000p-5, 0x1.21f8f60000000p-2, -0x1.80b5460000000p-4, 0x1.cf24480000000p-6, -0x1.802e420000000p-3, 0x1.b037780000000p-5, -0x1.7ecdc00000000p-5, 0x1.6eb3840000000p-4, -0x1.1311aa0000000p-2, 0x1.0bb7ec0000000p-4, -0x1.b9e3b00000000p-3, -0x1.2ed21c0000000p-5, 0x1.43a4f80000000p-4, 0x1.0151f60000000p-5, -0x1.78c4a40000000p-5}
, {-0x1.c25f660000000p-5, -0x1.5ba1040000000p-3, -0x1.3f7d2c0000000p-4, 0x1.8e70080000000p-10, -0x1.7120860000000p-3, -0x1.0396e40000000p-4, 0x1.d669a80000000p-5, 0x1.dfd9fe0000000p-7, 0x1.480ca40000000p-4, 0x1.fe51920000000p-4, -0x1.110bba0000000p-3, -0x1.2068320000000p-7, 0x1.d1dfac0000000p-3, -0x1.ea4a340000000p-4, 0x1.0638620000000p-3, -0x1.46dff00000000p-2, -0x1.ddcf020000000p-5, -0x1.926c280000000p-2, 0x1.eaee0e0000000p-5, 0x1.0111080000000p-5, 0x1.4388ae0000000p-3, 0x1.db3ef20000000p-7, -0x1.ba8cf00000000p-7, 0x1.d329de0000000p-5, -0x1.2a1a1c0000000p-2, 0x1.afd91c0000000p-5, -0x1.7076f20000000p-4, -0x1.0234c00000000p-3, -0x1.f37e4c0000000p-6, -0x1.1aca5e0000000p-5, 0x1.3411380000000p-6, -0x1.8e8fca0000000p-4}
}
, {{0x1.dc338e0000000p-3, 0x1.639d940000000p-1, 0x1.03414e0000000p-3, -0x1.a460ec0000000p-5, -0x1.0d9d260000000p-4, -0x1.bb0a820000000p-3, -0x1.29eebe0000000p-2, -0x1.9332560000000p-4, -0x1.b628820000000p-4, -0x1.87393c0000000p-4, 0x1.3248a20000000p-3, -0x1.0c9c160000000p-3, -0x1.1e0adc0000000p-2, 0x1.5fe3760000000p-1, 0x1.0dc8d80000000p-2, 0x1.977b4a0000000p-6, -0x1.04fec60000000p-3, -0x1.c6eb0a0000000p-6, 0x1.db10d40000000p-5, -0x1.05f73e0000000p-3, -0x1.f3e4120000000p-4, 0x1.e257300000000p-4, -0x1.167f5c0000000p-3, -0x1.b472200000000p-3, 0x1.4d53fc0000000p-3, 0x1.fd2dbc0000000p-4, 0x1.06212c0000000p-6, -0x1.1172ca0000000p-2, -0x1.d424380000000p-6, 0x1.7937d60000000p-7, -0x1.0087f20000000p-4, -0x1.51329c0000000p-4}
, {0x1.edd01c0000000p-5, -0x1.06fe660000000p-4, -0x1.cb95dc0000000p-1, -0x1.a27b520000000p-3, 0x1.79f1c40000000p-3, -0x1.0245a40000000p-4, -0x1.0209280000000p-3, -0x1.f654ee0000000p-5, -0x1.c795f80000000p-5, -0x1.7b8c580000000p-4, 0x1.481ea00000000p-2, -0x1.17948c0000000p-4, 0x1.10e2b60000000p-3, -0x1.351ce80000000p-3, -0x1.fcbee40000000p-4, -0x1.61db160000000p-4, 0x1.209c160000000p-4, -0x1.2c7d2e0000000p-2, 0x1.a7224a0000000p-4, 0x1.4afca40000000p-6, -0x1.438ece0000000p-5, 0x1.9236c20000000p-4, 0x1.e0f23e0000000p-3, 0x1.b26da00000000p-6, 0x1.8217b20000000p-3, -0x1.41a6240000000p-5, -0x1.3f210e0000000p-4, -0x1.763e360000000p-2, -0x1.a855ae0000000p-4, 0x1.018afa0000000p-4, 0x1.b1aa840000000p-4, -0x1.2cfcd20000000p-4}
, {-0x1.85fa480000000p-4, -0x1.1f13e80000000p-4, -0x1.25ece00000000p-3, 0x1.f27aec0000000p-5, 0x1.5d3dcc0000000p-7, 0x1.d1d8f60000000p-6, 0x1.1134dc0000000p-4, 0x1.5baba80000000p-5, 0x1.e5c1a60000000p-5, 0x1.80e4100000000p-2, -0x1.4f1dea0000000p-3, 0x1.3beb080000000p-3, -0x1.b47d660000000p-5, -0x1.47d1400000000p-2, -0x1.8ea8220000000p-6, 0x1.b210f60000000p-7, -0x1.0bc8ce0000000p-4, -0x1.3af5880000000p-2, 0x1.9cff7c0000000p-4, 0x1.f949560000000p-6, 0x1.09185c0000000p-5, -0x1.ebd93c0000000p-4, 0x1.ce67660000000p-4, -0x1.7a857e0000000p-4, 0x1.92170e0000000p-5, -0x1.8ce1bc0000000p-3, 0x1.5129d60000000p-8, 0x1.0430e80000000p-5, -0x1.78480e0000000p-4, -0x1.1468820000000p-4, 0x1.d37be20000000p-6, 0x1.cf5b6a0000000p-3}
}
, {{-0x1.8259a60000000p-3, -0x1.5980d60000000p-3, -0x1.0fed460000000p-3, 0x1.be5aa80000000p-2, -0x1.68320a0000000p-2, 0x1.9806620000000p-3, 0x1.4e6ab20000000p-2, -0x1.9c3f7e0000000p-3, 0x1.d5859a0000000p-4, 0x1.cdc9220000000p-2, -0x1.85980c0000000p-3, 0x1.3274720000000p-4, 0x1.5889780000000p-2, -0x1.80a9340000000p-6, -0x1.dd7ed00000000p-6, 0x1.270e080000000p-8, -0x1.058ba20000000p-6, 0x1.fc08da0000000p-5, 0x1.0acea80000000p-4, 0x1.4f21480000000p-2, 0x1.98f50c0000000p-2, 0x1.a183080000000p-5, -0x1.c357bc0000000p-3, 0x1.29a11a0000000p-4, -0x1.f77a440000000p-4, -0x1.6b87c60000000p-2, -0x1.8f393c0000000p-4, 0x1.c1f0200000000p-2, 0x1.bb576c0000000p-4, -0x1.ef25e60000000p-6, -0x1.59a45e0000000p-7, 0x1.6c8dc00000000p-4}
, {-0x1.50f8680000000p-2, -0x1.23976c0000000p-4, -0x1.2146680000000p-2, -0x1.eb64a80000000p-4, -0x1.39ab980000000p-2, -0x1.0cac340000000p-3, -0x1.ee889c0000000p-3, -0x1.83a4f60000000p-4, -0x1.f29eba0000000p-7, 0x1.8b0f9a0000000p-4, -0x1.304a500000000p-2, -0x1.c22bfa0000000p-6, -0x1.229d700000000p-2, 0x1.691ffc0000000p-3, -0x1.4c0bc20000000p-2, -0x1.cd19720000000p-5, -0x1.40439e0000000p-3, -0x1.5d82120000000p-2, 0x1.49f6d00000000p-3, -0x1.4b17fc0000000p-2, -0x1.6beaf00000000p-2, -0x1.d876720000000p-2, 0x1.58583c0000000p-5, -0x1.77d9ae0000000p-2, -0x1.06b8240000000p-3, -0x1.763dfe0000000p-2, -0x1.a7dc600000000p-6, -0x1.3345f60000000p-2, 0x1.883b960000000p-4, -0x1.02bd2a0000000p-4, -0x1.ab35be0000000p-4, 0x1.e6915c0000000p-5}
, {0x1.da5d3c0000000p-5, 0x1.4d48340000000p-3, -0x1.52070a0000000p-1, -0x1.20e3cc0000000p-2, 0x1.2c67240000000p-10, -0x1.7addb00000000p-5, 0x1.ecba1a0000000p-8, -0x1.5ce6cc0000000p-3, -0x1.ee46ee0000000p-5, 0x1.434f820000000p-4, 0x1.83967c0000000p-5, 0x1.5d1b3e0000000p-5, 0x1.4921ca0000000p-5, 0x1.0ff79c0000000p-4, 0x1.047f120000000p-3, 0x1.a11efc0000000p-3, -0x1.5ade400000000p-5, -0x1.91cc1a0000000p-3, -0x1.7d94c60000000p-4, -0x1.d1a2ba0000000p-5, -0x1.75f5c60000000p-4, 0x1.1e0ee20000000p-3, 0x1.3553ae0000000p-3, -0x1.3868920000000p-4, 0x1.4da4920000000p-3, 0x1.2aa6780000000p-3, -0x1.1449720000000p-4, 0x1.060cc40000000p-3, 0x1.ab02080000000p-4, 0x1.d4886c0000000p-10, -0x1.4593ac0000000p-4, 0x1.dfa9040000000p-3}
}
}
, {{{0x1.28b80a0000000p-4, 0x1.3f1f900000000p-4, -0x1.687d620000000p-4, -0x1.186f600000000p-3, 0x1.3e83900000000p-3, -0x1.731e380000000p-5, -0x1.d2e30c0000000p-4, 0x1.01404c0000000p-4, -0x1.8c7f660000000p-4, -0x1.1966c40000000p-6, 0x1.0809e80000000p-4, -0x1.bd333a0000000p-5, 0x1.73d2380000000p-6, -0x1.298b880000000p-3, -0x1.804ada0000000p-4, -0x1.25ce220000000p-4, -0x1.3662220000000p-3, -0x1.66b9700000000p-3, -0x1.d558620000000p-3, 0x1.ce94ac0000000p-4, -0x1.faa4920000000p-4, 0x1.9ec7ca0000000p-2, -0x1.477c4e0000000p-5, 0x1.eba80e0000000p-8, 0x1.5e5aca0000000p-7, 0x1.35a2ee0000000p-3, -0x1.1e310c0000000p-4, -0x1.8339c20000000p-2, 0x1.7252d40000000p-5, -0x1.5d3de40000000p-4, -0x1.86a2e40000000p-6, 0x1.5b2b520000000p-5}
, {0x1.b9d6160000000p-3, 0x1.2218000000000p-4, -0x1.2c82a00000000p-6, -0x1.a59a840000000p-2, -0x1.f3640c0000000p-7, 0x1.cc06840000000p-3, -0x1.a8fce80000000p-3, 0x1.06f97e0000000p-4, -0x1.36b2340000000p-7, -0x1.54f3d40000000p-2, 0x1.afccf00000000p-3, -0x1.1d5fbc0000000p-2, -0x1.eb1b7c0000000p-6, -0x1.9e003e0000000p-2, 0x1.fb98d60000000p-4, 0x1.68c46a0000000p-5, -0x1.e60e4a0000000p-5, -0x1.a7291e0000000p-3, -0x1.d043e80000000p-2, 0x1.c7ee440000000p-4, -0x1.9956080000000p-2, 0x1.1d5b700000000p-1, -0x1.09cf460000000p-3, -0x1.a9de780000000p-8, 0x1.7c74dc0000000p-8, 0x1.fe043e0000000p-5, -0x1.baae720000000p-4, -0x1.3480500000000p-1, -0x1.6266c40000000p-5, 0x1.cea9440000000p-5, -0x1.1972340000000p-5, -0x1.1249440000000p-2}
, {-0x1.4c5d240000000p-3, -0x1.02fdb60000000p-2, -0x1.50e4cc0000000p-5, 0x1.7ade400000000p-3, -0x1.dea5380000000p-3, 0x1.2a2a8c0000000p-3, 0x1.ee69300000000p-3, -0x1.06848c0000000p-7, 0x1.2e52400000000p-4, -0x1.37f1c80000000p-2, 0x1.92b94a0000000p-4, -0x1.10772a0000000p-2, -0x1.1736d00000000p-2, 0x1.37fca60000000p-6, -0x1.45e41a0000000p-2, -0x1.14346a0000000p-4, -0x1.1116620000000p-7, -0x1.60e7220000000p-2, 0x1.1f36520000000p-7, -0x1.419f0e0000000p-4, 0x1.02f9620000000p-4, 0x1.a976dc0000000p-5, -0x1.c66fee0000000p-3, -0x1.559cd40000000p-3, -0x1.e3eab60000000p-4, -0x1.a33ae40000000p-2, -0x1.a8a9120000000p-5, -0x1.1234180000000p-1, 0x1.6ca1ce0000000p-6, -0x1.aea2b00000000p-6, -0x1.02acfc0000000p-4, -0x1.77d3f00000000p-3}
}
, {{-0x1.9c08900000000p-6, -0x1.ccf4900000000p-3, 0x1.0c97960000000p-1, 0x1.8849480000000p-6, -0x1.29c77c0000000p-4, -0x1.2ba0f20000000p-4, -0x1.7e1f020000000p-2, -0x1.b37b080000000p-5, -0x1.2df3700000000p-4, 0x1.0331040000000p-2, -0x1.ecf4e00000000p-3, -0x1.2085200000000p-6, -0x1.c22df00000000p-3, 0x1.4c34800000000p-2, -0x1.4e8e3c0000000p-6, 0x1.a0f1500000000p-10, -0x1.380cc40000000p-4, -0x1.f317cc0000000p-3, -0x1.b5fb3e0000000p-3, -0x1.1bc4700000000p-2, -0x1.8aef8a0000000p-3, -0x1.f91cb80000000p-4, -0x1.0401360000000p-4, -0x1.b6dc1a0000000p-5, -0x1.7742fe0000000p-3, 0x1.0e79c20000000p-2, 0x1.b03d740000000p-5, -0x1.7dc6520000000p-3, 0x1.9e6e580000000p-3, -0x1.35682c0000000p-4, -0x1.5043900000000p-4, 0x1.173dfe0000000p-6}
, {0x1.4ac39e0000000p-3, 0x1.39c24e0000000p-2, 0x1.27fc5e0000000p-1, -0x1.fc6e200000000p-3, -0x1.c245660000000p-6, -0x1.bf3d0a0000000p-4, -0x1.24c2da0000000p-2, 0x1.9df2500000000p-4, -0x1.c7e60e0000000p-4, 0x1.e0cb9e0000000p-5, 0x1.c3f9140000000p-5, 0x1.27a93a0000000p-4, -0x1.08a99c0000000p-2, 0x1.e96c4a0000000p-2, 0x1.193a800000000p-3, 0x1.0ef57c0000000p-7, -0x1.ce95f20000000p-6, -0x1.db76520000000p-3, -0x1.a7cf0c0000000p-4, -0x1.eda99a0000000p-3, -0x1.8add680000000p-2, 0x1.2457920000000p-3, 0x1.8d6a2c0000000p-5, -0x1.b80f320000000p-7, -0x1.e5d8b60000000p-4, 0x1.af68ba0000000p-3, -0x1.2a836e0000000p-4, -0x1.a3e6a20000000p-2, 0x1.acc90c0000000p-3, 0x1.ca354c0000000p-5, -0x1.73a7f60000000p-5, 0x1.0760520000000p-3}
, {0x1.98362c0000000p-5, 0x1.3ddc260000000p-3, -0x1.102dbe0000000p-3, -0x1.ba3edc0000000p-4, -0x1.b873f00000000p-4, -0x1.61f5780000000p-4, -0x1.33a6b40000000p-4, -0x1.bb0b200000000p-5, 0x1.4b40940000000p-5, -0x1.ba17f00000000p-4, 0x1.3b6d020000000p-4, 0x1.dd248c0000000p-4, -0x1.ddff760000000p-3, 0x1.52830e0000000p-2, 0x1.0e8d0e0000000p-6, 0x1.7835b00000000p-4, -0x1.82b5700000000p-6, -0x1.b637ca0000000p-2, -0x1.8111200000000p-4, 0x1.bf15b80000000p-6, -0x1.a5d0920000000p-3, 0x1.4c747a0000000p-4, 0x1.0e66ba0000000p-3, -0x1.25a7ec0000000p-3, 0x1.7d41f60000000p-7, -0x1.831caa0000000p-5, -0x1.2fe2840000000p-5, -0x1.f768dc0000000p-3, 0x1.3c3bf40000000p-5, -0x1.0b37980000000p-4, -0x1.3cbe500000000p-4, 0x1.459a580000000p-4}
}
, {{0x1.bd3e4a0000000p-5, -0x1.3f75c20000000p-2, -0x1.6fe9740000000p-7, -0x1.1604d60000000p-4, -0x1.3ef28e0000000p-9, 0x1.a543e40000000p-5, -0x1.7a31980000000p-3, -0x1.e035400000000p-4, 0x1.2ab26a0000000p-3, -0x1.16dba00000000p-4, 0x1.0ede720000000p-6, -0x1.bafdc40000000p-3, -0x1.16b4c40000000p-8, -0x1.ece73a0000000p-6, -0x1.b0c7180000000p-5, -0x1.90b6260000000p-5, -0x1.a0fe3c0000000p-7, -0x1.12de220000000p-1, -0x1.4a89f20000000p-6, -0x1.40184a0000000p-4, -0x1.5c185c0000000p-3, 0x1.9530780000000p-3, -0x1.e9f68e0000000p-4, 0x1.397b960000000p-4, -0x1.cbba6a0000000p-4, 0x1.ccab340000000p-4, -0x1.fe52fa0000000p-6, -0x1.af15d20000000p-2, -0x1.b944e40000000p-6, 0x1.5f16080000000p-5, 0x1.85be940000000p-5, -0x1.abc4da0000000p-3}
, {0x1.a8c2d40000000p-3, -0x1.6564780000000p-2, 0x1.5b15f00000000p-3, -0x1.b7fc320000000p-6, -0x1.5968300000000p-8, 0x1.beb4620000000p-3, 0x1.7048c00000000p-4, -0x1.2a4eb00000000p-4, 0x1.6cf6300000000p-3, -0x1.9ce6d20000000p-5, 0x1.01ad340000000p-2, -0x1.83ea0c0000000p-4, 0x1.478e420000000p-4, -0x1.c6fd840000000p-6, -0x1.184dd00000000p-4, -0x1.0d4b740000000p-4, 0x1.75d9f00000000p-3, -0x1.faaac60000000p-3, -0x1.6cec2e0000000p-5, 0x1.3347ce0000000p-3, -0x1.2e83ee0000000p-4, 0x1.9032dc0000000p-3, -0x1.537ef20000000p-4, 0x1.2de45c0000000p-3, 0x1.cecdfa0000000p-6, 0x1.ed1e7e0000000p-4, -0x1.8abe340000000p-5, -0x1.344eec0000000p-2, 0x1.5467600000000p-4, -0x1.be9a340000000p-4, 0x1.131fd80000000p-3, -0x1.577fda0000000p-7}
, {-0x1.9876560000000p-4, -0x1.e9e0be0000000p-8, 0x1.cea85a0000000p-9, 0x1.d8ecba0000000p-3, -0x1.5ef0d40000000p-3, 0x1.d72ce00000000p-5, 0x1.ada9640000000p-5, 0x1.a0d76e0000000p-5, 0x1.45bb700000000p-3, 0x1.febb200000000p-8, -0x1.ee7f840000000p-7, -0x1.5630980000000p-4, -0x1.c148ce0000000p-3, 0x1.fc949c0000000p-4, -0x1.f8e3f00000000p-3, 0x1.47113c0000000p-3, 0x1.801dee0000000p-5, -0x1.b07b420000000p-3, -0x1.35f71e0000000p-2, 0x1.18be7c0000000p-8, -0x1.40df9a0000000p-4, -0x1.f9fb2e0000000p-5, -0x1.b08dbc0000000p-4, -0x1.377dd00000000p-5, -0x1.9e92ea0000000p-5, -0x1.b2ba3a0000000p-3, 0x1.b806460000000p-5, -0x1.13454a0000000p-3, 0x1.db1cbe0000000p-3, 0x1.0faed80000000p-4, 0x1.5c89ae0000000p-8, 0x1.44051e0000000p-4}
}
}
, {{{-0x1.14e9980000000p-2, -0x1.36b74e0000000p-4, 0x1.3fe2ba0000000p-2, 0x1.4ac2e60000000p-4, 0x1.bb27560000000p-5, -0x1.84394e0000000p-4, -0x1.cee37e0000000p-8, -0x1.61e2140000000p-4, -0x1.9b7db60000000p-9, 0x1.92417c0000000p-2, -0x1.2fa5b20000000p-2, 0x1.2cba240000000p-2, 0x1.dac69e0000000p-6, 0x1.57ee760000000p-4, -0x1.2fcc5e0000000p-4, -0x1.c6ed0e0000000p-4, -0x1.2c9fc20000000p-3, 0x1.d6e0840000000p-4, -0x1.c3d9420000000p-4, 0x1.0afd020000000p-5, 0x1.333cf00000000p-5, -0x1.e045740000000p-3, 0x1.c736580000000p-3, -0x1.5425e00000000p-4, -0x1.3cf0cc0000000p-6, -0x1.561b4c0000000p-4, -0x1.6c5c920000000p-9, 0x1.e337d00000000p-3, -0x1.5961c60000000p-8, -0x1.ee2c740000000p-7, 0x1.347c280000000p-6, 0x1.9470240000000p-4}
, {-0x1.4d13660000000p-3, 0x1.32de2e0000000p-3, 0x1.bcfacc0000000p-3, -0x1.48eaae0000000p-3, -0x1.c213da0000000p-4, -0x1.7a39460000000p-4, -0x1.5819880000000p-2, -0x1.01e3100000000p-3, -0x1.292c600000000p-4, 0x1.0dc9ea0000000p-3, -0x1.0d799c0000000p-2, -0x1.15e2ea0000000p-4, -0x1.9535500000000p-2, 0x1.03b9c60000000p-3, -0x1.7191920000000p-3, -0x1.9b5a8a0000000p-4, -0x1.7dc74c0000000p-3, -0x1.8a13e40000000p-2, -0x1.e80f1e0000000p-2, -0x1.a46f3e0000000p-3, -0x1.d834420000000p-2, -0x1.2d0d1a0000000p-2, -0x1.0363960000000p-5, -0x1.48a5680000000p-2, -0x1.91e59c0000000p-3, -0x1.fa5d8e0000000p-3, 0x1.145c000000000p-5, -0x1.1cf1f00000000p-4, 0x1.98e4f60000000p-6, -0x1.1271460000000p-5, -0x1.669f4c0000000p-3, 0x1.022e260000000p-4}
, {-0x1.c8d2f40000000p-3, 0x1.1e9de00000000p-3, -0x1.3d77520000000p-4, -0x1.11f92c0000000p-2, 0x1.baa5340000000p-7, -0x1.2224940000000p-6, -0x1.78dba80000000p-4, -0x1.2d7ac00000000p-3, -0x1.4209880000000p-6, 0x1.53a2060000000p-3, 0x1.e49ada0000000p-5, 0x1.be166c0000000p-3, -0x1.05ac1c0000000p-2, 0x1.01465a0000000p-4, -0x1.2b65380000000p-2, 0x1.c9b7b00000000p-3, -0x1.54db180000000p-4, -0x1.2600ae0000000p-5, -0x1.6a42360000000p-6, -0x1.9fea840000000p-2, -0x1.4a1aea0000000p-3, -0x1.08137a0000000p-2, 0x1.7a90200000000p-3, -0x1.a4eb3a0000000p-2, 0x1.d2fbc40000000p-4, -0x1.b3f8520000000p-2, -0x1.e2ca160000000p-4, -0x1.1867440000000p-2, 0x1.1597320000000p-4, 0x1.62af8a0000000p-5, -0x1.0e03d20000000p-5, 0x1.09ee740000000p-2}
}
, {{0x1.433fc60000000p-4, 0x1.0f79b00000000p-5, 0x1.883f220000000p-2, 0x1.17fc860000000p-2, 0x1.790fe40000000p-5, 0x1.3f00b80000000p-8, 0x1.7d557a0000000p-3, 0x1.837bbc0000000p-5, 0x1.25a6c00000000p-9, 0x1.09a4a40000000p-4, -0x1.6403fe0000000p-3, 0x1.074d7e0000000p-4, 0x1.41e8da0000000p-2, 0x1.24ff420000000p-4, 0x1.bdb3820000000p-5, -0x1.ab78080000000p-5, -0x1.63152a0000000p-4, -0x1.4c0a880000000p-3, 0x1.8570f80000000p-3, 0x1.1160720000000p-2, 0x1.78ab440000000p-2, 0x1.b8e1160000000p-3, 0x1.7242060000000p-6, 0x1.e75a920000000p-3, -0x1.8572280000000p-4, 0x1.21ec480000000p-3, -0x1.8498ae0000000p-5, 0x1.4825000000000p-3, 0x1.2a79fe0000000p-4, -0x1.1d30840000000p-4, 0x1.1113620000000p-3, -0x1.5c799c0000000p-3}
, {0x1.39bbaa0000000p-3, 0x1.e302c00000000p-3, 0x1.1546d60000000p-3, -0x1.9705080000000p-4, -0x1.2f85fc0000000p-2, 0x1.7452780000000p-7, -0x1.b727ba0000000p-4, -0x1.b12a580000000p-4, -0x1.79f37c0000000p-11, -0x1.fdebf60000000p-3, 0x1.c2b7b00000000p-5, -0x1.19e1040000000p-1, 0x1.206a620000000p-4, -0x1.4d4d020000000p-3, 0x1.066bc40000000p-2, -0x1.4a88d20000000p-4, -0x1.abdd4e0000000p-4, -0x1.b2bd9a0000000p-2, -0x1.10662c0000000p-2, 0x1.1a2e480000000p-2, -0x1.07b3940000000p-2, 0x1.12282c0000000p-2, -0x1.38c5fe0000000p-2, 0x1.63f5e80000000p-3, -0x1.5aa4e20000000p-2, 0x1.1004fc0000000p-3, -0x1.7a30960000000p-5, -0x1.0ee6780000000p-2, -0x1.2e77cc0000000p-5, -0x1.2670ac0000000p-6, -0x1.d7f5420000000p-4, -0x1.e15fe60000000p-3}
, {-0x1.cce6900000000p-6, 0x1.5c06660000000p-6, -0x1.6d19f80000000p-2, -0x1.be7f300000000p-4, -0x1.5783ce0000000p-5, -0x1.76e3320000000p-4, -0x1.cdb60c0000000p-11, -0x1.327d460000000p-3, 0x1.93347a0000000p-5, 0x1.80b0f00000000p-4, 0x1.b0cde00000000p-4, 0x1.d53ba60000000p-10, -0x1.6761cc0000000p-7, -0x1.60c5c60000000p-3, -0x1.3942380000000p-4, 0x1.a0620c0000000p-4, -0x1.d5d1b00000000p-5, -0x1.67a1f20000000p-3, 0x1.3503ea0000000p-4, -0x1.a483bc0000000p-6, -0x1.168b820000000p-3, 0x1.5cceda0000000p-4, 0x1.1b58380000000p-5, -0x1.3c74640000000p-6, 0x1.d37dfa0000000p-3, -0x1.e5b82a0000000p-3, -0x1.5a89960000000p-5, -0x1.90149a0000000p-3, 0x1.e795e40000000p-9, -0x1.ca0fc00000000p-5, 0x1.ea1ea40000000p-5, 0x1.3cb4880000000p-2}
}
, {{-0x1.02b3640000000p-4, -0x1.2787c20000000p-5, 0x1.36a8a60000000p-3, 0x1.570c7c0000000p-3, -0x1.87ce2e0000000p-4, 0x1.fb1b9c0000000p-5, 0x1.14eb200000000p-5, -0x1.964a180000000p-6, 0x1.a4d7d80000000p-8, 0x1.36ba3c0000000p-4, -0x1.1ab37c0000000p-4, -0x1.8e024e0000000p-6, -0x1.a288ba0000000p-4, -0x1.05b4440000000p-3, -0x1.0679140000000p-3, 0x1.6232c20000000p-5, -0x1.fe13420000000p-6, -0x1.e5a4dc0000000p-3, -0x1.58e35e0000000p-6, 0x1.a29b8a0000000p-4, -0x1.09275e0000000p-4, -0x1.721e320000000p-3, -0x1.010c740000000p-3, 0x1.1984780000000p-4, -0x1.d0ebee0000000p-3, -0x1.71871c0000000p-4, -0x1.28718e0000000p-5, -0x1.64f73a0000000p-2, 0x1.722df40000000p-4, -0x1.fa916e0000000p-5, -0x1.2cbabe0000000p-4, -0x1.3aa6000000000p-5}
, {0x1.c859780000000p-4, 0x1.3913ba0000000p-2, 0x1.aafb2c0000000p-2, 0x1.74b3440000000p-5, -0x1.874a5e0000000p-2, 0x1.0af3180000000p-3, -0x1.a166b60000000p-3, -0x1.f97b3e0000000p-4, -0x1.fb2d580000000p-5, -0x1.7dd6560000000p-5, -0x1.4cf10e0000000p-5, -0x1.59a24a0000000p-2, -0x1.13173c0000000p-3, 0x1.5119120000000p-2, -0x1.2eb0ec0000000p-5, -0x1.a21ea80000000p-4, -0x1.0301560000000p-3, -0x1.4a60100000000p-2, -0x1.737e960000000p-4, -0x1.c0f5da0000000p-5, -0x1.9d3c600000000p-2, 0x1.4520b00000000p-4, -0x1.a3de0c0000000p-2, -0x1.9a8f340000000p-5, -0x1.d138a80000000p-3, 0x1.edad840000000p-7, -0x1.1340280000000p-4, -0x1.ff150a0000000p-3, 0x1.be07100000000p-3, 0x1.bcf63c0000000p-6, 0x1.ed76880000000p-5, -0x1.b125f20000000p-4}
