/**
  ******************************************************************************
  * @file    weights/conv2d.cc
  * @author  Pierre-Emmanuel Novac <penovac@unice.fr>, LEAT, CNRS, Université Côte d'Azur, France
  * @version V2.0
  * @date    24 march 2020
  * @brief   Template generating plain C code for the implementation of Convolutional Neural Networks on MCU
  */

#include <stdint.h>

#define INPUT_CHANNELS     3
#define CONV_FILTERS       32
#define CONV_KERNEL_SIZE_Y 3
#define CONV_KERNEL_SIZE_X 3
#define CONV_GROUPS        1


const float conv2d_bias[CONV_FILTERS] = {0x1.82326e0000000p-8, 0x1.41fc140000000p-6, 0x1.6da03c0000000p-6, 0x1.0449e40000000p-4, 0x1.0f5d980000000p-4, 0x1.c7be200000000p-7, -0x1.66f0aa0000000p-5, -0x1.7990340000000p-2, -0x1.8397080000000p-5, 0x1.ae6a1e0000000p-5, -0x1.c47a620000000p-6, 0x1.48dbe20000000p-5, 0x1.95b8cc0000000p-7, 0x1.a0a62a0000000p-6, 0x1.f3568e0000000p-5, -0x1.28a6960000000p-8, -0x1.e943f00000000p-3, -0x1.1059ea0000000p-3, 0x1.fe282e0000000p-12, 0x1.147a4c0000000p-5, 0x1.d3ce500000000p-5, 0x1.2117f20000000p-8, 0x1.3b0f2a0000000p-4, 0x1.1256a00000000p-7, -0x1.a5ef8c0000000p-7, 0x1.90052a0000000p-5, -0x1.6a131e0000000p-7, -0x1.0b1a8c0000000p-5, 0x1.1f7d5e0000000p-8, -0x1.67a0f40000000p-9, -0x1.8c2e000000000p-5, 0x1.5ed2d40000000p-5}
;


const float conv2d_kernel[CONV_FILTERS][CONV_KERNEL_SIZE_Y][CONV_KERNEL_SIZE_X][INPUT_CHANNELS / CONV_GROUPS] = {{{{0x1.831af60000000p-3, 0x1.dc67e20000000p-4, 0x1.cada9c0000000p-3}
, {0x1.7479e20000000p-2, 0x1.873bc60000000p-2, 0x1.7cde940000000p-2}
, {0x1.0c9b9a0000000p-3, 0x1.21f4c60000000p-2, 0x1.62a6040000000p-3}
}
, {{-0x1.4861d00000000p-3, -0x1.ecf0340000000p-3, -0x1.cfda6e0000000p-4}
, {-0x1.59efaa0000000p-4, -0x1.1d4f740000000p-4, 0x1.200a680000000p-5}
, {-0x1.dbc0480000000p-6, 0x1.b027480000000p-4, 0x1.1914dc0000000p-4}
}
, {{-0x1.5162160000000p-2, -0x1.931e980000000p-4, -0x1.69d17c0000000p-5}
, {-0x1.4aa47a0000000p-2, -0x1.287dfa0000000p-2, -0x1.27b0560000000p-5}
, {-0x1.3dbc200000000p-2, -0x1.3ffee00000000p-2, -0x1.19168a0000000p-3}
}
}
, {{{-0x1.6093340000000p-4, 0x1.4b00240000000p-4, 0x1.1b65940000000p-4}
, {-0x1.9efd400000000p-3, 0x1.87c1640000000p-5, 0x1.61d8920000000p-4}
, {0x1.0980ea0000000p-2, 0x1.b0e9bc0000000p-2, 0x1.65d3c40000000p-2}
}
, {{-0x1.589ef60000000p-2, 0x1.c555800000000p-4, 0x1.0fd4d80000000p-3}
, {-0x1.382b440000000p-1, -0x1.ecc7680000000p-3, -0x1.08cffc0000000p-2}
, {-0x1.54a5300000000p-3, 0x1.05c5aa0000000p-3, 0x1.8df6aa0000000p-3}
}
, {{0x1.4c84b00000000p-4, 0x1.a08cb20000000p-4, 0x1.29cf440000000p-2}
, {-0x1.c9ed2c0000000p-2, -0x1.398c240000000p-3, 0x1.7b915c0000000p-4}
, {-0x1.1929b00000000p-2, 0x1.c4c4900000000p-5, 0x1.ad6e4e0000000p-3}
}
}
, {{{-0x1.a6ef780000000p-4, -0x1.dfff080000000p-2, -0x1.0e504e0000000p-1}
, {-0x1.66569c0000000p-3, -0x1.282f280000000p-1, -0x1.d39cfa0000000p-2}
, {-0x1.98f4160000000p-3, -0x1.2a21600000000p-2, -0x1.e71cda0000000p-2}
}
, {{0x1.b297820000000p-4, 0x1.f7b70e0000000p-5, 0x1.f3607e0000000p-8}
, {0x1.ff85f60000000p-4, 0x1.e7410e0000000p-9, 0x1.1805c60000000p-4}
, {0x1.01ed740000000p-3, 0x1.f74c9e0000000p-12, 0x1.64e2480000000p-3}
}
, {{0x1.e89b9c0000000p-4, 0x1.5a84360000000p-2, 0x1.807d940000000p-2}
, {0x1.d213a00000000p-3, 0x1.fc80800000000p-2, 0x1.c73a700000000p-2}
, {0x1.85dfaa0000000p-7, 0x1.15123e0000000p-3, 0x1.46263c0000000p-3}
}
}
, {{{0x1.19e25a0000000p-2, 0x1.236cf40000000p-2, 0x1.38cdfe0000000p-2}
, {-0x1.5c52300000000p-3, 0x1.0edb8a0000000p-3, -0x1.5e0abe0000000p-7}
, {-0x1.fd8cd20000000p-2, -0x1.36ce1c0000000p-2, -0x1.7a92320000000p-8}
}
, {{0x1.bdd1740000000p-3, 0x1.5b410a0000000p-2, 0x1.3ceb200000000p-2}
, {-0x1.9b76100000000p-3, -0x1.1155d80000000p-3, 0x1.a9b5140000000p-4}
, {-0x1.2b53780000000p-1, -0x1.1c237c0000000p-2, 0x1.82ea2e0000000p-5}
}
, {{0x1.34a7380000000p-2, 0x1.c464060000000p-4, 0x1.ecd4aa0000000p-3}
, {-0x1.ce85860000000p-3, -0x1.ff8e0e0000000p-4, 0x1.a3caca0000000p-4}
, {-0x1.6a06940000000p-2, -0x1.5172da0000000p-3, 0x1.fcb9340000000p-3}
}
}
, {{{0x1.7c1ee40000000p-3, -0x1.ea0a7c0000000p-2, -0x1.1dce0e0000000p-2}
, {0x1.300fa20000000p-2, -0x1.89cfca0000000p-3, -0x1.9d71440000000p-6}
, {0x1.2532f00000000p-2, 0x1.48b6e60000000p-3, 0x1.8e4a800000000p-4}
}
, {{0x1.e5e6ec0000000p-4, -0x1.b940240000000p-2, -0x1.e1515e0000000p-3}
, {0x1.cdc8800000000p-3, -0x1.cfc8c60000000p-4, -0x1.7127860000000p-8}
, {0x1.0496780000000p-3, 0x1.31f0ea0000000p-3, 0x1.a9684c0000000p-4}
}
, {{0x1.1a04680000000p-3, -0x1.6f50600000000p-2, -0x1.f1c51c0000000p-3}
, {0x1.c0d0fc0000000p-4, -0x1.5e5d300000000p-3, 0x1.1f23900000000p-7}
, {-0x1.34245e0000000p-5, 0x1.63319a0000000p-5, -0x1.72a9dc0000000p-4}
}
}
, {{{-0x1.69798e0000000p-4, 0x1.4c70fe0000000p-6, 0x1.586ac20000000p-4}
, {-0x1.c1f8280000000p-3, -0x1.c3809c0000000p-5, -0x1.fab37c0000000p-8}
, {-0x1.53a59a0000000p-2, -0x1.852a500000000p-3, 0x1.03ef600000000p-5}
}
, {{-0x1.e197680000000p-5, 0x1.8254340000000p-9, 0x1.cbb0340000000p-3}
, {0x1.c4ebfe0000000p-4, -0x1.062bfc0000000p-7, 0x1.91f8420000000p-3}
, {-0x1.3d66d60000000p-6, 0x1.2f435c0000000p-3, 0x1.573cc20000000p-3}
}
, {{-0x1.7e18ca0000000p-3, -0x1.3842be0000000p-3, -0x1.0908660000000p-6}
, {0x1.1bed8a0000000p-4, -0x1.4db5680000000p-4, -0x1.2bffbe0000000p-5}
, {-0x1.a379b80000000p-5, -0x1.276f1a0000000p-3, 0x1.07ae0e0000000p-5}
}
}
, {{{0x1.0281720000000p-2, 0x1.92d1900000000p-2, 0x1.2c75d80000000p-2}
, {0x1.cdd0b80000000p-6, 0x1.6b9f960000000p-4, 0x1.a2f2b00000000p-3}
, {-0x1.6c43a40000000p-2, -0x1.96beb80000000p-2, -0x1.4091ee0000000p-2}
}
, {{0x1.6222dc0000000p-2, 0x1.33249e0000000p-2, 0x1.4be7c60000000p-2}
, {0x1.26be1a0000000p-3, 0x1.86da3c0000000p-4, 0x1.c573520000000p-3}
, {-0x1.2a75160000000p-2, -0x1.24670a0000000p-2, -0x1.233c6e0000000p-4}
}
, {{0x1.3d496c0000000p-3, 0x1.1d346e0000000p-3, 0x1.21c4600000000p-6}
, {-0x1.757b240000000p-3, 0x1.5141380000000p-5, -0x1.4f507e0000000p-3}
, {-0x1.729fa00000000p-2, -0x1.3384f00000000p-2, -0x1.c7781c0000000p-3}
}
}
, {{{0x1.584ece0000000p-6, -0x1.14d9680000000p-3, -0x1.2954060000000p-3}
, {-0x1.39d1a80000000p-3, -0x1.92f3f40000000p-8, -0x1.502d440000000p-6}
, {-0x1.2a48b80000000p-5, 0x1.1303780000000p-4, -0x1.585f800000000p-3}
}
, {{0x1.52dc640000000p-4, -0x1.fe33440000000p-4, -0x1.c365080000000p-10}
, {0x1.f9949a0000000p-5, 0x1.26b8440000000p-3, 0x1.ad99920000000p-4}
, {-0x1.f7fd320000000p-6, 0x1.cfb2c40000000p-12, 0x1.c075740000000p-5}
}
, {{0x1.a43f560000000p-4, 0x1.9e74d00000000p-3, 0x1.0819140000000p-3}
, {0x1.03b47c0000000p-2, 0x1.1673f80000000p-5, 0x1.b6d8580000000p-5}
, {0x1.34f2700000000p-3, 0x1.087ecc0000000p-4, 0x1.30d27c0000000p-4}
}
}
, {{{-0x1.16fa0e0000000p-4, -0x1.6f7ed40000000p-5, -0x1.96e30a0000000p-5}
, {-0x1.be158a0000000p-5, 0x1.7006d40000000p-5, 0x1.eb59b40000000p-7}
, {-0x1.c8c35c0000000p-8, -0x1.eca0340000000p-4, 0x1.cfda640000000p-5}
}
, {{-0x1.1a78880000000p-4, 0x1.232d1c0000000p-4, 0x1.a67ef00000000p-4}
, {0x1.3bc3dc0000000p-4, 0x1.c6c5300000000p-5, 0x1.48cade0000000p-7}
, {-0x1.860cec0000000p-4, 0x1.f1a66c0000000p-9, 0x1.a4fc540000000p-4}
}
, {{-0x1.ab562e0000000p-9, -0x1.22febc0000000p-5, -0x1.5f73580000000p-6}
, {-0x1.460de60000000p-4, -0x1.fa7c5c0000000p-5, -0x1.5a38180000000p-4}
, {0x1.35c3a00000000p-5, 0x1.c27a980000000p-6, -0x1.82d8d20000000p-6}
}
}
, {{{0x1.32ff160000000p-2, 0x1.c7faf60000000p-6, 0x1.095d840000000p-3}
, {-0x1.c036980000000p-2, -0x1.96a9e80000000p-2, -0x1.062e000000000p-1}
, {0x1.a524660000000p-5, 0x1.1a798c0000000p-3, -0x1.03e9f20000000p-4}
}
, {{-0x1.5951200000000p-6, -0x1.015e3e0000000p-3, -0x1.0604680000000p-2}
, {-0x1.9a631c0000000p-3, -0x1.1a72880000000p-2, -0x1.a91f7e0000000p-2}
, {0x1.5230b00000000p-2, 0x1.44fc800000000p-2, 0x1.76b4b00000000p-2}
}
, {{-0x1.a9f2380000000p-5, 0x1.c0e0ae0000000p-7, -0x1.900b360000000p-3}
, {0x1.49a81e0000000p-5, 0x1.f7e2400000000p-4, 0x1.c14cbc0000000p-6}
, {0x1.308bc40000000p-2, 0x1.3490040000000p-2, 0x1.a506c40000000p-2}
}
}
, {{{-0x1.c13bae0000000p-5, 0x1.75e44a0000000p-4, -0x1.ce2c760000000p-6}
, {0x1.c68e300000000p-4, 0x1.4e353a0000000p-2, 0x1.be0f2e0000000p-3}
, {0x1.b71c4c0000000p-3, 0x1.a5fd720000000p-3, -0x1.03539a0000000p-4}
}
, {{-0x1.2d568c0000000p-2, 0x1.ac99ca0000000p-5, -0x1.83f9240000000p-3}
, {0x1.70f0a40000000p-4, 0x1.5de7c40000000p-2, 0x1.1ddb5c0000000p-2}
, {0x1.53cd500000000p-4, 0x1.6b7f000000000p-2, 0x1.b207960000000p-3}
}
, {{-0x1.bf435e0000000p-2, -0x1.5b7efa0000000p-2, -0x1.e0f6260000000p-2}
, {-0x1.29d9380000000p-2, -0x1.1f00380000000p-4, -0x1.dad04a0000000p-3}
, {-0x1.56179c0000000p-6, 0x1.b0b2fa0000000p-5, -0x1.5b799c0000000p-8}
}
}
, {{{-0x1.8994160000000p-5, -0x1.4820fc0000000p-2, -0x1.1c4e800000000p-2}
, {-0x1.e657180000000p-3, -0x1.020dc40000000p-2, -0x1.062fea0000000p-2}
, {0x1.4844ea0000000p-4, 0x1.0163be0000000p-2, 0x1.2ffe520000000p-2}
}
, {{-0x1.3054900000000p-2, -0x1.a8a7100000000p-2, -0x1.bdc8480000000p-2}
, {0x1.6b5a0e0000000p-4, -0x1.a80b560000000p-5, -0x1.271e6a0000000p-4}
, {0x1.2cb9b80000000p-2, 0x1.e789f00000000p-2, 0x1.ca28e20000000p-3}
}
, {{-0x1.5d38460000000p-5, -0x1.1a76380000000p-2, -0x1.1b4ca60000000p-2}
, {0x1.1e471e0000000p-3, 0x1.fef7000000000p-3, 0x1.0f3eb40000000p-3}
, {0x1.ae659c0000000p-3, 0x1.b84a7e0000000p-2, 0x1.8745d20000000p-3}
}
}
, {{{0x1.ed8b7e0000000p-4, 0x1.df4e2c0000000p-3, 0x1.3ab2160000000p-2}
, {0x1.2f090a0000000p-3, 0x1.f8c6aa0000000p-3, 0x1.7ade5e0000000p-2}
, {0x1.c5c6720000000p-4, 0x1.4f81da0000000p-3, 0x1.ee87ca0000000p-5}
}
, {{-0x1.1deaf40000000p-5, 0x1.ffff3e0000000p-3, 0x1.2918380000000p-3}
, {0x1.64a4060000000p-3, 0x1.ea05580000000p-3, 0x1.01da7a0000000p-6}
, {-0x1.74e3060000000p-4, -0x1.29f4a60000000p-2, -0x1.1702e40000000p-2}
}
, {{-0x1.2e91e40000000p-3, 0x1.d5d0a00000000p-4, -0x1.45212a0000000p-5}
, {-0x1.71f2000000000p-4, -0x1.6e31ea0000000p-2, -0x1.90d68c0000000p-2}
, {-0x1.732de00000000p-2, -0x1.3964740000000p-2, -0x1.d3f06e0000000p-2}
}
}
, {{{-0x1.be80600000000p-5, -0x1.ea29d40000000p-3, -0x1.bad4f00000000p-3}
, {-0x1.bae3a00000000p-2, -0x1.4c6a760000000p-2, -0x1.74c6980000000p-2}
, {0x1.274f240000000p-3, 0x1.89405e0000000p-3, 0x1.bd985e0000000p-3}
}
, {{0x1.5433980000000p-3, 0x1.8758240000000p-3, 0x1.fd78700000000p-4}
, {-0x1.f06c800000000p-4, -0x1.53cecc0000000p-2, -0x1.e885320000000p-3}
, {-0x1.d47b140000000p-4, -0x1.39ab860000000p-3, -0x1.48bfb80000000p-4}
}
, {{0x1.35bc000000000p-2, 0x1.0a41be0000000p-1, 0x1.ccb1ee0000000p-2}
, {0x1.1bfa960000000p-2, 0x1.049d700000000p-3, -0x1.57a6660000000p-4}
, {0x1.1ed8980000000p-3, -0x1.e26d8c0000000p-4, -0x1.03ddf60000000p-3}
}
}
, {{{0x1.4f1be20000000p-2, 0x1.eb6a420000000p-3, 0x1.1379000000000p-2}
, {0x1.22a0d60000000p-2, 0x1.2a67820000000p-3, 0x1.01eafa0000000p-3}
, {0x1.1996d00000000p-2, 0x1.45cff00000000p-3, 0x1.943d520000000p-5}
}
, {{0x1.2a132a0000000p-7, 0x1.2836f60000000p-6, -0x1.bc1cb00000000p-3}
, {-0x1.be157e0000000p-3, -0x1.f457c00000000p-3, -0x1.8e89a20000000p-2}
, {0x1.369b1c0000000p-3, -0x1.9df0760000000p-7, -0x1.7c22bc0000000p-4}
}
, {{-0x1.209e200000000p-3, 0x1.5b4bc60000000p-7, -0x1.2c0c300000000p-4}
, {-0x1.9c2ea20000000p-2, -0x1.7f78fe0000000p-2, -0x1.e1b56c0000000p-2}
, {0x1.5b69a00000000p-5, 0x1.7d28ca0000000p-3, 0x1.2962ac0000000p-4}
}
}
, {{{-0x1.1b13220000000p-1, -0x1.7bb5f80000000p-3, -0x1.9c0e040000000p-4}
, {-0x1.14489e0000000p-2, -0x1.246b460000000p-6, 0x1.7d179e0000000p-4}
, {0x1.508bba0000000p-8, 0x1.6dc4be0000000p-5, 0x1.5cba800000000p-3}
}
, {{-0x1.95fd720000000p-2, -0x1.cc75e00000000p-3, 0x1.0540a80000000p-5}
, {-0x1.0e0ff80000000p-3, 0x1.7c50b00000000p-4, 0x1.2a4f780000000p-2}
, {0x1.9a66e00000000p-6, 0x1.4079fc0000000p-2, 0x1.cf7de80000000p-3}
}
, {{-0x1.7671800000000p-2, 0x1.de1a560000000p-7, -0x1.5bbf0c0000000p-6}
, {0x1.d51cf40000000p-10, 0x1.e2caa00000000p-3, 0x1.212dde0000000p-5}
, {0x1.e011680000000p-3, 0x1.d1b5e00000000p-3, 0x1.5f4c220000000p-5}
}
}
, {{{0x1.3c59080000000p-5, 0x1.b41fe80000000p-4, 0x1.66651e0000000p-4}
, {-0x1.6c4cd40000000p-5, 0x1.d7bcb60000000p-3, 0x1.176a240000000p-4}
, {0x1.9e5b4e0000000p-4, 0x1.5a07b20000000p-4, 0x1.563c520000000p-6}
}
, {{-0x1.1f57f40000000p-4, 0x1.d0a5f60000000p-3, 0x1.633b5c0000000p-5}
, {0x1.080e260000000p-5, 0x1.40ce120000000p-3, 0x1.c0db980000000p-4}
, {0x1.90b40e0000000p-5, 0x1.30e4fc0000000p-3, 0x1.b813ce0000000p-6}
}
, {{0x1.68d0960000000p-5, -0x1.60e17c0000000p-8, -0x1.5ea6380000000p-4}
, {0x1.e7508e0000000p-8, 0x1.d395080000000p-4, -0x1.197e7e0000000p-4}
, {-0x1.c2fc940000000p-5, -0x1.37c6a40000000p-4, -0x1.d2d2de0000000p-5}
}
}
, {{{-0x1.0540fc0000000p-2, -0x1.5992700000000p-2, -0x1.2f66660000000p-2}
, {-0x1.9985100000000p-10, -0x1.9746040000000p-3, -0x1.e0c9d00000000p-4}
, {0x1.1a67ce0000000p-2, 0x1.7dee800000000p-3, 0x1.65de980000000p-3}
}
, {{-0x1.aa3aa00000000p-4, -0x1.f4bc3e0000000p-2, -0x1.0da0440000000p-1}
, {0x1.3c69a60000000p-5, -0x1.5887de0000000p-3, -0x1.720a3e0000000p-3}
, {0x1.9fa5fe0000000p-2, 0x1.cf3de00000000p-3, 0x1.5f03f40000000p-2}
}
, {{-0x1.0a89260000000p-2, -0x1.944d600000000p-2, -0x1.ef32fc0000000p-2}
, {0x1.1923fc0000000p-3, -0x1.08c8d60000000p-6, 0x1.66335a0000000p-4}
, {0x1.da9ad60000000p-2, 0x1.9081400000000p-2, 0x1.fb79f60000000p-2}
}
}
, {{{-0x1.20b56a0000000p-3, 0x1.6a15940000000p-10, -0x1.24e2000000000p-3}
, {0x1.37cba80000000p-6, 0x1.0d3c020000000p-2, 0x1.d0f44c0000000p-3}
, {0x1.46162a0000000p-4, 0x1.ba18760000000p-8, -0x1.f392ee0000000p-5}
}
, {{0x1.34c95c0000000p-3, 0x1.babf400000000p-4, 0x1.aab0480000000p-5}
, {0x1.62d6380000000p-3, 0x1.6665600000000p-3, 0x1.7ae2820000000p-3}
, {-0x1.d44fce0000000p-3, -0x1.2991300000000p-2, -0x1.834c940000000p-2}
}
, {{0x1.da90cc0000000p-5, 0x1.5185220000000p-2, 0x1.5522de0000000p-2}
, {0x1.48ce9a0000000p-3, 0x1.d564560000000p-3, 0x1.76a1d60000000p-4}
, {-0x1.7cfb980000000p-2, -0x1.ca3c600000000p-2, -0x1.0835fc0000000p-1}
}
}
, {{{0x1.228d2c0000000p-2, 0x1.e78c600000000p-3, 0x1.563fbc0000000p-2}
, {0x1.7848d80000000p-3, 0x1.1d0bc40000000p-2, 0x1.2fb8be0000000p-2}
, {-0x1.3c976c0000000p-3, -0x1.0e1f6c0000000p-5, 0x1.0b8b540000000p-2}
}
, {{0x1.3ff91e0000000p-3, 0x1.75aec60000000p-3, 0x1.3ba4ea0000000p-5}
, {0x1.6d60940000000p-4, 0x1.5d43880000000p-6, 0x1.3e1d560000000p-3}
, {-0x1.3f01f40000000p-2, -0x1.98d84c0000000p-4, -0x1.107d080000000p-4}
}
, {{-0x1.e84c5e0000000p-4, -0x1.2d6b080000000p-3, 0x1.1b0efe0000000p-4}
, {-0x1.6512760000000p-2, -0x1.d4b64c0000000p-3, -0x1.a1a9a80000000p-3}
, {-0x1.d2c67e0000000p-2, -0x1.4228fa0000000p-2, 0x1.190e540000000p-10}
}
}
, {{{0x1.8418e80000000p-2, 0x1.1d827c0000000p-2, 0x1.d0d6c80000000p-3}
, {0x1.d3856c0000000p-3, -0x1.0645a60000000p-6, -0x1.00b8040000000p-5}
, {-0x1.c339760000000p-4, -0x1.719a3e0000000p-2, -0x1.5dc5e80000000p-3}
}
, {{0x1.a4d0b40000000p-2, 0x1.2cdd300000000p-2, 0x1.ecec9e0000000p-3}
, {0x1.118fb20000000p-4, 0x1.0307e00000000p-3, 0x1.4f94e20000000p-6}
, {-0x1.3fb2c00000000p-3, -0x1.c8ff9a0000000p-2, -0x1.ec15c60000000p-2}
}
, {{0x1.54285e0000000p-2, 0x1.454ac60000000p-4, 0x1.2e5f8c0000000p-2}
, {-0x1.1db39e0000000p-3, -0x1.938caa0000000p-3, -0x1.4736020000000p-2}
, {-0x1.4c8c020000000p-2, -0x1.6944980000000p-2, -0x1.5487420000000p-3}
}
}
, {{{0x1.ca6ec40000000p-4, 0x1.7c80320000000p-2, 0x1.0025540000000p-3}
, {0x1.3c2a120000000p-2, 0x1.bec4440000000p-3, 0x1.119a7c0000000p-2}
, {0x1.ba152e0000000p-3, 0x1.2ef8f40000000p-2, 0x1.99d9ec0000000p-3}
}
, {{-0x1.230f960000000p-4, -0x1.29c6380000000p-6, -0x1.06e8700000000p-6}
, {-0x1.0a5d1c0000000p-7, 0x1.fb0b880000000p-3, 0x1.ff93ba0000000p-3}
, {0x1.4f1ddc0000000p-3, 0x1.ede19a0000000p-3, 0x1.29b9ac0000000p-3}
}
, {{-0x1.2664580000000p-2, -0x1.0f49060000000p-3, -0x1.5e30e20000000p-2}
, {-0x1.9f904e0000000p-2, -0x1.1ebe560000000p-2, -0x1.8274f80000000p-2}
, {-0x1.754f7e0000000p-2, -0x1.a267400000000p-2, -0x1.83c4380000000p-2}
}
}
, {{{-0x1.44c1240000000p-4, -0x1.6030da0000000p-2, -0x1.8765a40000000p-3}
, {0x1.171eae0000000p-2, 0x1.86d9340000000p-4, -0x1.8a40ec0000000p-9}
, {0x1.3c1fe00000000p-3, 0x1.1227540000000p-4, 0x1.6c182c0000000p-4}
}
, {{-0x1.71f1940000000p-3, -0x1.11f6260000000p-1, -0x1.15bf0a0000000p-2}
, {0x1.4052d40000000p-2, -0x1.a44f760000000p-4, 0x1.9d3cb20000000p-5}
, {0x1.84b6140000000p-4, 0x1.18fb9e0000000p-4, -0x1.07f8640000000p-3}
}
, {{-0x1.ebf3ee0000000p-4, -0x1.8887be0000000p-2, -0x1.5fcd880000000p-3}
, {0x1.2a57060000000p-2, 0x1.2a71fe0000000p-3, 0x1.8ad17c0000000p-3}
, {0x1.6deb6a0000000p-3, 0x1.532aee0000000p-4, 0x1.68f94a0000000p-3}
}
}
, {{{0x1.48ecfc0000000p-3, 0x1.8e9a300000000p-2, 0x1.bce7700000000p-3}
, {0x1.3ec67c0000000p-2, 0x1.711ba40000000p-2, 0x1.537c700000000p-4}
, {0x1.f7adc20000000p-5, 0x1.fd65720000000p-5, 0x1.ce085a0000000p-3}
}
, {{0x1.e3155e0000000p-6, 0x1.8fc0dc0000000p-3, -0x1.8d027c0000000p-5}
, {0x1.3b7efc0000000p-4, 0x1.77fad60000000p-5, -0x1.4027440000000p-4}
, {-0x1.4cde980000000p-4, 0x1.32fed00000000p-5, -0x1.8cfea60000000p-6}
}
, {{-0x1.1037060000000p-3, -0x1.0bc5e00000000p-2, -0x1.a353fc0000000p-3}
, {-0x1.ecf5040000000p-3, -0x1.6181d00000000p-3, -0x1.34b5440000000p-3}
, {-0x1.7450c60000000p-2, -0x1.e49fba0000000p-3, -0x1.3ce2cc0000000p-2}
}
}
, {{{-0x1.863e640000000p-2, -0x1.a7a6580000000p-3, -0x1.5f2a260000000p-2}
, {-0x1.eb9ad00000000p-6, -0x1.60c7320000000p-5, 0x1.77eb6e0000000p-5}
, {0x1.152f480000000p-2, 0x1.7c219a0000000p-2, 0x1.91f5160000000p-4}
}
, {{-0x1.41f9340000000p-2, -0x1.9359cc0000000p-3, -0x1.f2a6b60000000p-3}
, {0x1.578df60000000p-4, 0x1.0dff4e0000000p-3, 0x1.790ef40000000p-3}
, {0x1.2768e20000000p-2, 0x1.66a0920000000p-2, 0x1.ad6fec0000000p-3}
}
, {{-0x1.b364fe0000000p-3, -0x1.722bf40000000p-4, -0x1.0b74760000000p-2}
, {0x1.b6fe720000000p-5, 0x1.a9cb320000000p-3, -0x1.f57bcc0000000p-5}
, {0x1.4905be0000000p-4, 0x1.bf3d8c0000000p-3, 0x1.0063700000000p-4}
}
}
, {{{0x1.9e67880000000p-6, 0x1.a8c94a0000000p-3, 0x1.8eac340000000p-6}
, {0x1.4346200000000p-2, 0x1.d2659c0000000p-4, 0x1.39e55a0000000p-3}
, {0x1.064e960000000p-2, 0x1.966eee0000000p-2, 0x1.782cfe0000000p-2}
}
, {{0x1.998c360000000p-7, -0x1.dca8b60000000p-3, -0x1.4dcc200000000p-2}
, {0x1.95f8280000000p-4, -0x1.63ddc80000000p-5, -0x1.5782060000000p-5}
, {0x1.b80bb60000000p-4, -0x1.0654340000000p-4, -0x1.9ebe320000000p-5}
}
, {{0x1.8db64c0000000p-3, 0x1.9a71600000000p-3, 0x1.19201a0000000p-7}
, {-0x1.6c3ea40000000p-3, -0x1.4a948e0000000p-2, -0x1.fa03bc0000000p-2}
, {-0x1.3f19d20000000p-3, -0x1.3dc7a60000000p-2, -0x1.2354d80000000p-2}
}
}
, {{{0x1.1b48400000000p-8, -0x1.a10c2c0000000p-5, -0x1.6caffa0000000p-6}
, {-0x1.8c69680000000p-7, -0x1.1e744a0000000p-3, -0x1.ceb0180000000p-5}
, {-0x1.0465580000000p-4, -0x1.a57f7a0000000p-4, 0x1.ef17140000000p-8}
}
, {{-0x1.7cc34c0000000p-6, -0x1.09d2ca0000000p-3, -0x1.f3c9460000000p-4}
, {-0x1.cef21e0000000p-5, -0x1.21e9740000000p-4, -0x1.0002ae0000000p-5}
, {-0x1.12344a0000000p-3, -0x1.99db460000000p-6, -0x1.1269ae0000000p-3}
}
, {{0x1.a3dcf80000000p-4, 0x1.94bad60000000p-5, -0x1.eb42b80000000p-4}
, {0x1.0351b80000000p-6, -0x1.3429460000000p-3, -0x1.6afc1e0000000p-4}
, {-0x1.82849c0000000p-4, -0x1.dc87640000000p-4, -0x1.8024560000000p-6}
}
}
, {{{0x1.921dc60000000p-2, 0x1.148c540000000p-1, 0x1.1c12360000000p-2}
, {0x1.2ac0820000000p-3, 0x1.00b6ee0000000p-7, -0x1.5783620000000p-3}
, {0x1.c2ec6e0000000p-7, -0x1.43a1ca0000000p-3, -0x1.bac3f20000000p-7}
}
, {{0x1.34897a0000000p-4, 0x1.4b388c0000000p-3, -0x1.13881c0000000p-6}
, {0x1.e4fc600000000p-5, -0x1.c9b5e40000000p-2, -0x1.126b940000000p-1}
, {0x1.7cc48c0000000p-3, -0x1.3342640000000p-3, -0x1.e92b540000000p-4}
}
, {{0x1.242ac40000000p-3, -0x1.94daee0000000p-4, -0x1.0873500000000p-4}
, {-0x1.3af08c0000000p-3, -0x1.daa1b40000000p-2, -0x1.220bd40000000p-1}
, {0x1.eb6d580000000p-3, 0x1.1e19ee0000000p-2, 0x1.7611440000000p-4}
}
}
, {{{-0x1.d7943c0000000p-2, -0x1.58cd060000000p-2, -0x1.4d33440000000p-3}
, {-0x1.db84fe0000000p-5, -0x1.c9b3620000000p-4, 0x1.ad02de0000000p-5}
, {-0x1.ce8e060000000p-3, 0x1.9ec3680000000p-5, -0x1.4931a40000000p-4}
}
, {{-0x1.e9c16e0000000p-4, -0x1.b35e2c0000000p-9, 0x1.2e0b1c0000000p-4}
, {-0x1.f1b32a0000000p-6, 0x1.a049060000000p-4, 0x1.df25cc0000000p-4}
, {-0x1.f7fba40000000p-6, 0x1.48dda60000000p-3, 0x1.6de0f80000000p-3}
}
, {{-0x1.d3cfd20000000p-4, 0x1.17cc600000000p-5, 0x1.b74fac0000000p-3}
, {0x1.d6bc700000000p-4, 0x1.8d80100000000p-3, 0x1.64ad2e0000000p-3}
, {0x1.2b87640000000p-7, 0x1.ba8c5c0000000p-4, 0x1.58a1160000000p-3}
}
}
, {{{0x1.62c5ec0000000p-4, -0x1.cd7ea20000000p-4, -0x1.28656c0000000p-4}
, {-0x1.f1137c0000000p-6, -0x1.250e9a0000000p-6, -0x1.81017c0000000p-4}
, {0x1.6dedec0000000p-6, -0x1.8504ec0000000p-4, 0x1.00dc660000000p-4}
}
, {{-0x1.cf67660000000p-6, -0x1.8b473a0000000p-4, -0x1.6c1d4a0000000p-6}
, {-0x1.1d3fa80000000p-3, -0x1.471bba0000000p-5, 0x1.06f32a0000000p-3}
, {0x1.f70b020000000p-6, 0x1.d26f560000000p-5, -0x1.5504ce0000000p-4}
}
, {{-0x1.e8328c0000000p-7, -0x1.39082c0000000p-5, -0x1.6549a60000000p-4}
, {-0x1.0fce9e0000000p-3, -0x1.3683020000000p-5, -0x1.2746ca0000000p-4}
, {-0x1.2e74660000000p-4, -0x1.9c2f7e0000000p-8, -0x1.fd484e0000000p-4}
}
}
, {{{-0x1.42a3640000000p-5, 0x1.b327860000000p-5, -0x1.90e5a00000000p-7}
, {0x1.53b74c0000000p-6, -0x1.4d8af40000000p-9, -0x1.30d6b40000000p-4}
, {0x1.2f377c0000000p-4, 0x1.998ffe0000000p-6, 0x1.3b1d240000000p-5}
}
, {{0x1.3fc6300000000p-6, -0x1.7ba8b40000000p-4, 0x1.9133000000000p-4}
, {0x1.9b7efa0000000p-4, -0x1.69eb120000000p-4, 0x1.ae2ae00000000p-4}
, {0x1.d728d80000000p-4, -0x1.6685440000000p-4, -0x1.c639e60000000p-6}
}
, {{0x1.1301960000000p-5, -0x1.51c4a00000000p-5, -0x1.40133a0000000p-3}
, {-0x1.50a2000000000p-9, 0x1.89af4c0000000p-5, -0x1.44a96e0000000p-5}
, {-0x1.7f871c0000000p-7, -0x1.d638140000000p-4, -0x1.1c83e00000000p-2}
}
}
, {{{-0x1.f0e91a0000000p-3, -0x1.64f2700000000p-2, -0x1.0d4d7c0000000p-6}
, {-0x1.b88d4c0000000p-3, -0x1.5e6bd00000000p-2, -0x1.d5283c0000000p-3}
, {0x1.0d8e8e0000000p-2, 0x1.15dc580000000p-2, 0x1.ef019e0000000p-3}
}
, {{-0x1.a9775a0000000p-2, -0x1.d5081c0000000p-2, -0x1.a15aaa0000000p-3}
, {-0x1.468bea0000000p-5, -0x1.adb19e0000000p-3, -0x1.028bf60000000p-5}
, {0x1.35fc760000000p-3, 0x1.85fdcc0000000p-2, 0x1.ad49a20000000p-2}
}
, {{-0x1.575f1c0000000p-2, -0x1.5c29520000000p-2, -0x1.3c4f200000000p-6}
, {0x1.5051b00000000p-3, 0x1.222a380000000p-3, 0x1.4607ec0000000p-2}
, {0x1.6509be0000000p-2, 0x1.ed2f8a0000000p-2, 0x1.6f036a0000000p-2}
}
}
}
;

#undef INPUT_CHANNELS
#undef CONV_FILTERS
#undef CONV_KERNEL_SIZE_X
#undef CONV_KERNEL_SIZE_Y
#undef CONV_GROUPS