/**
  ******************************************************************************
  * @file    weights/fc.cc
  * @author  Pierre-Emmanuel Novac <penovac@unice.fr>, LEAT, CNRS, Université Côte d'Azur, France
  * @version 1.0.0
  * @date    24 march 2020
  * @brief   Template generating plain C code for the implementation of Convolutional Neural Networks on MCU
  */

#include <stdint.h>

#define INPUT_SAMPLES 64
#define FC_UNITS 28


const float dense_1_bias[FC_UNITS] = {0x1.7f2a580000000p-6, 0x1.17f8c40000000p-4, -0x1.1f6af20000000p-9, 0x1.8413140000000p-4, -0x1.bd92ec0000000p-3, -0x1.c63cb20000000p-2, 0x1.ede5660000000p-5, 0x1.1d5efa0000000p-3, -0x1.b395280000000p-2, -0x1.16850e0000000p-2, -0x1.a2d19c0000000p-2, 0x1.7b3db20000000p-3, 0x1.08939a0000000p-2, 0x1.5d8b600000000p-5, 0x1.a7f07a0000000p-1, 0x1.434c420000000p-3, 0x1.17a35e0000000p-1, 0x1.ae8f560000000p-2, 0x1.0da1c40000000p-3, 0x1.74cfa00000000p-5, -0x1.91e1040000000p-3, -0x1.223d2e0000000p-3, 0x1.84d7960000000p-8, 0x1.17c22a0000000p-3, -0x1.3db3140000000p-2, -0x1.417e4a0000000p-1, -0x1.bd9e320000000p-2, -0x1.293cc80000000p-2}
;

const float dense_1_kernel[FC_UNITS][INPUT_SAMPLES] = {{-0x1.0b36be0000000p-1, -0x1.a088fa0000000p-4, -0x1.4d7e140000000p-3, 0x1.19fde20000000p-5, -0x1.6bceb40000000p-2, -0x1.0cb09c0000000p-1, -0x1.b753ba0000000p-2, 0x1.60d6c80000000p-6, -0x1.bf066e0000000p-2, 0x1.0de3260000000p-2, 0x1.19b0900000000p-3, -0x1.e7ec8a0000000p-3, -0x1.26af640000000p-3, 0x1.5333760000000p-4, 0x1.fe898c0000000p-4, -0x1.85470c0000000p-2, -0x1.ef6ff00000000p-2, 0x1.f517e00000000p-4, -0x1.8533fa0000000p-1, 0x1.f9e7700000000p-3, -0x1.39352c0000000p-3, 0x1.637f280000000p-5, 0x1.c8e8380000000p-3, 0x1.108ca00000000p-2, -0x1.f871f00000000p-2, -0x1.bd8e8c0000000p-2, -0x1.e62afe0000000p-3, -0x1.1a9a400000000p-2, 0x1.434a7c0000000p-2, -0x1.7d35040000000p-2, -0x1.66986e0000000p-3, -0x1.dd121c0000000p-6, 0x1.cf97da0000000p-3, -0x1.e8370c0000000p-3, -0x1.a58f700000000p-3, -0x1.7554da0000000p-4, 0x1.157be60000000p-3, -0x1.36e8f20000000p-2, 0x1.4d23280000000p-3, 0x1.a9d9fe0000000p-3, 0x1.31d2ce0000000p-4, -0x1.4e1a920000000p-1, -0x1.c020460000000p-3, 0x1.346b200000000p-2, -0x1.12d7040000000p-6, -0x1.78ebc60000000p-3, -0x1.3f72400000000p-3, -0x1.a59d040000000p-7, 0x1.a098e20000000p-4, -0x1.05e4f80000000p-3, -0x1.ba71c60000000p-2, -0x1.160c9c0000000p-1, 0x1.4334aa0000000p-3, -0x1.d6da100000000p-2, -0x1.559b920000000p-2, -0x1.03e8960000000p-1, -0x1.4a904e0000000p-2, 0x1.038ba40000000p-2, -0x1.59eff80000000p-2, -0x1.3c00380000000p-2, -0x1.e7a8f40000000p-3, -0x1.479c560000000p-4, 0x1.303fd40000000p-4, 0x1.9354dc0000000p-5}
, {-0x1.60a7da0000000p-1, 0x1.8015a40000000p-4, -0x1.60e0ae0000000p-7, 0x1.85f2020000000p-3, 0x1.8181ba0000000p-8, -0x1.e0edba0000000p-2, -0x1.deaa2e0000000p-3, 0x1.b1f2420000000p-3, -0x1.229a860000000p-1, 0x1.e067780000000p-3, -0x1.b087b20000000p-4, -0x1.207f420000000p-1, 0x1.a95b500000000p-8, 0x1.b48aae0000000p-3, -0x1.d551140000000p-2, 0x1.9b47c40000000p-4, -0x1.816a5e0000000p-1, 0x1.ce00880000000p-3, -0x1.e07e8c0000000p-4, -0x1.0817e80000000p-4, -0x1.50379e0000000p-3, -0x1.b0edb00000000p-4, 0x1.add3c00000000p-3, 0x1.144a760000000p-2, -0x1.16da820000000p-1, -0x1.2452820000000p-1, -0x1.e27cc80000000p-3, 0x1.b6c77a0000000p-3, 0x1.778b260000000p-3, 0x1.09eee20000000p-2, -0x1.3fd2840000000p-2, -0x1.0237b80000000p-1, -0x1.9817600000000p-3, -0x1.f15b280000000p-4, 0x1.0350be0000000p-5, -0x1.1ed7380000000p-1, 0x1.3bd2080000000p-3, -0x1.d56bec0000000p-3, 0x1.148ce00000000p-3, 0x1.47bd8a0000000p-3, -0x1.7e6cce0000000p-3, -0x1.6a2a120000000p-2, -0x1.e6a2a40000000p-5, 0x1.29ec680000000p-2, -0x1.9d57d00000000p-3, 0x1.42c31c0000000p-5, 0x1.a252d40000000p-3, -0x1.bb7a380000000p-3, -0x1.b825500000000p-3, -0x1.7be4ba0000000p-4, 0x1.0371d60000000p-2, 0x1.3e46a40000000p-3, -0x1.0f6e280000000p-1, -0x1.8bb4b00000000p-3, -0x1.2e72b60000000p-1, 0x1.4737a60000000p-3, -0x1.657ae40000000p-2, 0x1.a5ab640000000p-3, -0x1.08811c0000000p-1, 0x1.3c691e0000000p-4, -0x1.840ddc0000000p-4, -0x1.275e340000000p-4, -0x1.f806520000000p-3, 0x1.52c6320000000p-4}
, {-0x1.4dce6a0000000p-2, 0x1.3648ec0000000p-3, -0x1.371d640000000p-6, 0x1.5d06a60000000p-3, -0x1.9286fe0000000p-8, -0x1.5cfa780000000p-1, 0x1.3090e80000000p-3, 0x1.97cf8e0000000p-4, 0x1.8a107a0000000p-5, -0x1.27ef080000000p-2, -0x1.b604c60000000p-2, -0x1.8497d20000000p-3, -0x1.d1750a0000000p-3, -0x1.966e380000000p-3, -0x1.06fcaa0000000p+0, -0x1.3932760000000p-5, -0x1.7cb2820000000p-1, 0x1.e515f40000000p-6, 0x1.05a22a0000000p-2, -0x1.6337a00000000p-3, 0x1.4925f20000000p-2, -0x1.84cc700000000p-3, -0x1.f03e1e0000000p-3, 0x1.e14f1a0000000p-3, 0x1.4ad99a0000000p-4, 0x1.84df460000000p-3, -0x1.4dd43e0000000p-1, 0x1.1f8bd00000000p-3, -0x1.dfe77a0000000p-2, 0x1.fa55120000000p-3, -0x1.11ea8a0000000p-1, -0x1.293d3c0000000p-2, -0x1.b1ed2a0000000p-3, -0x1.781b180000000p-3, -0x1.deaee20000000p-2, -0x1.81dd580000000p-2, 0x1.78981c0000000p-4, -0x1.60da620000000p-1, -0x1.b9b91e0000000p-3, 0x1.8cc6f00000000p-4, 0x1.b1028c0000000p-3, 0x1.0b2e1e0000000p-2, -0x1.16167c0000000p-4, 0x1.fc29a80000000p-3, 0x1.1a9c100000000p-5, 0x1.3083a40000000p-4, 0x1.6e81ea0000000p-3, -0x1.0a20d00000000p-1, -0x1.d6d17e0000000p-3, -0x1.479d900000000p-5, -0x1.6a54ae0000000p-2, -0x1.c6e1c00000000p-3, -0x1.4bc47e0000000p-1, -0x1.39600c0000000p-1, -0x1.d912b80000000p-2, 0x1.7667880000000p-3, -0x1.e7345c0000000p-3, 0x1.c3d98c0000000p-3, 0x1.79acfc0000000p-3, 0x1.8a4fe00000000p-3, 0x1.7e94660000000p-4, 0x1.5ac6c60000000p-3, -0x1.e58b300000000p-3, 0x1.3144700000000p-3}
, {-0x1.3dbad40000000p-1, -0x1.f4f8100000000p-3, 0x1.97e6a00000000p-10, 0x1.5a01040000000p-3, -0x1.077e1e0000000p-2, -0x1.4555480000000p-1, 0x1.786e720000000p-3, 0x1.1826220000000p-9, -0x1.0d3aac0000000p-5, 0x1.75424a0000000p-3, -0x1.9e12840000000p-2, 0x1.422e780000000p-3, 0x1.8921b20000000p-6, -0x1.0df51e0000000p-5, -0x1.0d6e620000000p-1, -0x1.44be000000000p-1, -0x1.36fd000000000p-3, 0x1.76e4100000000p-3, 0x1.1741420000000p-2, -0x1.c1deb00000000p-3, 0x1.a012400000000p-3, -0x1.74eda60000000p-6, -0x1.73afd00000000p-2, -0x1.d04c580000000p-2, 0x1.5d1af60000000p-3, 0x1.4d7ad60000000p-3, -0x1.0136c40000000p-5, -0x1.466e220000000p-2, -0x1.0af18c0000000p-1, 0x1.a6e11c0000000p-3, 0x1.378a4e0000000p-3, -0x1.fd6e320000000p-4, -0x1.8b17ac0000000p-2, -0x1.25ffbe0000000p-3, 0x1.dbd3600000000p-3, 0x1.032e3c0000000p-2, 0x1.2481bc0000000p-3, -0x1.b957320000000p-2, -0x1.a799e20000000p-3, -0x1.e408380000000p-2, -0x1.ebda460000000p-3, 0x1.fcbc080000000p-3, 0x1.97c42a0000000p-6, -0x1.43d5ae0000000p-2, 0x1.69f0020000000p-3, 0x1.dac28e0000000p-4, -0x1.08c3f00000000p-4, 0x1.6a8aa20000000p-3, -0x1.20d4420000000p-3, -0x1.61812c0000000p-3, -0x1.02fc380000000p-1, -0x1.a8f87a0000000p-2, -0x1.281e4a0000000p-1, 0x1.4587960000000p-3, 0x1.6ffc400000000p-3, 0x1.607fd40000000p-6, 0x1.448d220000000p-5, -0x1.cdff880000000p-2, 0x1.b21ffc0000000p-3, -0x1.54de080000000p-3, 0x1.0c5e360000000p-3, -0x1.71efec0000000p-3, 0x1.8c6ed20000000p-3, 0x1.60cf900000000p-5}
, {-0x1.027e420000000p-1, -0x1.377cf20000000p-2, -0x1.3637b80000000p-3, 0x1.246b320000000p-3, -0x1.89ec340000000p-2, -0x1.e9e1420000000p-3, -0x1.0f8a3c0000000p-1, -0x1.d814340000000p-4, -0x1.8559060000000p-1, -0x1.4f08680000000p-1, -0x1.7eba740000000p-1, -0x1.9af98c0000000p-2, 0x1.4d7ad40000000p-5, 0x1.94ad0a0000000p-4, 0x1.1d27b40000000p-3, -0x1.6dd69c0000000p-1, 0x1.7ccd1e0000000p-6, 0x1.d5a2800000000p-3, -0x1.0efe0c0000000p-1, -0x1.ab1bac0000000p-4, 0x1.f293a80000000p-5, -0x1.3b8b940000000p-5, 0x1.45be7e0000000p-3, 0x1.db0b540000000p-3, -0x1.3ff79c0000000p-2, 0x1.80f9220000000p-3, -0x1.7105660000000p-2, 0x1.af2ef40000000p-4, 0x1.08fc520000000p-2, 0x1.a8a9e00000000p-3, -0x1.39bf280000000p-1, 0x1.a4d1720000000p-3, 0x1.d5a76c0000000p-3, -0x1.45f1cc0000000p-5, 0x1.02c54c0000000p-2, -0x1.ba939e0000000p-2, 0x1.9bb3700000000p-5, 0x1.dca6b00000000p-3, 0x1.9a182c0000000p-6, 0x1.64fbee0000000p-3, 0x1.6816dc0000000p-5, -0x1.9b4e3c0000000p-1, -0x1.dccadc0000000p-4, -0x1.41e1bc0000000p-5, -0x1.f09d160000000p-3, -0x1.3332e60000000p-3, -0x1.e5bd320000000p-2, -0x1.ac51120000000p-3, -0x1.945b4c0000000p-3, -0x1.0a5d9c0000000p-5, 0x1.24ee4c0000000p-2, -0x1.086a320000000p-3, -0x1.2927900000000p-3, -0x1.35f7720000000p-1, 0x1.6050260000000p-2, -0x1.a6f35c0000000p-3, -0x1.cc645a0000000p-4, 0x1.0fd8280000000p-2, -0x1.7870660000000p-2, 0x1.69d3360000000p-3, -0x1.02f8c80000000p-2, 0x1.0679ee0000000p-6, -0x1.24f2340000000p-5, 0x1.d7d1e40000000p-3}
, {-0x1.3c90b80000000p-4, -0x1.369b800000000p-2, 0x1.859e600000000p-5, 0x1.add76c0000000p-4, -0x1.625b2e0000000p-3, -0x1.3c17120000000p-1, 0x1.10cd3e0000000p-3, -0x1.226d080000000p-4, -0x1.1231460000000p-5, 0x1.3fdace0000000p-3, -0x1.8d59860000000p-2, 0x1.6fb3c60000000p-4, -0x1.0ccdc60000000p-3, 0x1.11e6aa0000000p-3, 0x1.d28a700000000p-5, 0x1.33add40000000p-6, -0x1.9044960000000p-2, 0x1.06d0b60000000p-4, 0x1.ba78ae0000000p-3, -0x1.8bcd420000000p-3, -0x1.e46dee0000000p-3, -0x1.2745fa0000000p-3, -0x1.c306e80000000p-2, 0x1.1dbaa00000000p-3, 0x1.7f39860000000p-4, 0x1.d73b600000000p-4, -0x1.b2fc000000000p-7, -0x1.c439a20000000p-2, 0x1.4c294c0000000p-3, 0x1.ba66a60000000p-3, 0x1.41054e0000000p-3, -0x1.19339a0000000p-1, -0x1.a5450c0000000p-3, -0x1.4a6fdc0000000p-4, -0x1.91cba60000000p-2, 0x1.d35c660000000p-3, 0x1.a181c20000000p-4, 0x1.b6adc60000000p-3, -0x1.1378b20000000p-3, 0x1.979d200000000p-4, 0x1.36c63e0000000p-7, 0x1.9d8d100000000p-3, 0x1.d82dac0000000p-6, 0x1.cb35880000000p-3, -0x1.4628d00000000p-3, 0x1.d8771c0000000p-4, -0x1.564fc40000000p-1, -0x1.2fae460000000p-3, -0x1.068c800000000p-3, -0x1.278f080000000p-2, 0x1.dda42c0000000p-3, -0x1.d965360000000p-2, 0x1.98bfc80000000p-4, 0x1.5ce72a0000000p-4, 0x1.31393c0000000p-2, 0x1.01d98e0000000p-3, -0x1.348f480000000p-2, 0x1.57f8160000000p-3, 0x1.36e2760000000p-3, 0x1.a3b2960000000p-4, 0x1.4612260000000p-4, -0x1.5101080000000p-8, -0x1.9696920000000p-3, -0x1.0bb3340000000p-5}
, {-0x1.2e473a0000000p-1, -0x1.8f75be0000000p-3, -0x1.36366c0000000p-3, -0x1.ea60800000000p-2, -0x1.199baa0000000p-2, -0x1.e089a60000000p-2, -0x1.62452c0000000p-1, -0x1.00cdd60000000p-9, 0x1.76d2ae0000000p-5, -0x1.974c4e0000000p-2, 0x1.c0c9b80000000p-3, -0x1.5382280000000p-1, -0x1.36ad540000000p-6, -0x1.1689e20000000p-3, 0x1.558fb00000000p-3, 0x1.45e66c0000000p-3, -0x1.7d709a0000000p-2, -0x1.01684a0000000p-2, -0x1.53fb200000000p-2, 0x1.5268ac0000000p-6, 0x1.0fb6000000000p-2, 0x1.cb0aa60000000p-4, -0x1.3fa8000000000p-1, -0x1.1c68840000000p-1, 0x1.52481a0000000p-5, 0x1.8e67d20000000p-3, -0x1.36658c0000000p-3, -0x1.dfeda60000000p-2, -0x1.2a11e80000000p-1, 0x1.0001de0000000p-2, 0x1.03f55a0000000p-2, -0x1.e9dd540000000p-2, -0x1.33d8cc0000000p-1, 0x1.2a81bc0000000p-5, -0x1.b926760000000p-2, 0x1.ffb67c0000000p-3, 0x1.fa3b8a0000000p-4, 0x1.0c92a20000000p-2, -0x1.14a0d80000000p-4, -0x1.ecc7620000000p-3, -0x1.f36fbe0000000p-3, 0x1.f57f9a0000000p-3, -0x1.33c8f60000000p-4, -0x1.0babf40000000p-2, 0x1.c32ce40000000p-5, 0x1.6dc43e0000000p-3, -0x1.742bbe0000000p-2, -0x1.d2dfbe0000000p-1, -0x1.9352880000000p-3, 0x1.3c79480000000p-6, 0x1.4684280000000p-2, -0x1.3fe84c0000000p-1, 0x1.4e1fce0000000p-3, -0x1.3acd1c0000000p-1, -0x1.c981a40000000p-3, -0x1.d0b8640000000p-3, -0x1.a694d20000000p-2, 0x1.db48da0000000p-3, -0x1.30d58a0000000p-1, 0x1.aadddc0000000p-3, 0x1.e4af6e0000000p-7, 0x1.a889560000000p-3, -0x1.0f27f80000000p-3, 0x1.8be1740000000p-4}
, {-0x1.c937b00000000p-2, -0x1.e221d20000000p-3, -0x1.d62d780000000p-3, -0x1.4860fa0000000p-1, 0x1.eab7ae0000000p-6, -0x1.40ff1e0000000p-1, -0x1.558d760000000p-2, -0x1.15c3d60000000p-3, -0x1.552fe80000000p-1, 0x1.685d1e0000000p-4, 0x1.98dbca0000000p-3, -0x1.c3fb1a0000000p-3, 0x1.e86e080000000p-4, -0x1.e7d6c00000000p-5, 0x1.1fa4bc0000000p-3, -0x1.46371a0000000p-5, 0x1.156a420000000p-3, -0x1.ac51220000000p-3, -0x1.e55e6a0000000p-2, 0x1.4806640000000p-3, 0x1.244e400000000p-2, 0x1.bf3d060000000p-7, -0x1.3433f40000000p-3, 0x1.3b8ca60000000p-3, 0x1.fb03ca0000000p-4, 0x1.97d6860000000p-3, -0x1.cd9ab20000000p-3, -0x1.7163000000000p-1, 0x1.be74620000000p-3, -0x1.cdd9b80000000p-2, 0x1.203e7c0000000p-3, 0x1.2e338a0000000p-3, -0x1.16ae7c0000000p-1, 0x1.cd7a7c0000000p-3, -0x1.f3cc020000000p-2, 0x1.aa45d00000000p-3, 0x1.10d9440000000p-4, 0x1.e0b3fa0000000p-4, -0x1.1896cc0000000p-2, 0x1.24ea8c0000000p-3, -0x1.0802980000000p-9, -0x1.a92e220000000p-2, -0x1.b6659c0000000p-4, -0x1.4151080000000p-2, -0x1.23e4760000000p-3, -0x1.6dfd440000000p-3, -0x1.8a72360000000p-2, -0x1.3741100000000p-1, 0x1.6dca380000000p-4, -0x1.1c53580000000p-3, -0x1.3130ba0000000p-3, -0x1.265b7a0000000p-1, 0x1.419fa20000000p-3, -0x1.0747c60000000p-1, 0x1.4368ac0000000p-2, -0x1.9db47c0000000p-2, -0x1.9442980000000p-2, 0x1.de3b0c0000000p-3, 0x1.1e50d20000000p-3, 0x1.464c900000000p-3, 0x1.1c2d200000000p-3, -0x1.1e30f60000000p-7, -0x1.22a98a0000000p-8, 0x1.0a47900000000p-10}
, {0x1.17ec040000000p-2, 0x1.2348520000000p-5, 0x1.04e5340000000p-3, 0x1.4ee74e0000000p-3, -0x1.1715e20000000p-3, -0x1.125e940000000p-1, -0x1.6b2dce0000000p-2, -0x1.89eaa60000000p-7, -0x1.cb34b20000000p-2, 0x1.a7203a0000000p-4, -0x1.c48b320000000p-4, -0x1.2a9fb00000000p-1, 0x1.72e00c0000000p-3, 0x1.1454520000000p-3, -0x1.84a79e0000000p-2, -0x1.853cc80000000p-1, 0x1.75576a0000000p-3, 0x1.cddbbc0000000p-3, -0x1.a0e0080000000p-1, -0x1.d2680a0000000p-3, -0x1.432a180000000p-1, -0x1.0036040000000p-4, -0x1.b3eb000000000p-2, -0x1.a8e2a00000000p-3, 0x1.ac56e60000000p-3, -0x1.970c2a0000000p-2, 0x1.34eaa40000000p-2, -0x1.7ac3c40000000p-1, -0x1.0e77b80000000p-1, 0x1.0628c20000000p-2, -0x1.a6b5f40000000p-1, -0x1.0aa6f80000000p-2, 0x1.42554c0000000p-2, 0x1.6ffb6a0000000p-5, -0x1.cf5da60000000p-3, -0x1.b5b43c0000000p-5, -0x1.28eed00000000p-1, 0x1.75a5ec0000000p-5, -0x1.ee78540000000p-6, 0x1.809aa80000000p-3, 0x1.2ec2ca0000000p-5, -0x1.74c1c40000000p-1, 0x1.ccf16c0000000p-4, 0x1.4c4fd80000000p-2, 0x1.bf850c0000000p-3, -0x1.af048c0000000p-4, 0x1.08289a0000000p-2, 0x1.56801e0000000p-2, -0x1.6619640000000p-4, 0x1.08de4c0000000p-2, -0x1.57c3b60000000p-3, -0x1.33a7300000000p-1, -0x1.951c6a0000000p-2, -0x1.1904160000000p-1, -0x1.1511300000000p-2, 0x1.c014c40000000p-3, -0x1.5e92240000000p-2, -0x1.20aea60000000p-1, -0x1.ba001c0000000p-2, -0x1.6f8ad00000000p-1, 0x1.5280c20000000p-3, 0x1.b3f8440000000p-5, -0x1.618f440000000p-3, 0x1.4ea2cc0000000p-3}
, {-0x1.1ef0f80000000p-2, -0x1.4cace60000000p-3, -0x1.d12be00000000p-3, -0x1.07cea40000000p-2, -0x1.02a3b00000000p-1, -0x1.882b460000000p-1, 0x1.d58fae0000000p-3, -0x1.f108ce0000000p-3, -0x1.6fbfc40000000p-1, -0x1.3350dc0000000p-1, 0x1.03bbea0000000p-2, -0x1.27b8e80000000p-1, 0x1.b17f200000000p-5, -0x1.a0bf660000000p-4, -0x1.df67f80000000p-2, -0x1.955ab80000000p-1, -0x1.baf2400000000p-2, -0x1.46ba080000000p-3, -0x1.184b9c0000000p+0, -0x1.2585e60000000p-3, -0x1.8011320000000p-1, -0x1.9206f00000000p-3, -0x1.3bf2820000000p-1, -0x1.3545600000000p-1, 0x1.8e4ca00000000p-3, 0x1.c1cf280000000p-3, -0x1.69370c0000000p-3, -0x1.8f07800000000p-1, -0x1.148a900000000p-1, -0x1.6c2fbe0000000p-2, -0x1.6681d20000000p-1, 0x1.aa47d20000000p-3, 0x1.134f820000000p-2, -0x1.4d3cf80000000p-3, -0x1.2828740000000p-1, 0x1.56a0c40000000p-2, 0x1.59a1e60000000p-5, -0x1.1ef2340000000p-1, 0x1.a04d780000000p-4, 0x1.aa482e0000000p-3, 0x1.1ab6aa0000000p-5, -0x1.633e1e0000000p-1, -0x1.f419960000000p-3, 0x1.2fd4ac0000000p-2, 0x1.435fc40000000p-3, 0x1.077aba0000000p-2, -0x1.f7caa80000000p-3, 0x1.0716c00000000p-2, -0x1.9ae9280000000p-3, 0x1.0c7ce20000000p-6, 0x1.4696060000000p-2, -0x1.ff6d540000000p-1, -0x1.77a6640000000p-1, -0x1.e695640000000p-1, -0x1.e685660000000p-3, 0x1.00415c0000000p-2, 0x1.3c18fc0000000p-8, -0x1.6be0420000000p-2, 0x1.ddbfb40000000p-3, -0x1.85906e0000000p-1, -0x1.81ecf80000000p-4, 0x1.e3c66a0000000p-3, 0x1.45b4ce0000000p-3, 0x1.c142e60000000p-4}
, {-0x1.4fc0340000000p-9, -0x1.dedde40000000p-5, 0x1.1fdc540000000p-6, -0x1.22f6d00000000p-1, 0x1.02bd960000000p-3, 0x1.e66b040000000p-5, 0x1.8996880000000p-3, 0x1.9020040000000p-3, -0x1.7508960000000p-1, -0x1.278a500000000p-1, -0x1.44f95a0000000p-1, 0x1.a11a940000000p-3, -0x1.8c81f20000000p-3, -0x1.77e7120000000p-5, -0x1.bb24ba0000000p-1, -0x1.0eb0200000000p-1, -0x1.be9cf60000000p-3, 0x1.853b440000000p-3, -0x1.8a823e0000000p-1, -0x1.b9223a0000000p-6, 0x1.375ba80000000p-2, 0x1.f35d720000000p-5, 0x1.29c7680000000p-2, -0x1.4b54760000000p-2, -0x1.b2a6c60000000p-2, 0x1.f0d3180000000p-3, 0x1.75592a0000000p-3, 0x1.59b5ee0000000p-3, -0x1.1c3f4a0000000p-1, -0x1.37291a0000000p-1, -0x1.0274a40000000p-1, 0x1.7b20640000000p-3, 0x1.4c2d300000000p-3, -0x1.07c9780000000p-4, -0x1.1473be0000000p-1, 0x1.104be00000000p-2, -0x1.087fae0000000p-1, 0x1.115e120000000p-2, 0x1.f0cbca0000000p-5, -0x1.0f17980000000p-1, -0x1.1a9dbc0000000p-5, 0x1.da48f00000000p-3, 0x1.5ebd740000000p-8, 0x1.092cb00000000p-2, 0x1.2aecb40000000p-3, 0x1.88df0a0000000p-4, -0x1.2b8aa80000000p-1, -0x1.1644380000000p-1, 0x1.60b5a80000000p-6, 0x1.3ed5ee0000000p-2, -0x1.4076a20000000p-1, 0x1.3e7ff80000000p-3, -0x1.502bfe0000000p-4, -0x1.c5661e0000000p-2, -0x1.7e74fc0000000p-1, -0x1.4d99d20000000p-3, -0x1.38fb260000000p-3, 0x1.0d94d20000000p-2, -0x1.45fa8a0000000p-5, 0x1.702ca00000000p-3, -0x1.9cf6de0000000p-3, -0x1.3e3c3c0000000p-7, 0x1.e165d20000000p-3, -0x1.4f4e0a0000000p-3}
, {-0x1.5a77220000000p-4, -0x1.0356600000000p-2, 0x1.e513380000000p-3, -0x1.86b1980000000p-1, -0x1.06b00e0000000p-1, 0x1.ba83600000000p-3, -0x1.99f8420000000p-1, -0x1.4d7de40000000p-6, -0x1.226a360000000p-8, -0x1.d25d420000000p-3, -0x1.4e5bfe0000000p-2, 0x1.d0e9ec0000000p-3, -0x1.b2333a0000000p-6, -0x1.a8ef5e0000000p-3, 0x1.916d1c0000000p-3, -0x1.5d374c0000000p-1, -0x1.5f23900000000p-2, -0x1.7c84d20000000p-4, -0x1.cceb0a0000000p-2, 0x1.9e59a20000000p-4, -0x1.1d10ec0000000p-1, -0x1.f2d9540000000p-4, 0x1.14fbf20000000p-2, -0x1.a59a140000000p-3, -0x1.267c6e0000000p-2, -0x1.15edea0000000p-1, 0x1.0b25f40000000p-3, 0x1.6aa1140000000p-3, 0x1.fec6300000000p-3, -0x1.3728b80000000p-1, -0x1.088e740000000p-1, 0x1.06293a0000000p-2, -0x1.085b180000000p-1, -0x1.8189b40000000p-3, -0x1.12f8720000000p-2, -0x1.49b98a0000000p-1, -0x1.35407a0000000p-1, -0x1.21bc8a0000000p-3, 0x1.be7cb00000000p-3, 0x1.6dd49e0000000p-3, -0x1.1847520000000p-3, -0x1.0301680000000p-1, 0x1.c350620000000p-4, -0x1.8247a20000000p-2, -0x1.6ff6dc0000000p-3, 0x1.5bec740000000p-3, -0x1.7bd1dc0000000p-3, 0x1.1650720000000p-2, -0x1.913df80000000p-3, -0x1.0e2c0e0000000p-3, 0x1.532b800000000p-2, 0x1.323ca60000000p-3, -0x1.0ab9500000000p-3, -0x1.9a125e0000000p-2, -0x1.54c37c0000000p-3, -0x1.2db4e00000000p-1, 0x1.01c6c20000000p-2, -0x1.a57d800000000p-2, -0x1.23d63c0000000p-1, -0x1.6552ba0000000p-2, -0x1.99b0840000000p-4, 0x1.fc99560000000p-5, 0x1.ad6a260000000p-5, -0x1.200b740000000p-5}
, {0x1.5a35000000000p-6, -0x1.bac1080000000p-4, -0x1.a021600000000p-4, -0x1.3caf040000000p-2, 0x1.06b56a0000000p-3, 0x1.be96a80000000p-3, -0x1.1c99f60000000p-1, 0x1.9a2fb00000000p-3, 0x1.09016c0000000p-3, 0x1.3f9dd00000000p-2, -0x1.c81d780000000p-2, -0x1.2a7f300000000p-2, 0x1.059c420000000p-4, 0x1.1ac7020000000p-6, -0x1.1a19d60000000p-2, -0x1.4348740000000p-2, 0x1.03aae60000000p-3, 0x1.b816760000000p-3, -0x1.b317e40000000p-2, 0x1.c6505c0000000p-4, -0x1.33b1820000000p-1, -0x1.6809600000000p-3, -0x1.f462ee0000000p-2, -0x1.a09a680000000p-4, -0x1.06566a0000000p-1, -0x1.0c045a0000000p-1, 0x1.09384a0000000p-2, -0x1.7ae09a0000000p-2, -0x1.a1f2d00000000p-1, -0x1.465a980000000p-3, 0x1.ba51b40000000p-3, -0x1.11a4f20000000p-1, 0x1.03d0e20000000p-3, 0x1.5e31f20000000p-3, 0x1.22ad060000000p-2, -0x1.0d23820000000p-1, -0x1.cefb500000000p-1, 0x1.b167c20000000p-3, -0x1.493a2c0000000p-6, -0x1.223c2c0000000p-1, -0x1.28aa6e0000000p-5, 0x1.a904b60000000p-3, 0x1.b545520000000p-3, 0x1.c466c00000000p-3, 0x1.db8cde0000000p-3, 0x1.9e96960000000p-7, 0x1.10838c0000000p-6, -0x1.aee5e40000000p-2, 0x1.3f2abc0000000p-3, -0x1.4c870e0000000p-3, -0x1.cd06ba0000000p-3, -0x1.9d92700000000p-2, -0x1.7abdfc0000000p-2, 0x1.79d62e0000000p-3, -0x1.9d0bf60000000p-2, 0x1.14ed3c0000000p-4, -0x1.cc162a0000000p-5, -0x1.6eb74c0000000p-2, -0x1.038f560000000p-2, 0x1.9389d00000000p-3, -0x1.5c76220000000p-3, -0x1.9f62600000000p-5, 0x1.fccea40000000p-5, 0x1.cefb080000000p-3}
, {0x1.3cc7120000000p-2, -0x1.1b3a360000000p-2, -0x1.e1328a0000000p-4, -0x1.9a47240000000p-2, -0x1.51ff820000000p-2, -0x1.6ed6640000000p-2, -0x1.4b69780000000p-1, -0x1.01806a0000000p-3, 0x1.79a2c80000000p-4, 0x1.afcc060000000p-5, 0x1.e5d8400000000p-3, 0x1.c2f8f00000000p-3, -0x1.bf77a00000000p-4, -0x1.adf8ec0000000p-4, 0x1.06f9540000000p-3, -0x1.f34e980000000p-2, 0x1.eae82a0000000p-4, 0x1.f94e100000000p-4, 0x1.27007a0000000p-2, 0x1.c6f76a0000000p-3, -0x1.6869a20000000p-1, -0x1.c6c16e0000000p-4, -0x1.15988e0000000p-4, -0x1.d4d5b40000000p-5, -0x1.8002aa0000000p-2, 0x1.08d4860000000p-3, -0x1.8f47620000000p-5, -0x1.38d3ae0000000p-2, -0x1.657c9e0000000p-3, -0x1.9df4640000000p-1, -0x1.a376940000000p-2, -0x1.18a0340000000p-1, -0x1.bd1e180000000p-2, 0x1.2122f40000000p-5, 0x1.e9292c0000000p-3, -0x1.4ac28a0000000p-1, -0x1.c0c2940000000p-1, 0x1.8219940000000p-3, 0x1.455e120000000p-5, -0x1.05a3720000000p-3, 0x1.df55080000000p-3, -0x1.6832fc0000000p-1, 0x1.e4f5280000000p-3, -0x1.3b2e880000000p-2, 0x1.14def00000000p-8, 0x1.4d99c80000000p-3, 0x1.4ec2b20000000p-3, -0x1.121b280000000p-2, -0x1.5faf780000000p-3, -0x1.02f8300000000p-3, -0x1.fd200e0000000p-3, 0x1.ce15340000000p-4, 0x1.9133c80000000p-3, 0x1.b4a9a40000000p-3, 0x1.bbca680000000p-4, -0x1.1587240000000p-1, 0x1.9d3fdc0000000p-3, -0x1.33338e0000000p-2, 0x1.5d8ec60000000p-3, -0x1.993aa20000000p-1, -0x1.99f5280000000p-5, -0x1.9539900000000p-4, -0x1.02997e0000000p-2, -0x1.aef51e0000000p-3}
, {-0x1.38a57a0000000p-2, 0x1.31e98c0000000p-3, 0x1.e3f9e60000000p-5, -0x1.1bcc3c0000000p-1, -0x1.e4d8480000000p-2, 0x1.1039c40000000p-2, -0x1.4e32c40000000p-2, -0x1.26e7040000000p-3, 0x1.422a060000000p-3, 0x1.5095040000000p-2, -0x1.17fb180000000p-2, -0x1.a764560000000p-3, -0x1.1af7d20000000p-4, -0x1.e9624e0000000p-3, 0x1.ad43fe0000000p-3, 0x1.0aeee40000000p-5, -0x1.0ac6860000000p+0, -0x1.936f100000000p-4, -0x1.1c7a420000000p-2, 0x1.5a65ac0000000p-6, -0x1.086a920000000p-1, -0x1.49da4e0000000p-5, -0x1.ba052e0000000p-2, -0x1.15b4260000000p-1, -0x1.fdbaa00000000p-2, -0x1.3b87860000000p-1, -0x1.b64afe0000000p-2, 0x1.1a27980000000p-5, -0x1.09d5580000000p+0, -0x1.3bd28a0000000p-1, 0x1.1cc6f60000000p-2, -0x1.b3dc720000000p-2, -0x1.d34afa0000000p-2, -0x1.396c360000000p-3, 0x1.e187aa0000000p-3, -0x1.1e71fa0000000p-1, -0x1.d14ce60000000p-2, -0x1.09ccbc0000000p-1, -0x1.3166ca0000000p-4, -0x1.fdc44e0000000p-3, -0x1.21b0020000000p-3, -0x1.2bd07c0000000p-1, -0x1.5e69b60000000p-3, -0x1.51ce100000000p-10, 0x1.68de5e0000000p-4, 0x1.4cc2cc0000000p-3, -0x1.ed15260000000p-3, -0x1.261e6a0000000p-1, -0x1.0464ee0000000p-7, -0x1.41df8a0000000p-4, 0x1.add3dc0000000p-3, -0x1.9516300000000p-2, 0x1.d83e9e0000000p-3, -0x1.766ab60000000p-2, -0x1.bba3e20000000p-2, -0x1.0a69fc0000000p-1, -0x1.adbdba0000000p-6, -0x1.4bfad80000000p-3, -0x1.14cf220000000p-1, 0x1.038f680000000p-2, 0x1.9c2df20000000p-3, -0x1.be620c0000000p-3, -0x1.ba981e0000000p-7, 0x1.660bd80000000p-3}
, {0x1.d4d79a0000000p-4, 0x1.085d720000000p-4, 0x1.66afbc0000000p-3, -0x1.0bd7ba0000000p-1, -0x1.3a5ce80000000p-3, -0x1.65be8e0000000p-6, -0x1.fc9eea0000000p-2, -0x1.5d74ec0000000p-4, 0x1.5eacfe0000000p-3, 0x1.20a0fc0000000p-2, 0x1.e7a7f60000000p-3, 0x1.633ce20000000p-3, -0x1.d6463c0000000p-3, -0x1.8cccb80000000p-3, -0x1.1fc45a0000000p-2, 0x1.35d2800000000p-5, -0x1.2870d00000000p-3, 0x1.bebd5c0000000p-3, 0x1.30a6fc0000000p-2, 0x1.c90ed40000000p-3, -0x1.9d8a0a0000000p-1, -0x1.ae5a9a0000000p-3, -0x1.2a35160000000p-1, -0x1.4fd6a60000000p-2, -0x1.6f6d4c0000000p-2, -0x1.2dece00000000p-1, 0x1.20ff880000000p-3, -0x1.ac4a060000000p-3, -0x1.f412fe0000000p-2, -0x1.0693380000000p-1, 0x1.198a040000000p-2, -0x1.e1d3b40000000p-2, -0x1.0dc83c0000000p-1, -0x1.67bc9a0000000p-3, -0x1.cccf620000000p-3, -0x1.5187240000000p-1, -0x1.2f62f80000000p-1, -0x1.14e6b80000000p-1, -0x1.626f1a0000000p-3, -0x1.95e9d40000000p-5, -0x1.9aac8c0000000p-3, 0x1.b086a60000000p-3, 0x1.d5bc460000000p-4, -0x1.923da20000000p-2, -0x1.527bf20000000p-3, 0x1.91f4080000000p-4, 0x1.1f481e0000000p-2, -0x1.0eba080000000p-1, 0x1.ec8d420000000p-6, -0x1.04d7fa0000000p-3, -0x1.3aa9020000000p-1, -0x1.cb7ace0000000p-2, 0x1.8a63660000000p-3, 0x1.a2a5d80000000p-3, -0x1.51bd3a0000000p-1, -0x1.a7f1100000000p-6, 0x1.16acca0000000p-3, -0x1.525b100000000p-1, 0x1.cac7800000000p-3, -0x1.8a9bec0000000p-2, 0x1.b860c80000000p-4, 0x1.14a6020000000p-4, -0x1.5794420000000p-3, 0x1.c294f80000000p-3}
, {-0x1.ae9cb40000000p-2, -0x1.97a7320000000p-4, -0x1.39f1740000000p-3, -0x1.9d34a80000000p-2, -0x1.79c05a0000000p-2, 0x1.ab12440000000p-4, -0x1.8672ec0000000p-5, 0x1.7cf3fe0000000p-5, 0x1.51c06c0000000p-3, -0x1.0cbd060000000p-1, 0x1.34dfba0000000p-2, 0x1.1ef60c0000000p-2, -0x1.55a45c0000000p-3, -0x1.39944a0000000p-3, 0x1.856e320000000p-3, -0x1.3ea0e60000000p-1, -0x1.c72b0e0000000p-1, 0x1.b91ff40000000p-3, 0x1.435eac0000000p-2, -0x1.2fad4e0000000p-3, -0x1.478f2a0000000p-1, 0x1.919bf40000000p-4, -0x1.8a17b20000000p-3, -0x1.0005640000000p+0, -0x1.0f516e0000000p-1, -0x1.1199c20000000p-4, -0x1.bf76040000000p-2, -0x1.ee3aec0000000p-2, -0x1.e9b92a0000000p-2, -0x1.9a5c620000000p-1, -0x1.7d2d920000000p-2, -0x1.82c1fa0000000p-2, -0x1.05cacc0000000p-1, 0x1.7a90140000000p-3, -0x1.4f71c20000000p-6, -0x1.767aa00000000p-2, -0x1.9707820000000p-5, -0x1.de00520000000p-5, -0x1.821e0c0000000p-3, -0x1.6eae320000000p-2, -0x1.128d9c0000000p-3, -0x1.112d9e0000000p-1, -0x1.1b934e0000000p-3, -0x1.1678bc0000000p-1, -0x1.4a88d40000000p-4, -0x1.0c63d00000000p-2, 0x1.f2b3d40000000p-3, -0x1.041c880000000p-2, 0x1.166d3e0000000p-3, -0x1.8046ce0000000p-3, 0x1.5135500000000p-2, 0x1.f42b2c0000000p-3, -0x1.ed2f280000000p-2, -0x1.0b26e40000000p-1, -0x1.6e98060000000p-1, -0x1.2648040000000p-1, -0x1.08756a0000000p-2, -0x1.2703cc0000000p-1, -0x1.63e0ac0000000p-3, 0x1.c61f440000000p-4, 0x1.2cea540000000p-3, -0x1.a433560000000p-6, 0x1.7f9b360000000p-5, 0x1.ecaf580000000p-4}
, {-0x1.3172b80000000p-2, 0x1.5ab8880000000p-7, 0x1.990b720000000p-4, -0x1.f1a3680000000p-2, -0x1.17eb8e0000000p-2, -0x1.8e2a760000000p-4, -0x1.effda80000000p-6, 0x1.82107e0000000p-4, 0x1.fed0160000000p-4, -0x1.db22920000000p-3, 0x1.30268a0000000p-2, -0x1.1da8020000000p-2, 0x1.ba25b80000000p-4, -0x1.ce5e4a0000000p-3, 0x1.1fb2560000000p-3, -0x1.2c52520000000p-1, -0x1.a67fdc0000000p-1, 0x1.4393fe0000000p-3, -0x1.8684540000000p-2, -0x1.f0ee600000000p-5, -0x1.ab54700000000p-2, -0x1.0323060000000p-3, -0x1.ca66c80000000p-2, -0x1.c453c80000000p-1, -0x1.2478600000000p-1, -0x1.24661c0000000p-1, -0x1.00bd7e0000000p-2, -0x1.4acd5a0000000p-2, -0x1.1572d80000000p-2, -0x1.2e91e40000000p-1, 0x1.f7c9380000000p-3, 0x1.0a8fce0000000p-2, -0x1.a037b80000000p-3, -0x1.24c59a0000000p-4, 0x1.9426e80000000p-3, -0x1.042e200000000p-2, 0x1.c9e0fa0000000p-5, -0x1.1dda1c0000000p-1, -0x1.1fa64e0000000p-4, 0x1.1f6a5a0000000p-3, 0x1.5043d00000000p-3, -0x1.eec8180000000p-2, 0x1.5b1eac0000000p-3, 0x1.f68d820000000p-4, -0x1.92e39e0000000p-4, -0x1.6775e40000000p-3, 0x1.1968f60000000p-2, -0x1.18512e0000000p-3, -0x1.c5a5e80000000p-3, -0x1.0b68fa0000000p-4, -0x1.7302b60000000p-2, -0x1.14a53c0000000p-2, -0x1.261f860000000p-2, 0x1.d9f6b80000000p-3, -0x1.0be8e20000000p-1, -0x1.4f224e0000000p-2, 0x1.4ca6820000000p-3, -0x1.606cbc0000000p-1, 0x1.2e17140000000p-2, -0x1.a080320000000p-2, -0x1.be0e5a0000000p-3, -0x1.63386a0000000p-3, -0x1.e44e180000000p-3, -0x1.1655f00000000p-3}
, {0x1.2b323e0000000p-2, 0x1.be5e5a0000000p-4, 0x1.9d5ed20000000p-3, -0x1.0125e60000000p-3, -0x1.efc89a0000000p-3, 0x1.9ee5e60000000p-3, -0x1.899f0a0000000p-1, -0x1.9f3f2a0000000p-4, 0x1.3ca5080000000p-3, 0x1.27b3240000000p-2, 0x1.e9a9480000000p-3, -0x1.d4a2f80000000p-3, -0x1.13bb960000000p-3, 0x1.a8a12e0000000p-3, 0x1.db7eb60000000p-4, -0x1.7e95b20000000p-2, -0x1.53725e0000000p-1, 0x1.009ddc0000000p-4, 0x1.dc97980000000p-3, 0x1.714b640000000p-3, -0x1.09365c0000000p-1, 0x1.67908e0000000p-3, -0x1.2c36d60000000p-1, 0x1.b2f4340000000p-7, -0x1.917e540000000p-3, -0x1.667dfa0000000p-1, 0x1.25d8560000000p-3, -0x1.9da6280000000p-4, -0x1.912f6e0000000p-2, -0x1.ab1f840000000p-2, 0x1.26f0880000000p-2, 0x1.180aa20000000p-3, 0x1.9be7ac0000000p-3, -0x1.4a49c00000000p-5, -0x1.b4efbe0000000p-2, -0x1.f4be880000000p-1, -0x1.5ca9640000000p-1, -0x1.e6af640000000p-1, -0x1.21537a0000000p-3, -0x1.7e92d00000000p-3, 0x1.48587c0000000p-3, -0x1.870de80000000p-1, -0x1.f8b6ee0000000p-6, -0x1.1cf8480000000p-2, -0x1.d2d8e40000000p-4, -0x1.805a440000000p-3, 0x1.d7966e0000000p-3, 0x1.a2a6520000000p-3, 0x1.87b4cc0000000p-4, -0x1.679c440000000p-3, -0x1.89bb6c0000000p-2, -0x1.5c16ec0000000p-2, 0x1.53816e0000000p-3, -0x1.eb9c640000000p-2, 0x1.65d8c40000000p-2, -0x1.c58d120000000p-2, -0x1.3fe2ac0000000p-3, -0x1.7f08120000000p-1, -0x1.9b8c540000000p-4, 0x1.d7eade0000000p-3, -0x1.5bf9900000000p-10, -0x1.81d4440000000p-5, -0x1.f372140000000p-5, -0x1.83f03e0000000p-3}
, {-0x1.ea7aa00000000p-2, -0x1.13d41c0000000p-5, -0x1.4c46280000000p-3, -0x1.6f637a0000000p-1, -0x1.56ac3a0000000p-2, 0x1.8eb5d60000000p-3, -0x1.2ba9200000000p-1, 0x1.7598e60000000p-3, 0x1.8a16340000000p-4, 0x1.c4d7900000000p-3, 0x1.09fe1a0000000p-2, 0x1.dff3f00000000p-3, 0x1.fee6e40000000p-6, -0x1.e641200000000p-4, 0x1.a382520000000p-3, -0x1.5930200000000p-1, -0x1.43103e0000000p-2, -0x1.250e940000000p-3, -0x1.91d6880000000p-2, -0x1.1607020000000p-3, -0x1.0395060000000p-1, 0x1.04918e0000000p-4, 0x1.d0608c0000000p-3, -0x1.60e7940000000p-4, -0x1.a8da880000000p-1, -0x1.0bda0e0000000p-1, 0x1.bb75380000000p-4, -0x1.0ff8600000000p-2, 0x1.9ccfdc0000000p-3, -0x1.de0cd40000000p-2, -0x1.261f3c0000000p-1, 0x1.fcdc0e0000000p-3, -0x1.a6d6e80000000p-1, -0x1.eea5180000000p-6, -0x1.3159fc0000000p-1, 0x1.5dffae0000000p-4, -0x1.602f100000000p-1, 0x1.641e660000000p-3, 0x1.23a0ac0000000p-3, -0x1.e9ad260000000p-2, 0x1.c0008c0000000p-4, -0x1.1e6cac0000000p-3, 0x1.3d7f940000000p-3, -0x1.03eb3e0000000p-2, -0x1.0012580000000p-2, -0x1.291d660000000p-5, -0x1.9124b40000000p-2, 0x1.365bd60000000p-4, -0x1.c3c9880000000p-6, -0x1.d7b3ae0000000p-4, 0x1.3259740000000p-2, -0x1.1551b60000000p-2, 0x1.584cd60000000p-3, -0x1.31a96a0000000p-2, -0x1.4b8ef00000000p-1, -0x1.0553040000000p-1, -0x1.9d38560000000p-3, -0x1.3211480000000p-1, 0x1.1ab10e0000000p-2, 0x1.731d360000000p-3, -0x1.859a780000000p-4, -0x1.b52ad40000000p-7, -0x1.190b960000000p-3, -0x1.8144d20000000p-4}
, {0x1.1ca2300000000p-2, -0x1.cb2d4a0000000p-6, 0x1.14999a0000000p-7, -0x1.6152ae0000000p-1, -0x1.ad29660000000p-2, 0x1.23db5c0000000p-3, -0x1.2309400000000p-1, -0x1.e8fe8a0000000p-4, 0x1.5dc44c0000000p-3, -0x1.b8ca720000000p-2, 0x1.49291e0000000p-2, -0x1.342dd20000000p-2, -0x1.66fb080000000p-5, -0x1.4773b40000000p-5, -0x1.cbd2ea0000000p-2, -0x1.6033d60000000p-1, -0x1.3c85960000000p-1, -0x1.c1f0000000000p-3, -0x1.b93c900000000p-1, 0x1.28fa6a0000000p-4, -0x1.23fbf00000000p-2, -0x1.9f6be40000000p-3, -0x1.452f900000000p-2, -0x1.1a0f980000000p-1, -0x1.41341e0000000p-1, -0x1.70e8940000000p-1, -0x1.c2c3c60000000p-3, -0x1.0f02de0000000p-1, -0x1.e0f1e60000000p-2, -0x1.6b5c1a0000000p-1, -0x1.4951d60000000p-1, 0x1.22d60a0000000p-2, 0x1.16fd8a0000000p-2, 0x1.2d05580000000p-3, 0x1.5b9b680000000p-2, -0x1.0b1dc80000000p-1, -0x1.7ba7b20000000p-1, -0x1.02f9be0000000p-1, 0x1.937f0e0000000p-4, -0x1.764d0e0000000p-2, -0x1.1674da0000000p-3, -0x1.25ad500000000p-1, 0x1.a567c00000000p-3, -0x1.6d387a0000000p-2, -0x1.4206f60000000p-3, -0x1.5b848a0000000p-6, 0x1.36f19c0000000p-2, 0x1.49e49e0000000p-2, 0x1.421c7c0000000p-5, 0x1.8471420000000p-4, -0x1.e6b3dc0000000p-2, 0x1.a0c47e0000000p-3, -0x1.30997c0000000p-1, -0x1.15c2fc0000000p-5, -0x1.50f1400000000p-1, -0x1.89c2f40000000p-3, -0x1.4860a20000000p-2, -0x1.2cf3020000000p-1, 0x1.3832e00000000p-2, -0x1.7974460000000p-2, -0x1.af4fbc0000000p-3, 0x1.6993c40000000p-3, 0x1.f9d24e0000000p-3, -0x1.bab3140000000p-3}
, {0x1.2fb9f00000000p-2, -0x1.0c4fdc0000000p-2, 0x1.f2d11e0000000p-7, -0x1.92fe9c0000000p-2, -0x1.8706440000000p-2, -0x1.8b59ea0000000p-2, 0x1.7b028e0000000p-3, 0x1.70878e0000000p-3, 0x1.2443ac0000000p-3, -0x1.4301740000000p-1, -0x1.3f54b40000000p-2, 0x1.e4cc260000000p-3, -0x1.11fdc00000000p-3, 0x1.6fbcd00000000p-3, 0x1.38aa060000000p-6, -0x1.3de6560000000p-1, -0x1.4191ba0000000p-1, -0x1.aea1b40000000p-6, -0x1.92ff7e0000000p-3, 0x1.f00f300000000p-3, -0x1.5963880000000p-2, 0x1.b463ac0000000p-3, 0x1.0be7700000000p-2, -0x1.bd85a40000000p-1, -0x1.040dde0000000p-1, 0x1.6fb3740000000p-3, -0x1.0ccffa0000000p-2, -0x1.37dc9a0000000p-2, -0x1.6ebf900000000p-1, -0x1.d983b60000000p-2, 0x1.01ff620000000p-2, -0x1.21b1f60000000p-1, 0x1.c6fef40000000p-3, -0x1.8144880000000p-4, 0x1.29dffa0000000p-2, -0x1.1c9ec60000000p-1, -0x1.5fbdce0000000p-5, -0x1.085bc40000000p-2, -0x1.b49f0a0000000p-3, -0x1.0151620000000p-1, -0x1.1889460000000p-4, -0x1.df23de0000000p-2, 0x1.9f61980000000p-4, -0x1.f6f3b60000000p-3, 0x1.daa1120000000p-6, 0x1.262ddc0000000p-6, 0x1.07abc80000000p-2, 0x1.0c494c0000000p-2, 0x1.1a0f740000000p-4, 0x1.5ae89a0000000p-6, 0x1.2175680000000p-2, 0x1.ac95900000000p-5, 0x1.961cfe0000000p-3, -0x1.07fde60000000p-1, -0x1.49a8fc0000000p-3, -0x1.fa58960000000p-2, 0x1.ec1e340000000p-5, -0x1.0bd8020000000p-2, 0x1.d654900000000p-3, -0x1.039cf20000000p-1, -0x1.0677720000000p-2, -0x1.27b6580000000p-3, 0x1.da03940000000p-4, -0x1.f4ad900000000p-3}
, {-0x1.c9590e0000000p-2, -0x1.2f5e3e0000000p-2, 0x1.6741c00000000p-6, -0x1.75d18e0000000p-2, -0x1.478b960000000p-4, 0x1.0ee4cc0000000p-4, 0x1.8b9efc0000000p-3, -0x1.9ef0940000000p-3, -0x1.580be00000000p-1, -0x1.03c6460000000p-1, -0x1.944fa60000000p-1, -0x1.d6c8340000000p-2, -0x1.e69ba00000000p-6, 0x1.af46aa0000000p-7, -0x1.12e5180000000p-1, 0x1.73414e0000000p-3, 0x1.51f9880000000p-3, -0x1.b3c0180000000p-3, 0x1.1619660000000p-2, 0x1.8af46c0000000p-4, 0x1.0d29160000000p-2, -0x1.c5faea0000000p-4, 0x1.e4be360000000p-3, 0x1.f7a42a0000000p-3, -0x1.639f620000000p-3, 0x1.7b814c0000000p-3, -0x1.91492c0000000p-2, 0x1.bf2d840000000p-3, 0x1.178c3e0000000p-2, -0x1.74a6b80000000p-2, 0x1.6ef8180000000p-10, -0x1.66fbae0000000p-2, 0x1.d690b80000000p-3, -0x1.d000f40000000p-4, -0x1.d1ab720000000p-5, -0x1.37fe800000000p-1, -0x1.35c93c0000000p-1, 0x1.17b5ac0000000p-2, 0x1.4eb2e40000000p-5, -0x1.0ba8440000000p-1, -0x1.17cc740000000p-6, -0x1.2568800000000p-2, 0x1.2cbba20000000p-6, -0x1.c842840000000p-3, -0x1.02bfb40000000p-2, -0x1.d0d9280000000p-3, -0x1.2ab9260000000p-1, -0x1.68fba00000000p-4, -0x1.660abe0000000p-4, -0x1.98b3660000000p-2, -0x1.4a47d00000000p-1, -0x1.a1ee9e0000000p-4, -0x1.74493a0000000p-1, 0x1.b52b6e0000000p-3, 0x1.3952640000000p-2, -0x1.c55f360000000p-1, -0x1.4fc0660000000p-4, -0x1.abb5ba0000000p-2, -0x1.0222a80000000p-1, -0x1.31b3440000000p-1, -0x1.b07d0e0000000p-3, 0x1.e967a60000000p-3, -0x1.de41600000000p-4, 0x1.d5ea780000000p-3}
, {-0x1.827c940000000p-2, 0x1.63abec0000000p-9, -0x1.03f2dc0000000p-8, -0x1.4ee2860000000p-1, 0x1.1e5f880000000p-3, 0x1.e3f0d00000000p-3, -0x1.1841600000000p-2, 0x1.50236a0000000p-4, -0x1.c6a64c0000000p-1, 0x1.0a49fa0000000p-7, -0x1.d522760000000p-1, -0x1.f3cb4c0000000p-1, 0x1.dfcd520000000p-3, 0x1.38ad8a0000000p-3, -0x1.4f39e40000000p-2, 0x1.a927c20000000p-3, 0x1.3b84080000000p-4, 0x1.859e840000000p-4, -0x1.7908440000000p-3, 0x1.38b4460000000p-5, -0x1.27686c0000000p-3, -0x1.1a2d740000000p-3, -0x1.211a1a0000000p-3, 0x1.11f1a80000000p-2, -0x1.3ef91a0000000p-2, -0x1.dda49c0000000p-2, -0x1.91afc80000000p-2, 0x1.b846bc0000000p-3, 0x1.7f2e480000000p-3, -0x1.e291c20000000p-2, 0x1.504c840000000p-3, 0x1.2b90900000000p-2, -0x1.986e6c0000000p-2, 0x1.cce81c0000000p-5, -0x1.e5b7460000000p-3, -0x1.5621560000000p-1, -0x1.537b460000000p-1, -0x1.44615c0000000p-2, -0x1.8138640000000p-5, -0x1.c416dc0000000p-1, 0x1.c293000000000p-3, 0x1.41b0da0000000p-2, 0x1.a63d040000000p-3, -0x1.98381a0000000p-2, -0x1.16802c0000000p-4, -0x1.b37fe80000000p-3, -0x1.74bb840000000p-1, -0x1.e9ed120000000p-3, -0x1.451d240000000p-3, -0x1.2479020000000p-2, -0x1.4924dc0000000p-1, 0x1.b600680000000p-3, -0x1.1342520000000p-1, -0x1.4a1eca0000000p-2, -0x1.c2672c0000000p-3, -0x1.a006d00000000p-2, -0x1.5699ac0000000p-3, -0x1.d292600000000p-3, -0x1.1172940000000p-1, -0x1.675a2a0000000p-1, 0x1.26cda00000000p-3, -0x1.8d4d020000000p-5, -0x1.d67fa20000000p-5, 0x1.ed01f20000000p-3}
, {0x1.69cce20000000p-3, -0x1.2f83120000000p-2, 0x1.49e0ba0000000p-6, -0x1.66843a0000000p-1, 0x1.2ccdcc0000000p-3, 0x1.2d53620000000p-4, -0x1.634b360000000p-2, 0x1.2a02280000000p-4, -0x1.ee674c0000000p-1, -0x1.cd70ac0000000p-1, -0x1.92dc700000000p-1, -0x1.10a7c60000000p-1, -0x1.15e5360000000p-4, -0x1.4917dc0000000p-5, 0x1.1bb5520000000p-3, -0x1.4f05a60000000p-3, 0x1.70671e0000000p-3, 0x1.9edcf60000000p-3, 0x1.5c063e0000000p-2, -0x1.238cce0000000p-6, -0x1.18ad4e0000000p-1, 0x1.568ee80000000p-3, -0x1.0064200000000p-1, -0x1.8d55ca0000000p-2, -0x1.11c5fc0000000p-2, 0x1.aab3b80000000p-3, -0x1.768c660000000p-1, 0x1.abc7c60000000p-3, 0x1.f8b48e0000000p-3, 0x1.6933ba0000000p-3, 0x1.3b627e0000000p-2, 0x1.1184d20000000p-2, -0x1.1651d00000000p-1, -0x1.00fbb80000000p-3, 0x1.3a60da0000000p-2, -0x1.fc48ae0000000p-2, -0x1.612a340000000p-1, -0x1.03747e0000000p-3, 0x1.322e300000000p-3, -0x1.37bafe0000000p-1, 0x1.58ad800000000p-5, 0x1.8d2e3e0000000p-3, 0x1.42f7900000000p-5, -0x1.e201f00000000p-1, -0x1.bdb1040000000p-4, -0x1.9982080000000p-5, -0x1.e1b2be0000000p-1, -0x1.996e6e0000000p-2, -0x1.a4f1680000000p-3, -0x1.232fe20000000p-3, -0x1.7a4cce0000000p-1, 0x1.ba14640000000p-3, -0x1.1c3ca40000000p-1, -0x1.da5e460000000p-2, 0x1.50d1640000000p-2, -0x1.ae66480000000p-1, -0x1.4811320000000p-3, -0x1.0e13ac0000000p-1, -0x1.99ef060000000p-1, -0x1.68c1220000000p-1, 0x1.d773300000000p-4, 0x1.8a655a0000000p-5, -0x1.45b1aa0000000p-4, -0x1.6fc0da0000000p-3}
, {-0x1.945aa40000000p-2, -0x1.2c62c80000000p-4, -0x1.5b30c60000000p-7, -0x1.4d27e20000000p-2, 0x1.92ee3e0000000p-3, -0x1.94cd540000000p-2, 0x1.e6debe0000000p-3, -0x1.7bd41e0000000p-4, -0x1.4d4f200000000p-1, 0x1.0774020000000p-2, -0x1.7c81220000000p-1, -0x1.4b4f480000000p-1, -0x1.48714a0000000p-3, 0x1.018bf60000000p-3, -0x1.0dc8aa0000000p-1, 0x1.6de1280000000p-3, 0x1.b36a340000000p-3, 0x1.4e3e580000000p-9, 0x1.07343e0000000p-2, 0x1.89ff7c0000000p-4, 0x1.27185a0000000p-2, 0x1.143b100000000p-3, 0x1.a971120000000p-3, -0x1.3149040000000p-2, 0x1.5439840000000p-3, -0x1.d02a520000000p-2, -0x1.765b3a0000000p-2, 0x1.eaf1160000000p-3, 0x1.1243700000000p-2, 0x1.2786860000000p-5, 0x1.eb735a0000000p-3, -0x1.c0ae720000000p-6, -0x1.12bbd40000000p-2, 0x1.8cb7820000000p-3, -0x1.fc59c80000000p-2, -0x1.c553b80000000p-4, -0x1.2ea46c0000000p-1, -0x1.cc5dac0000000p-2, -0x1.ad10d80000000p-4, -0x1.a229ba0000000p-1, 0x1.27d3d80000000p-3, 0x1.463e660000000p-4, -0x1.2b1b600000000p-6, -0x1.8778420000000p-2, 0x1.5bd2bc0000000p-3, 0x1.b740b00000000p-3, -0x1.3a27580000000p-1, -0x1.7851860000000p-2, -0x1.edb86a0000000p-3, 0x1.ab17440000000p-10, -0x1.0232ca0000000p+0, 0x1.0d180a0000000p-3, -0x1.e232f00000000p-1, 0x1.1917580000000p-4, -0x1.b3ad880000000p-3, -0x1.4abcae0000000p-1, -0x1.b87f380000000p-3, -0x1.253c500000000p-1, -0x1.c694fc0000000p-2, -0x1.564cbc0000000p-1, -0x1.ea33960000000p-3, -0x1.470b520000000p-3, -0x1.00a5f00000000p-2, -0x1.3e2bde0000000p-3}
, {-0x1.6379360000000p-1, -0x1.83709e0000000p-4, -0x1.135cb40000000p-5, -0x1.3987b00000000p-1, 0x1.0806920000000p-3, 0x1.7705000000000p-3, 0x1.76efa80000000p-3, 0x1.74eee40000000p-5, -0x1.b0198e0000000p-1, -0x1.2d67460000000p-1, -0x1.af9da40000000p-1, 0x1.3dfcb60000000p-4, -0x1.06d3460000000p-4, -0x1.0ae8a00000000p-3, -0x1.004cc80000000p-1, -0x1.4574100000000p-4, 0x1.f128d60000000p-3, 0x1.26b9400000000p-3, 0x1.f9a5220000000p-3, -0x1.5fd5e00000000p-3, 0x1.21edb40000000p-2, -0x1.86c74c0000000p-3, -0x1.7ea7b80000000p-2, -0x1.da02580000000p-2, -0x1.8f05580000000p-2, -0x1.3e3b300000000p-3, -0x1.f19d100000000p-2, 0x1.00d8660000000p-2, 0x1.3a61ba0000000p-4, -0x1.ed38ba0000000p-5, 0x1.277f0c0000000p-2, -0x1.868d900000000p-2, 0x1.08c1c00000000p-2, 0x1.e9c95e0000000p-3, 0x1.2ddcda0000000p-2, -0x1.a361be0000000p-2, -0x1.292a3e0000000p-2, -0x1.0dbe1c0000000p-1, -0x1.8352a80000000p-6, -0x1.8c28c20000000p-1, -0x1.af6ba60000000p-9, 0x1.2108aa0000000p-2, 0x1.48e1040000000p-3, -0x1.f4ea840000000p-2, 0x1.8ffaca0000000p-3, -0x1.c9fa020000000p-4, -0x1.1991000000000p+0, 0x1.0ac45e0000000p-2, -0x1.6ff4f60000000p-3, 0x1.e10e3e0000000p-6, -0x1.2c56b20000000p-1, 0x1.9ab13a0000000p-3, -0x1.c5684c0000000p-1, 0x1.d16a1a0000000p-3, -0x1.e6488e0000000p-4, -0x1.496c460000000p-1, 0x1.7234020000000p-3, -0x1.65b8740000000p-1, -0x1.553e440000000p-1, -0x1.91a7980000000p-1, -0x1.056d160000000p-4, 0x1.18380a0000000p-3, -0x1.3ffd4e0000000p-5, 0x1.20acf00000000p-3}
, {-0x1.5290540000000p-2, -0x1.bafb180000000p-3, -0x1.8966d20000000p-8, 0x1.bd41500000000p-3, -0x1.bfbf280000000p-2, -0x1.7e29160000000p-2, -0x1.80d7ce0000000p-2, 0x1.4ca5c00000000p-3, -0x1.0ca8620000000p-1, 0x1.1ebbbe0000000p-3, 0x1.26cc740000000p-3, 0x1.5fcfc00000000p-3, 0x1.13cef00000000p-3, 0x1.744ccc0000000p-3, -0x1.776e340000000p-1, 0x1.3714d60000000p-4, 0x1.912d760000000p-4, -0x1.8212880000000p-3, 0x1.51249a0000000p-2, 0x1.60999e0000000p-3, -0x1.cff44e0000000p-2, 0x1.7a403a0000000p-4, 0x1.2414600000000p-2, -0x1.41a1ec0000000p-2, 0x1.bfe1360000000p-4, -0x1.757f300000000p-3, -0x1.9253de0000000p-5, 0x1.78e5940000000p-3, -0x1.05418a0000000p-1, -0x1.02f02c0000000p-4, -0x1.87b0980000000p-2, -0x1.fb490e0000000p-5, -0x1.7307ec0000000p-6, -0x1.71d3c80000000p-3, 0x1.617f840000000p-6, -0x1.0e33020000000p-4, 0x1.040b8e0000000p-4, 0x1.f02fd60000000p-3, 0x1.1f93dc0000000p-4, -0x1.331ace0000000p-1, 0x1.136d340000000p-5, -0x1.90eef40000000p-2, -0x1.0655600000000p-2, -0x1.4baefa0000000p-3, 0x1.0a15380000000p-5, 0x1.a882740000000p-3, -0x1.4830460000000p-2, -0x1.377c2e0000000p-2, 0x1.47ed120000000p-3, -0x1.e596720000000p-6, -0x1.c808980000000p-3, 0x1.4d55540000000p-3, 0x1.965a4c0000000p-9, 0x1.bc2abe0000000p-3, -0x1.35cae80000000p-1, 0x1.a0b75e0000000p-3, 0x1.0f160c0000000p-3, -0x1.b4deee0000000p-2, -0x1.303a420000000p-1, -0x1.6807940000000p-2, 0x1.c6437a0000000p-5, -0x1.2584200000000p-6, -0x1.bba9040000000p-4, -0x1.f63b6c0000000p-3}
}
;

#undef INPUT_SAMPLES
#undef FC_UNITS