/**
  ******************************************************************************
  * @file    weights/fc.cc
  * @author  Pierre-Emmanuel Novac <penovac@unice.fr>, LEAT, CNRS, Université Côte d'Azur, France
  * @version 1.0.0
  * @date    24 march 2020
  * @brief   Template generating plain C code for the implementation of Convolutional Neural Networks on MCU
  */

#include <stdint.h>

#define INPUT_SAMPLES 2304
#define FC_UNITS 64


const float dense_bias[FC_UNITS] = {0x1.2f35ac0000000p-4, -0x1.e237880000000p-6, -0x1.2123da0000000p-7, 0x1.19bfee0000000p-4, -0x1.0e801e0000000p-15, 0x1.5e667e0000000p-5, 0x1.0137060000000p-3, -0x1.6556580000000p-7, 0x1.7d376c0000000p-4, 0x1.24008a0000000p-4, 0x1.97b9f80000000p-4, 0x1.9243d60000000p-4, -0x1.95809a0000000p-5, -0x1.9345d20000000p-7, 0x1.1807880000000p-4, 0x1.8f73f80000000p-4, 0x1.7a02b20000000p-8, -0x1.9b222c0000000p-7, 0x1.9f6ea60000000p-4, -0x1.7e92900000000p-8, 0x1.e4c3420000000p-4, -0x1.3cc4860000000p-8, 0x1.f8df520000000p-5, 0x1.bed6080000000p-4, 0x1.b5c93c0000000p-4, 0x1.59c3c00000000p-4, 0x1.9c34ca0000000p-7, 0x1.5aa90c0000000p-4, 0x1.9da9d80000000p-4, 0x1.fd34ce0000000p-4, 0x1.0408d40000000p-3, 0x1.9b0f120000000p-4, 0x1.6fe5020000000p-5, -0x1.8c60040000000p-6, -0x1.8264600000000p-4, 0x1.59d0f00000000p-4, 0x1.5818400000000p-3, 0x1.40ef120000000p-5, -0x1.89a6fc0000000p-6, 0x1.1a579c0000000p-3, -0x1.135fbc0000000p-7, 0x1.01523a0000000p-3, -0x1.70d3140000000p-8, 0x1.f9ffc60000000p-4, -0x1.ef53d20000000p-8, -0x1.8d54dc0000000p-6, 0x1.f6fca40000000p-4, 0x1.661ba60000000p-5, -0x1.8533c20000000p-9, -0x1.f7713c0000000p-8, 0x1.faf3a40000000p-6, 0x1.222cc80000000p-4, 0x1.d5054e0000000p-5, 0x1.e862000000000p-5, 0x1.b26cc00000000p-4, 0x1.8bd5500000000p-5, 0x1.570d660000000p-4, 0x1.0d4b7a0000000p-3, 0x1.f412600000000p-4, 0x1.777ce20000000p-4, -0x1.fb7a0e0000000p-10, -0x1.3c7fb60000000p-7, -0x1.f838980000000p-8, -0x1.2276900000000p-6}
;

const float dense_kernel[FC_UNITS][INPUT_SAMPLES] = {{0x1.b37bca0000000p-7, -0x1.c1a88c0000000p-4, 0x1.80b2200000000p-8, -0x1.21ee000000000p-4, -0x1.47aa9e0000000p-4, 0x1.fc8b0a0000000p-4, 0x1.6b53c80000000p-5, -0x1.8765080000000p-6, -0x1.29f6fe0000000p-3, 0x1.3a18ce0000000p-4, 0x1.0bce9e0000000p-7, -0x1.7d51fe0000000p-4, -0x1.3a250e0000000p-3, 0x1.626d520000000p-3, -0x1.d472180000000p-8, 0x1.fc46420000000p-4, -0x1.d558560000000p-6, 0x1.a4f9da0000000p-6, 0x1.52877c0000000p-4, 0x1.34931a0000000p-3, -0x1.3a07a20000000p-2, 0x1.62888e0000000p-4, -0x1.3fa8ce0000000p-4, 0x1.5e3f040000000p-5, 0x1.313c4c0000000p-9, -0x1.cb352c0000000p-6, -0x1.45d7600000000p-4, -0x1.5473300000000p-7, -0x1.0d7f500000000p-4, -0x1.14759c0000000p-6, -0x1.81bc200000000p-8, -0x1.82d68c0000000p-5, -0x1.d222800000000p-5, -0x1.4d9f680000000p-6, -0x1.a4dd000000000p-4, -0x1.7d59d40000000p-3, -0x1.cb8fca0000000p-9, 0x1.5d1b4c0000000p-6, -0x1.2c944a0000000p-3, 0x1.f65d2a0000000p-5, 0x1.7b0e820000000p-7, -0x1.f9f5bc0000000p-6, 0x1.e3e6380000000p-7, -0x1.35c16a0000000p-6, 0x1.0ca1be0000000p-6, 0x1.0fe3f80000000p-4, 0x1.1f6d0c0000000p-3, 0x1.b7fac60000000p-6, 0x1.4b1f140000000p-3, -0x1.61b9b20000000p-3, -0x1.7676cc0000000p-4, 0x1.d1eab00000000p-10, -0x1.8866020000000p-6, -0x1.6d154c0000000p-5, -0x1.7c431e0000000p-11, 0x1.36b1120000000p-3, -0x1.0aebbc0000000p-3, -0x1.c3c8b60000000p-5, -0x1.e62c620000000p-4, 0x1.c8e1fe0000000p-6, 0x1.d53dfc0000000p-5, -0x1.db8ae00000000p-9, -0x1.75f49a0000000p-8, -0x1.66a59c0000000p-6, -0x1.fd282c0000000p-5, -0x1.7a85340000000p-6, -0x1.8cdd820000000p-6, 0x1.a9bb800000000p-9, -0x1.3ee5cc0000000p-4, 0x1.ca19ee0000000p-6, -0x1.4559ee0000000p-4, -0x1.52b8640000000p-10, -0x1.af21740000000p-4, -0x1.99505a0000000p-5, 0x1.c84fa20000000p-5, -0x1.b847660000000p-5, 0x1.3a97360000000p-5, 0x1.bfadd00000000p-4, -0x1.3f09160000000p-4, -0x1.2bcca40000000p-6, 0x1.547b060000000p-6, -0x1.0e0ef20000000p-9, -0x1.0f6cbc0000000p-3, 0x1.92bb100000000p-6, -0x1.66257c0000000p-4, -0x1.3f92820000000p-6, -0x1.6e4adc0000000p-4, -0x1.103ea20000000p-4, 0x1.62af560000000p-5, -0x1.5520b40000000p-3, -0x1.1b6aec0000000p-5, 0x1.b2e2800000000p-11, -0x1.3cd5f20000000p-3, -0x1.4482100000000p-5, 0x1.c7f3a00000000p-6, -0x1.a11fc00000000p-7, -0x1.c645a40000000p-4, -0x1.cc07ac0000000p-7, 0x1.778a380000000p-7, -0x1.35f8a40000000p-4, -0x1.3849f00000000p-3, 0x1.1ffd980000000p-4, -0x1.f906820000000p-7, 0x1.01eae00000000p-3, -0x1.b458f60000000p-7, -0x1.085bd60000000p-4, 0x1.abf5400000000p-4, -0x1.9667380000000p-5, -0x1.8c50e40000000p-5, -0x1.99dd800000000p-3, 0x1.271c740000000p-3, 0x1.4005c80000000p-5, 0x1.29b5f40000000p-5, -0x1.8209000000000p-3, -0x1.088d420000000p-3, 0x1.ca72840000000p-6, 0x1.15cd400000000p-4, 0x1.4dbb620000000p-5, 0x1.f7d1920000000p-6, -0x1.fa83760000000p-4, 0x1.f32f220000000p-8, -0x1.7d3d2e0000000p-4, 0x1.2399900000000p-4, 0x1.01fb960000000p-4, -0x1.0687920000000p-5, -0x1.88849c0000000p-4, -0x1.d346440000000p-4, -0x1.18f6e40000000p-3, 0x1.99b5d40000000p-3, 0x1.e764980000000p-6, -0x1.fa9c120000000p-8, 0x1.1c74a80000000p-4, -0x1.5f3a0c0000000p-5, -0x1.6b47e60000000p-3, -0x1.897b400000000p-4, 0x1.9938980000000p-8, -0x1.32a5480000000p-3, 0x1.488d260000000p-5, 0x1.fe96680000000p-6, 0x1.be70920000000p-5, -0x1.33c5080000000p-4, -0x1.65bba00000000p-6, 0x1.92eb400000000p-4, 0x1.fdd2a40000000p-6, 0x1.4bae460000000p-8, 0x1.641d440000000p-3, -0x1.20f4d20000000p-5, 0x1.1355c00000000p-3, -0x1.46be160000000p-4, 0x1.0498900000000p-4, 0x1.7f57c40000000p-4, 0x1.db82720000000p-6, 0x1.ae08b60000000p-5, -0x1.47e9ec0000000p-5, 0x1.3914640000000p-6, 0x1.7f78ac0000000p-5, -0x1.c314280000000p-5, -0x1.11cbf60000000p-5, 0x1.d35a300000000p-7, -0x1.66a2640000000p-6, -0x1.1cef5c0000000p-4, -0x1.4226ce0000000p-8, 0x1.d51b000000000p-5, -0x1.5db5d00000000p-6, -0x1.618e860000000p-6, 0x1.38fd6c0000000p-5, 0x1.a178560000000p-3, 0x1.5c34b60000000p-3, 0x1.10b4a60000000p-3, -0x1.e40cee0000000p-4, 0x1.1d98fa0000000p-5, 0x1.5f367e0000000p-4, 0x1.475a760000000p-7, 0x1.2ae6ac0000000p-10, 0x1.c818580000000p-4, 0x1.aae36a0000000p-4, 0x1.0e46fc0000000p-4, 0x1.0b1b6c0000000p-3, -0x1.5349a60000000p-5, -0x1.29da4a0000000p-5, -0x1.34aee60000000p-7, 0x1.3e872a0000000p-3, -0x1.fa77000000000p-7, -0x1.b953780000000p-6, -0x1.4321020000000p-5, 0x1.15f0be0000000p-9, 0x1.acef720000000p-4, -0x1.5579c40000000p-3, 0x1.13ef0e0000000p-5, 0x1.37475e0000000p-7, 0x1.505b880000000p-3, -0x1.a91d740000000p-6, 0x1.05597c0000000p-5, -0x1.2164800000000p-3, -0x1.29f3040000000p-4, -0x1.59f8180000000p-7, -0x1.72d0ca0000000p-7, -0x1.3863220000000p-3, 0x1.a2597e0000000p-7, 0x1.0fba400000000p-5, -0x1.6c883c0000000p-4, 0x1.a6440a0000000p-5, 0x1.69fbc60000000p-5, 0x1.16376e0000000p-9, -0x1.6939d20000000p-4, 0x1.de39f40000000p-6, 0x1.4aa08c0000000p-5, 0x1.c0d3600000000p-4, 0x1.6f7eec0000000p-4, 0x1.10e42c0000000p-3, -0x1.27f7a80000000p-4, 0x1.353d560000000p-7, -0x1.2347320000000p-6, -0x1.d8947c0000000p-4, 0x1.0380700000000p-6, -0x1.22c6660000000p-7, -0x1.cbb5540000000p-5, -0x1.ad57a20000000p-7, 0x1.b8d9720000000p-4, 0x1.8066480000000p-6, 0x1.2211860000000p-4, -0x1.6cf9b40000000p-5, -0x1.4211680000000p-7, -0x1.2902cc0000000p-5, -0x1.84be840000000p-4, -0x1.f56bfe0000000p-7, -0x1.2e788a0000000p-3, 0x1.20a6220000000p-4, 0x1.14313e0000000p-4, -0x1.2f12880000000p-4, 0x1.d5e5100000000p-5, 0x1.0977120000000p-4, -0x1.ce135e0000000p-9, -0x1.b8ed100000000p-4, -0x1.a4693a0000000p-4, -0x1.1cb4480000000p-8, 0x1.766fec0000000p-3, -0x1.9cebb00000000p-4, 0x1.92e7f80000000p-5, -0x1.9ff96e0000000p-5, -0x1.9937580000000p-5, 0x1.10a1d20000000p-6, 0x1.99de4a0000000p-5, 0x1.98e55e0000000p-6, -0x1.60484e0000000p-7, 0x1.2228080000000p-6, 0x1.3093680000000p-4, 0x1.7105840000000p-8, 0x1.19e5500000000p-3, 0x1.c8eb4e0000000p-5, 0x1.4695880000000p-5, -0x1.46c8fa0000000p-4, 0x1.3da6de0000000p-3, -0x1.e851600000000p-4, 0x1.2b6ad00000000p-11, -0x1.b7978e0000000p-4, 0x1.4555820000000p-5, -0x1.b73d5a0000000p-9, 0x1.35db280000000p-4, -0x1.b1edb80000000p-4, 0x1.1bc9400000000p-5, -0x1.22b3fa0000000p-3, -0x1.2c82b00000000p-5, -0x1.69538a0000000p-5, -0x1.59c7bc0000000p-6, -0x1.9d2fc20000000p-4, -0x1.e8c78c0000000p-5, 0x1.341be60000000p-7, -0x1.eeba920000000p-4, 0x1.5365a60000000p-5, 0x1.2295c40000000p-4, 0x1.4da4be0000000p-4, -0x1.ee33a80000000p-7, 0x1.8ca67a0000000p-3, -0x1.59a0080000000p-4, 0x1.a784fc0000000p-5, -0x1.448eae0000000p-6, -0x1.3416f20000000p-5, -0x1.2450f40000000p-3, -0x1.2a2d0c0000000p-3, 0x1.2300aa0000000p-4, 0x1.a53ec00000000p-5, 0x1.1a82ea0000000p-4, 0x1.44e0e00000000p-6, 0x1.37f1500000000p-5, -0x1.f8e30a0000000p-4, 0x1.f479800000000p-6, -0x1.25e4600000000p-9, -0x1.3c276a0000000p-4, -0x1.92fc6a0000000p-6, -0x1.3214e00000000p-5, -0x1.58b9fe0000000p-5, -0x1.518ebe0000000p-6, 0x1.f9c9480000000p-5, 0x1.61442c0000000p-3, -0x1.e297300000000p-6, -0x1.9cdebc0000000p-10, -0x1.59772c0000000p-4, 0x1.c6e6000000000p-12, -0x1.125cca0000000p-3, 0x1.4f01fc0000000p-5, -0x1.4855a00000000p-3, 0x1.737a700000000p-3, 0x1.efaf5c0000000p-4, -0x1.8a5c9a0000000p-3, -0x1.4318b40000000p-4, 0x1.0dea460000000p-5, 0x1.9b806a0000000p-5, 0x1.4bd3600000000p-5, -0x1.9784080000000p-5, 0x1.c0b91e0000000p-5, -0x1.483f860000000p-3, 0x1.a685140000000p-5, 0x1.15d2f60000000p-3, 0x1.631baa0000000p-5, -0x1.095cd60000000p-6, 0x1.050f620000000p-6, -0x1.c4d1500000000p-4, -0x1.115d0c0000000p-3, -0x1.f97e0e0000000p-5, -0x1.34ec480000000p-3, 0x1.8305280000000p-6, 0x1.a972da0000000p-5, -0x1.6e37b00000000p-4, -0x1.1f61c20000000p-6, -0x1.1887180000000p-3, 0x1.76ffa00000000p-5, -0x1.c7ca820000000p-5, -0x1.68b22a0000000p-5, -0x1.3420fe0000000p-4, 0x1.6fda9c0000000p-4, 0x1.94703a0000000p-4, 0x1.116d540000000p-5, -0x1.521b340000000p-4, -0x1.6946860000000p-6, -0x1.9b25340000000p-6, 0x1.29b7cc0000000p-6, 0x1.c0040e0000000p-4, -0x1.cd68ce0000000p-5, 0x1.213e920000000p-3, -0x1.058fe60000000p-6, -0x1.9b2fb20000000p-4, 0x1.7751340000000p-4, 0x1.2b71760000000p-5, -0x1.52783c0000000p-3, 0x1.9c23ea0000000p-7, 0x1.08c3f80000000p-4, -0x1.54a4240000000p-5, -0x1.8027c40000000p-6, -0x1.8875520000000p-5, -0x1.da46c00000000p-7, 0x1.a6eb580000000p-6, -0x1.0e83200000000p-5, 0x1.0ecdd80000000p-5, -0x1.c472f40000000p-6, -0x1.88a0300000000p-4, -0x1.4bfe440000000p-6, -0x1.0ae84c0000000p-4, 0x1.f4d8a80000000p-3, -0x1.62eaec0000000p-6, 0x1.f704620000000p-4, -0x1.e1483e0000000p-4, -0x1.5b6b420000000p-5, -0x1.8024200000000p-3, 0x1.fb44620000000p-5, 0x1.a400f40000000p-5, 0x1.183a500000000p-5, -0x1.ad27400000000p-5, -0x1.8eab340000000p-7, -0x1.9f9bfe0000000p-5, -0x1.98a0fc0000000p-5, -0x1.cfe3880000000p-6, 0x1.f6e7740000000p-5, -0x1.9d4dc00000000p-4, 0x1.6b03340000000p-5, -0x1.b541260000000p-3, -0x1.43fe620000000p-3, 0x1.a3f2020000000p-3, 0x1.d4a2420000000p-4, -0x1.e973a40000000p-4, 0x1.c0e1040000000p-5, 0x1.628a3a0000000p-5, 0x1.4c63de0000000p-4, -0x1.a45df80000000p-4, 0x1.239dd40000000p-4, -0x1.3ea2ea0000000p-3, 0x1.9467f40000000p-3, -0x1.496d6c0000000p-3, -0x1.949b9e0000000p-4, 0x1.cae6980000000p-4, -0x1.2496d80000000p-6, -0x1.45c34c0000000p-5, -0x1.9041640000000p-5, 0x1.de95c00000000p-6, 0x1.4146900000000p-4, -0x1.120d6c0000000p-6, -0x1.362a2c0000000p-3, -0x1.3f345c0000000p-3, 0x1.9c96180000000p-6, 0x1.4d87b60000000p-3, 0x1.353fc20000000p-7, 0x1.71943e0000000p-5, 0x1.204bd40000000p-3, 0x1.3222760000000p-3, -0x1.0207640000000p-3, -0x1.865bfe0000000p-4, -0x1.f8c0e00000000p-5, 0x1.a65ad00000000p-9, -0x1.fe66940000000p-5, -0x1.18afb20000000p-5, 0x1.55428a0000000p-3, -0x1.324ade0000000p-5, 0x1.ed88040000000p-4, -0x1.099cee0000000p-5, 0x1.8cc90c0000000p-5, -0x1.2af3d60000000p-5, 0x1.67e6200000000p-5, -0x1.aaa5e80000000p-7, 0x1.df4ed40000000p-8, -0x1.ab10260000000p-3, -0x1.2d63a40000000p-3, -0x1.2b71620000000p-3, 0x1.2c86780000000p-4, 0x1.9863040000000p-6, 0x1.10be320000000p-8, 0x1.42b50a0000000p-5, 0x1.9866140000000p-5, -0x1.72af800000000p-4, -0x1.e839e40000000p-6, -0x1.41df4a0000000p-6, 0x1.2e32cc0000000p-3, 0x1.99db200000000p-6, 0x1.4ccd7c0000000p-4, -0x1.932af40000000p-6, -0x1.42d5b80000000p-7, -0x1.aa809c0000000p-8, -0x1.d275660000000p-6, 0x1.811bd20000000p-5, -0x1.7533fc0000000p-8, -0x1.ca78a40000000p-3, -0x1.1fd6880000000p-4, 0x1.962c3a0000000p-7, -0x1.37d6700000000p-4, -0x1.08cb020000000p-5, 0x1.3ecd900000000p-4, 0x1.7788580000000p-6, -0x1.a956e40000000p-4, -0x1.fe38800000000p-6, 0x1.b2adc80000000p-6, -0x1.088e9c0000000p-4, -0x1.81b5f60000000p-6, -0x1.01d5d40000000p-3, -0x1.e8dfd80000000p-4, 0x1.2175700000000p-5, -0x1.36462e0000000p-5, -0x1.eab25e0000000p-6, -0x1.9f72f20000000p-7, -0x1.85bfb60000000p-6, -0x1.cbeba00000000p-5, 0x1.311a1a0000000p-5, -0x1.127ad00000000p-4, -0x1.35c9a80000000p-4, 0x1.75748c0000000p-8, 0x1.4bfb600000000p-6, 0x1.feecee0000000p-5, -0x1.d3d59c0000000p-5, -0x1.4304bc0000000p-6, 0x1.3adbb20000000p-4, -0x1.17c5460000000p-3, -0x1.c1555c0000000p-7, -0x1.9890960000000p-9, -0x1.6090ee0000000p-4, 0x1.e582a80000000p-6, 0x1.26bbce0000000p-12, -0x1.7c2e680000000p-7, -0x1.f14e140000000p-6, -0x1.f9f6640000000p-5, -0x1.9671420000000p-6, 0x1.d046a00000000p-7, -0x1.bfa01e0000000p-6, -0x1.3d11400000000p-5, 0x1.4d43d40000000p-5, -0x1.814ec20000000p-6, -0x1.e0f5f80000000p-6, -0x1.46d9c80000000p-3, 0x1.6f66980000000p-5, 0x1.1d673a0000000p-3, 0x1.a3d3000000000p-5, 0x1.427b720000000p-6, 0x1.b3759a0000000p-4, 0x1.94cc740000000p-3, -0x1.b50eb80000000p-4, -0x1.f0e4940000000p-4, 0x1.6e9b000000000p-8, -0x1.0fc73c0000000p-13, -0x1.3123420000000p-6, 0x1.8b77840000000p-4, 0x1.59e2800000000p-7, -0x1.c341320000000p-4, 0x1.868b040000000p-6, 0x1.374af00000000p-6, -0x1.ed45cc0000000p-8, -0x1.a5a78a0000000p-9, -0x1.d35c500000000p-3, -0x1.05c2640000000p-2, 0x1.df94a00000000p-7, -0x1.4a77be0000000p-7, -0x1.4ac4560000000p-5, 0x1.7f20f80000000p-4, -0x1.28e9800000000p-4, -0x1.14230a0000000p-3, -0x1.4805ec0000000p-7, 0x1.cb85660000000p-4, -0x1.643fc80000000p-5, 0x1.162b9e0000000p-6, -0x1.055e380000000p-3, 0x1.f473180000000p-5, -0x1.82763c0000000p-6, -0x1.1120300000000p-3, 0x1.609ce00000000p-7, -0x1.a9098a0000000p-4, 0x1.57b7120000000p-4, 0x1.0db6900000000p-5, 0x1.0acb4c0000000p-4, -0x1.5200940000000p-5, -0x1.9a99da0000000p-3, -0x1.586a8a0000000p-3, 0x1.51c63e0000000p-4, -0x1.b31c480000000p-4, -0x1.c96da80000000p-7, -0x1.1b77540000000p-5, 0x1.bf581e0000000p-5, 0x1.6a1aba0000000p-7, -0x1.5972c00000000p-4, -0x1.8ca13a0000000p-7, -0x1.006f380000000p-2, 0x1.86e92c0000000p-5, 0x1.89198c0000000p-5, 0x1.1bc4e80000000p-4, 0x1.209ea00000000p-9, 0x1.8a59400000000p-5, -0x1.8c7faa0000000p-3, -0x1.bac2940000000p-6, -0x1.9b3d120000000p-11, -0x1.9471960000000p-6, 0x1.043bd00000000p-10, -0x1.09504a0000000p-5, 0x1.7f70760000000p-8, -0x1.4dcc1a0000000p-3, -0x1.31fa280000000p-3, 0x1.3313980000000p-3, 0x1.6c73be0000000p-5, 0x1.c4b9900000000p-4, 0x1.9059560000000p-3, 0x1.a8e99a0000000p-8, 0x1.428f420000000p-4, -0x1.d38de40000000p-5, -0x1.693e280000000p-5, 0x1.81aac80000000p-4, -0x1.423e9a0000000p-5, 0x1.8e99700000000p-3, 0x1.39fc420000000p-4, -0x1.54a7d00000000p-6, -0x1.7cf44e0000000p-5, 0x1.4d56180000000p-4, 0x1.1dc8700000000p-3, 0x1.c980ce0000000p-5, -0x1.7489d00000000p-5, 0x1.0cc7100000000p-3, 0x1.3af5860000000p-3, 0x1.546aba0000000p-3, -0x1.33cad80000000p-3, 0x1.e9c97e0000000p-4, -0x1.5038ec0000000p-4, 0x1.7efbba0000000p-5, 0x1.eebba80000000p-7, 0x1.10504a0000000p-2, -0x1.e7cd460000000p-4, -0x1.fa3e4c0000000p-5, -0x1.effb320000000p-3, 0x1.4494500000000p-3, -0x1.8089060000000p-6, -0x1.96a09c0000000p-4, -0x1.261f520000000p-5, -0x1.2291c40000000p-5, 0x1.7aa76c0000000p-4, 0x1.6afb7c0000000p-3, -0x1.8fd5ae0000000p-6, 0x1.5269b20000000p-6, -0x1.1ea74a0000000p-2, -0x1.4f395a0000000p-3, 0x1.c9e3260000000p-5, 0x1.2a57d00000000p-4, 0x1.d068d40000000p-5, -0x1.b846540000000p-3, -0x1.06ecc00000000p-6, 0x1.53f0b40000000p-3, -0x1.9c00d20000000p-4, 0x1.750f660000000p-4, -0x1.3de0480000000p-3, -0x1.a4f1f20000000p-6, -0x1.14fe9c0000000p-3, 0x1.a345f20000000p-5, -0x1.3399200000000p-7, 0x1.1fe6ae0000000p-6, -0x1.c54b080000000p-3, 0x1.4c21840000000p-5, -0x1.7b62da0000000p-6, -0x1.8b250c0000000p-4, -0x1.e7fc860000000p-6, 0x1.402c5a0000000p-5, 0x1.07a0e00000000p-5, 0x1.75b0aa0000000p-4, -0x1.304ee80000000p-4, 0x1.1745640000000p-3, 0x1.3dbae40000000p-3, 0x1.1f03400000000p-6, 0x1.35afd60000000p-7, 0x1.a160f00000000p-4, 0x1.7d8cd80000000p-3, 0x1.8bd43e0000000p-4, -0x1.2b2c020000000p-4, 0x1.24caf40000000p-3, 0x1.768f100000000p-5, -0x1.cc17f40000000p-3, -0x1.2d77640000000p-4, 0x1.0145900000000p-4, 0x1.a710740000000p-6, 0x1.0319280000000p-7, 0x1.0a421c0000000p-3, -0x1.9f8b7e0000000p-8, -0x1.09b7280000000p-5, 0x1.2c4b120000000p-5, 0x1.9060b00000000p-4, 0x1.ced94c0000000p-3, -0x1.d10eda0000000p-4, 0x1.2886b40000000p-5, 0x1.2ea5180000000p-3, 0x1.5796da0000000p-6, -0x1.a7f32e0000000p-6, 0x1.0845300000000p-3, -0x1.2187c80000000p-2, 0x1.403dde0000000p-6, -0x1.8c88400000000p-3, 0x1.18489c0000000p-3, -0x1.e19d240000000p-3, -0x1.160ebc0000000p-11, -0x1.b867b20000000p-10, -0x1.8cd7900000000p-4, -0x1.9a21460000000p-4, 0x1.24f7320000000p-3, -0x1.7d795e0000000p-5, -0x1.3fab2c0000000p-3, -0x1.5d6f140000000p-7, -0x1.475db60000000p-3, 0x1.d93b240000000p-5, 0x1.42a14e0000000p-6, -0x1.40c69e0000000p-3, -0x1.3e15140000000p-2, 0x1.3f57ba0000000p-7, 0x1.e1989e0000000p-4, -0x1.4550ec0000000p-3, -0x1.1ad04e0000000p-5, -0x1.d377060000000p-3, -0x1.6863a60000000p-6, -0x1.0835360000000p-4, 0x1.bbc0060000000p-5, -0x1.6f77da0000000p-6, 0x1.cd30da0000000p-6, -0x1.6054c80000000p-4, 0x1.90e4e00000000p-7, -0x1.2e1c080000000p-6, -0x1.adcdfa0000000p-5, 0x1.f871ca0000000p-7, -0x1.4604a20000000p-3, 0x1.53eb8e0000000p-5, -0x1.149ef40000000p-4, -0x1.a95a5e0000000p-4, 0x1.34cd620000000p-3, -0x1.d5f5540000000p-4, -0x1.58c18e0000000p-4, -0x1.9c03d60000000p-4, -0x1.00fbca0000000p-3, 0x1.1a89100000000p-8, -0x1.5741ae0000000p-4, -0x1.5e67aa0000000p-4, 0x1.23a0160000000p-4, 0x1.7823cc0000000p-9, -0x1.b4ab040000000p-3, -0x1.1d6fc80000000p-5, -0x1.bb90d20000000p-4, 0x1.ea07d40000000p-7, 0x1.697dc00000000p-7, 0x1.d6803e0000000p-4, 0x1.646a9e0000000p-5, -0x1.b658540000000p-4, -0x1.3d567a0000000p-6, 0x1.17c3940000000p-4, 0x1.3fc63c0000000p-3, -0x1.0e5d980000000p-4, 0x1.6b833c0000000p-4, 0x1.5b2a300000000p-5, -0x1.78b0aa0000000p-3, -0x1.7e1e800000000p-5, -0x1.83b0ba0000000p-4, 0x1.1922800000000p-5, 0x1.93b6100000000p-3, 0x1.4c70c80000000p-6, 0x1.8c10dc0000000p-6, 0x1.ff21440000000p-8, 0x1.4cdf200000000p-4, -0x1.d18b820000000p-8, -0x1.65e7720000000p-3, 0x1.1c97d20000000p-5, -0x1.717efa0000000p-5, 0x1.6434960000000p-4, 0x1.3524c80000000p-4, 0x1.b694660000000p-4, 0x1.0970d20000000p-5, -0x1.7322b40000000p-7, 0x1.fda4980000000p-8, 0x1.ae0c840000000p-3, 0x1.f7eb600000000p-5, 0x1.284af60000000p-3, -0x1.8f6b0c0000000p-4, -0x1.bcd3e20000000p-4, 0x1.1f1e480000000p-3, -0x1.8097ea0000000p-4, -0x1.32973e0000000p-5, 0x1.99a83c0000000p-4, 0x1.a891520000000p-4, -0x1.99055a0000000p-6, 0x1.0d5fa20000000p-4, -0x1.888c580000000p-3, -0x1.d02e000000000p-12, 0x1.3e267a0000000p-7, -0x1.8293000000000p-7, 0x1.0e8a0a0000000p-7, 0x1.1824980000000p-4, -0x1.da5a300000000p-4, 0x1.50b0620000000p-5, 0x1.6d4ec40000000p-6, 0x1.d17c060000000p-4, 0x1.0897960000000p-6, -0x1.76a9160000000p-6, 0x1.40ea6e0000000p-5, 0x1.2341900000000p-4, -0x1.43f30a0000000p-4, -0x1.66d4340000000p-5, -0x1.f3b5520000000p-6, 0x1.fe97360000000p-5, 0x1.e9dcc20000000p-5, 0x1.7e4cfe0000000p-4, 0x1.14cb3e0000000p-4, 0x1.b6672a0000000p-9, -0x1.9613260000000p-5, -0x1.b3e6e80000000p-6, -0x1.0ee8aa0000000p-5, 0x1.26e12a0000000p-7, -0x1.a4223c0000000p-3, -0x1.d92dba0000000p-5, 0x1.1834700000000p-3, 0x1.64acbe0000000p-4, -0x1.ef6ff80000000p-6, -0x1.4b43500000000p-7, -0x1.1454980000000p-4, -0x1.15b6300000000p-6, 0x1.7089ba0000000p-6, 0x1.cd7e1c0000000p-4, -0x1.1883080000000p-3, 0x1.a869200000000p-3, -0x1.367f0a0000000p-3, -0x1.e3041c0000000p-4, 0x1.3dce8e0000000p-3, 0x1.f123f00000000p-7, 0x1.bd0a3c0000000p-7, 0x1.4910240000000p-6, 0x1.88dc760000000p-4, -0x1.91b3c00000000p-5, 0x1.e48a680000000p-6, 0x1.47b9ca0000000p-7, -0x1.4d8f6e0000000p-6, 0x1.12b5960000000p-5, 0x1.79b9180000000p-5, -0x1.cd40b60000000p-4, -0x1.c307960000000p-4, -0x1.645f100000000p-5, 0x1.acaf640000000p-4, -0x1.c8aed00000000p-3, 0x1.16cd720000000p-3, -0x1.a8be4e0000000p-7, 0x1.9a28f40000000p-6, -0x1.6517100000000p-5, -0x1.26f7200000000p-4, 0x1.32971c0000000p-5, 0x1.2120b80000000p-5, 0x1.ff199e0000000p-5, -0x1.8548860000000p-5, 0x1.ae97600000000p-9, 0x1.d8de5c0000000p-5, -0x1.a611300000000p-4, 0x1.7227fa0000000p-7, 0x1.9b8a860000000p-5, -0x1.0237220000000p-4, -0x1.e1be580000000p-4, 0x1.dfff780000000p-3, 0x1.157b460000000p-4, 0x1.bbafd00000000p-6, -0x1.7bdaea0000000p-3, 0x1.51c4560000000p-3, -0x1.43e26c0000000p-4, -0x1.9b7a6c0000000p-4, -0x1.4223e40000000p-3, -0x1.3ae3e60000000p-3, 0x1.d57dc80000000p-3, -0x1.143a620000000p-4, 0x1.11bfa00000000p-4, -0x1.1d7f1c0000000p-3, 0x1.2d24f80000000p-5, 0x1.268e840000000p-5, -0x1.84e4340000000p-9, 0x1.1220cc0000000p-3, 0x1.33554a0000000p-4, 0x1.1c5bba0000000p-9, -0x1.3152ca0000000p-4, 0x1.cb1a6a0000000p-4, -0x1.ac79fa0000000p-5, -0x1.e7daaa0000000p-6, 0x1.0432380000000p-3, 0x1.487b400000000p-5, -0x1.963d480000000p-8, -0x1.eea4ba0000000p-5, 0x1.25e8fc0000000p-4, -0x1.e26bf20000000p-5, 0x1.56d0280000000p-3, 0x1.64b2fe0000000p-7, -0x1.108f300000000p-4, 0x1.38bb600000000p-5, 0x1.5f33480000000p-4, -0x1.4363d80000000p-6, -0x1.853ae20000000p-7, -0x1.0f964e0000000p-4, -0x1.5e093a0000000p-5, -0x1.c54daa0000000p-6, -0x1.0576120000000p-3, -0x1.2417e80000000p-5, -0x1.d39e000000000p-4, 0x1.a410fc0000000p-10, 0x1.2f024e0000000p-5, 0x1.5446160000000p-5, -0x1.33a8200000000p-3, 0x1.246fb40000000p-4, -0x1.582e440000000p-4, -0x1.abff9c0000000p-6, 0x1.06d57e0000000p-4, -0x1.cfb5140000000p-5, -0x1.3e1f4a0000000p-4, -0x1.b6ff960000000p-11, 0x1.0d0a540000000p-4, -0x1.9127d00000000p-5, 0x1.9b1aca0000000p-7, 0x1.bbeb9c0000000p-7, -0x1.7226160000000p-6, 0x1.0cdbd20000000p-5, 0x1.5adf920000000p-6, 0x1.f53f6e0000000p-6, -0x1.c017180000000p-4, -0x1.8761d40000000p-4, -0x1.1cc2b00000000p-5, 0x1.f5f15e0000000p-6, 0x1.4d62100000000p-4, 0x1.f4249c0000000p-5, -0x1.bc73360000000p-4, 0x1.6420340000000p-3, -0x1.49720c0000000p-6, 0x1.37091a0000000p-10, -0x1.605efc0000000p-6, -0x1.6dbdf40000000p-4, -0x1.b89cb60000000p-8, 0x1.5744ee0000000p-3, 0x1.02adc00000000p-6, 0x1.3a97420000000p-6, 0x1.75c7ea0000000p-6, -0x1.23208c0000000p-5, -0x1.1818940000000p-6, 0x1.1ee19c0000000p-6, 0x1.38b3860000000p-5, -0x1.5c7ce40000000p-7, 0x1.65e0720000000p-5, 0x1.7870540000000p-5, 0x1.a426cc0000000p-3, -0x1.f15b020000000p-5, -0x1.7d94180000000p-5, 0x1.3524c80000000p-4, 0x1.befa2c0000000p-4, -0x1.1b06500000000p-5, 0x1.a59b840000000p-5, -0x1.03a0680000000p-2, 0x1.2138d60000000p-2, -0x1.f1bdc40000000p-5, 0x1.20d17c0000000p-6, -0x1.a562240000000p-4, 0x1.8b837a0000000p-3, 0x1.641cdc0000000p-6, -0x1.7004900000000p-3, 0x1.fb73020000000p-5, -0x1.c8b2100000000p-5, -0x1.fef6400000000p-4, 0x1.955f820000000p-3, 0x1.7e86340000000p-5, -0x1.239dce0000000p-3, -0x1.7c76a00000000p-9, -0x1.17c2c60000000p-3, -0x1.0d06160000000p-3, -0x1.0f76ae0000000p-3, -0x1.a414740000000p-4, 0x1.143d6c0000000p-3, -0x1.b78b220000000p-6, 0x1.c58a560000000p-5, -0x1.b6a89e0000000p-5, -0x1.d3316c0000000p-7, -0x1.6185820000000p-5, 0x1.53f9780000000p-6, -0x1.7955d80000000p-7, -0x1.0c577c0000000p-10, 0x1.a6032a0000000p-5, -0x1.62b0400000000p-7, -0x1.82211c0000000p-6, 0x1.8eb42a0000000p-5, 0x1.6c59040000000p-5, 0x1.06cf720000000p-5, -0x1.004b920000000p-5, 0x1.3d918c0000000p-4, -0x1.c7b7de0000000p-7, 0x1.beb0700000000p-4, 0x1.1f3b4a0000000p-8, -0x1.d881340000000p-11, 0x1.c421ec0000000p-3, 0x1.2d68bc0000000p-4, 0x1.b8f9660000000p-4, -0x1.98f3c40000000p-3, 0x1.1a6d540000000p-3, 0x1.93d3340000000p-4, 0x1.6f973a0000000p-5, -0x1.4b45d80000000p-4, 0x1.443e700000000p-7, 0x1.668a280000000p-4, 0x1.890f700000000p-6, 0x1.f6c83a0000000p-5, 0x1.7542360000000p-5, -0x1.4be6580000000p-7, 0x1.5299e60000000p-4, 0x1.c0fbf80000000p-5, 0x1.3880d60000000p-2, 0x1.72991e0000000p-3, -0x1.be84220000000p-4, 0x1.3480760000000p-5, 0x1.8723f20000000p-4, 0x1.428e220000000p-3, -0x1.a423fa0000000p-6, 0x1.aa7d600000000p-3, -0x1.f31c6e0000000p-4, 0x1.3727b20000000p-4, -0x1.7bbb500000000p-3, -0x1.44282c0000000p-7, -0x1.a7c10a0000000p-4, 0x1.26029c0000000p-2, -0x1.09420a0000000p-5, -0x1.65157c0000000p-3, -0x1.91a8460000000p-5, 0x1.ba27720000000p-5, -0x1.afdf5e0000000p-4, -0x1.be0ff60000000p-8, -0x1.8604ca0000000p-5, -0x1.0a3d0c0000000p-3, -0x1.b4ab7e0000000p-3, 0x1.75d0140000000p-5, 0x1.a58c120000000p-5, -0x1.25dea20000000p-5, -0x1.3f196c0000000p-2, 0x1.7b3eec0000000p-3, 0x1.1f03e80000000p-4, 0x1.2659c80000000p-7, 0x1.16ba2a0000000p-8, -0x1.a827380000000p-3, 0x1.29e7800000000p-4, 0x1.1867660000000p-6, -0x1.ed72a00000000p-9, 0x1.a3eefc0000000p-11, 0x1.8741cc0000000p-3, -0x1.8d6b4a0000000p-6, -0x1.348c380000000p-5, 0x1.dc69d40000000p-9, 0x1.4d84b60000000p-5, 0x1.ed87b80000000p-5, 0x1.2cbf1c0000000p-3, 0x1.7c25de0000000p-3, -0x1.2df6440000000p-3, -0x1.5f39d00000000p-6, -0x1.70de4a0000000p-3, 0x1.0c24e20000000p-5, 0x1.0354840000000p-5, 0x1.c37a6e0000000p-3, 0x1.3516a20000000p-4, 0x1.194a6e0000000p-3, 0x1.6860380000000p-6, 0x1.6993960000000p-4, 0x1.6ccbda0000000p-3, -0x1.ef88260000000p-3, -0x1.2099b80000000p-6, -0x1.95bd460000000p-3, 0x1.5650380000000p-6, 0x1.20b6320000000p-4, -0x1.2034480000000p-5, 0x1.4c76e20000000p-5, 0x1.0690b00000000p-4, 0x1.0a07540000000p-3, -0x1.77c7d20000000p-5, 0x1.4fd3f60000000p-3, -0x1.0551a80000000p-3, -0x1.5ed3120000000p-5, -0x1.9772d20000000p-4, 0x1.8ae3c00000000p-3, 0x1.bb2a7e0000000p-7, -0x1.16a52c0000000p-7, -0x1.003eaa0000000p-3, 0x1.e336560000000p-4, 0x1.06bfca0000000p-4, 0x1.7bfbae0000000p-4, -0x1.2d32ae0000000p-2, 0x1.87b1060000000p-3, -0x1.cf43be0000000p-8, -0x1.cbc5500000000p-3, -0x1.fe620a0000000p-6, 0x1.85ead00000000p-6, -0x1.7c23d00000000p-4, 0x1.a98c600000000p-6, -0x1.5d03be0000000p-3, -0x1.aa497e0000000p-3, -0x1.651c640000000p-8, -0x1.0889fa0000000p-3, -0x1.5d21460000000p-3, -0x1.d05d500000000p-3, -0x1.bdb74a0000000p-3, 0x1.8860160000000p-3, 0x1.0121d80000000p-4, -0x1.09ab600000000p-3, 0x1.3dd91c0000000p-7, -0x1.0e61560000000p-3, -0x1.147cae0000000p-3, 0x1.16f55e0000000p-4, -0x1.9756120000000p-6, -0x1.2837180000000p-5, 0x1.7a71f40000000p-5, 0x1.656b180000000p-5, -0x1.c13ca20000000p-5, 0x1.105b7c0000000p-3, 0x1.78fc600000000p-9, -0x1.ff17f20000000p-4, -0x1.07d4920000000p-4, -0x1.57dcea0000000p-5, -0x1.7ec7840000000p-6, 0x1.cad1e20000000p-5, -0x1.0b62b40000000p-3, -0x1.b3bdf40000000p-4, -0x1.3f068a0000000p-3, -0x1.3c82fa0000000p-4, -0x1.45956a0000000p-5, -0x1.55eba00000000p-3, -0x1.0e00080000000p-7, 0x1.8d134c0000000p-5, -0x1.4e82220000000p-5, -0x1.2a6c6c0000000p-3, 0x1.3b6dd40000000p-4, 0x1.3bb8c60000000p-6, 0x1.5aee900000000p-5, 0x1.bc069a0000000p-5, -0x1.aba73a0000000p-3, -0x1.a536e40000000p-8, 0x1.4c2bd40000000p-8, -0x1.b5bdb80000000p-4, 0x1.8ce3540000000p-3, 0x1.bae6360000000p-5, -0x1.4abf680000000p-4, -0x1.4944e00000000p-5, 0x1.1a80060000000p-3, 0x1.3a47dc0000000p-4, 0x1.4cd0620000000p-5, -0x1.397f3a0000000p-4, -0x1.316f240000000p-3, 0x1.312d340000000p-2, 0x1.c34e340000000p-3, -0x1.0a038c0000000p-4, -0x1.ba61e00000000p-5, 0x1.3fe0dc0000000p-2, -0x1.f3ab300000000p-6, 0x1.59bdf80000000p-5, -0x1.72652c0000000p-6, -0x1.94ead80000000p-4, -0x1.b037d20000000p-5, -0x1.81331a0000000p-3, -0x1.076d7e0000000p-4, 0x1.ea61a20000000p-5, 0x1.8958340000000p-5, 0x1.1b03420000000p-4, -0x1.a8c1a60000000p-11, -0x1.370ff80000000p-4, -0x1.14ea340000000p-7, -0x1.41eec20000000p-5, -0x1.f0a20a0000000p-5, 0x1.0d89e00000000p-4, 0x1.8cbdba0000000p-2, -0x1.4790fa0000000p-5, 0x1.4d39200000000p-8, 0x1.4e104a0000000p-4, 0x1.21dcb40000000p-5, 0x1.9f88160000000p-4, 0x1.0dafe00000000p-2, 0x1.1e2ea80000000p-5, -0x1.18c7020000000p-5, 0x1.1de6a00000000p-4, 0x1.8b5de80000000p-6, 0x1.de2b460000000p-5, 0x1.b559600000000p-4, -0x1.b1f2dc0000000p-3, 0x1.03d3420000000p-8, 0x1.79328e0000000p-5, 0x1.068ac60000000p-8, -0x1.68c3d80000000p-4, -0x1.0b22d00000000p-3, -0x1.6b49860000000p-3, -0x1.4a353a0000000p-3, 0x1.c11ab00000000p-7, 0x1.0b9a460000000p-4, -0x1.85e84a0000000p-4, 0x1.06e9d00000000p-4, -0x1.6414140000000p-4, 0x1.5ea75a0000000p-3, 0x1.f1e1820000000p-4, 0x1.99b2460000000p-7, 0x1.e138ee0000000p-6, -0x1.0b3a800000000p-6, 0x1.46dd9e0000000p-4, -0x1.486a780000000p-5, -0x1.0d85ec0000000p-5, -0x1.2303b00000000p-4, 0x1.a7dd720000000p-8, 0x1.ae19aa0000000p-4, 0x1.fa7e420000000p-7, -0x1.013cb80000000p-4, -0x1.c042de0000000p-4, -0x1.97ce120000000p-3, -0x1.a8cbae0000000p-4, 0x1.073afa0000000p-6, 0x1.310eba0000000p-2, 0x1.9568120000000p-4, -0x1.02c6420000000p-4, 0x1.67597e0000000p-4, 0x1.3d6e100000000p-4, 0x1.de3cfe0000000p-11, -0x1.6d917c0000000p-3, -0x1.1f18060000000p-4, -0x1.bdd33e0000000p-8, -0x1.3e33080000000p-4, -0x1.56e8cc0000000p-3, 0x1.53a63e0000000p-4, 0x1.a509380000000p-3, 0x1.85ed100000000p-4, 0x1.6a99740000000p-4, 0x1.fd3d600000000p-4, -0x1.7870260000000p-4, 0x1.4ffffc0000000p-5, -0x1.8db0f60000000p-5, 0x1.ad97200000000p-5, 0x1.d9bbf40000000p-6, 0x1.466e040000000p-3, -0x1.76d9500000000p-7, -0x1.0d58180000000p-4, 0x1.a7821c0000000p-6, 0x1.3be0500000000p-8, 0x1.5653920000000p-7, 0x1.22d7bc0000000p-6, -0x1.1dde040000000p-6, -0x1.4d59480000000p-6, -0x1.4e79940000000p-5, 0x1.0105840000000p-5, -0x1.04b1f60000000p-4, -0x1.047f480000000p-4, -0x1.d1bd2e0000000p-4, -0x1.493ca60000000p-4, -0x1.5f79320000000p-4, 0x1.1c73e80000000p-3, 0x1.4424060000000p-4, 0x1.27a0540000000p-3, -0x1.02cf460000000p-3, -0x1.23a4e00000000p-3, -0x1.82fc200000000p-4, -0x1.6fd16a0000000p-5, 0x1.e3877e0000000p-4, -0x1.e8cf780000000p-5, 0x1.a638a00000000p-5, -0x1.5f433a0000000p-6, -0x1.7a48660000000p-6, -0x1.718e600000000p-5, 0x1.0b78260000000p-7, -0x1.740c020000000p-6, 0x1.3642c80000000p-5, 0x1.32989a0000000p-4, 0x1.a4a4860000000p-5, 0x1.ef1e500000000p-5, 0x1.abaed80000000p-6, 0x1.07d80a0000000p-4, -0x1.78e5380000000p-4, -0x1.ce54a00000000p-5, 0x1.63d01a0000000p-4, -0x1.cf4a700000000p-4, 0x1.6918800000000p-4, -0x1.fa8b760000000p-6, 0x1.12b4ac0000000p-2, -0x1.3c821a0000000p-4, 0x1.045e2c0000000p-3, -0x1.7b59220000000p-6, -0x1.3531440000000p-5, -0x1.d7b7a40000000p-5, -0x1.279c3c0000000p-4, 0x1.6903b80000000p-4, 0x1.34b87c0000000p-4, -0x1.0bcf880000000p-10, -0x1.bbb04a0000000p-4, 0x1.7a91cc0000000p-5, -0x1.44d9980000000p-5, 0x1.f43d620000000p-5, 0x1.70907e0000000p-3, 0x1.b8e0f20000000p-3, -0x1.18a86a0000000p-3, -0x1.14d2cc0000000p-6, 0x1.e26a060000000p-4, 0x1.b1d9960000000p-8, 0x1.302db60000000p-4, 0x1.51a58c0000000p-4, -0x1.4dfc3a0000000p-4, -0x1.aaf06a0000000p-4, -0x1.e226160000000p-7, -0x1.67e9180000000p-7, 0x1.c8e1b20000000p-3, 0x1.89864c0000000p-5, 0x1.91fc900000000p-7, -0x1.fa45280000000p-9, 0x1.2896c40000000p-6, -0x1.83de7a0000000p-7, -0x1.a4b4f40000000p-5, 0x1.6169ae0000000p-4, -0x1.da16680000000p-5, -0x1.63046a0000000p-5, 0x1.397eb00000000p-3, -0x1.b8c2200000000p-5, -0x1.48975a0000000p-7, 0x1.362d4e0000000p-3, -0x1.4562ba0000000p-6, 0x1.b1f9900000000p-6, 0x1.66d6c60000000p-3, -0x1.346ab40000000p-4, -0x1.49792a0000000p-3, 0x1.9663620000000p-5, -0x1.c8ec480000000p-4, 0x1.74bc2c0000000p-9, 0x1.40cf580000000p-4, -0x1.5f14560000000p-5, 0x1.5557cc0000000p-8, -0x1.84b5ba0000000p-5, -0x1.af15ae0000000p-7, -0x1.652b540000000p-3, -0x1.703c4e0000000p-5, 0x1.751ee60000000p-3, 0x1.cef7ac0000000p-6, -0x1.48c3aa0000000p-3, -0x1.10ea3e0000000p-3, 0x1.4c61020000000p-5, 0x1.fd21040000000p-4, -0x1.e5b63a0000000p-8, 0x1.8360ae0000000p-5, 0x1.ebae2a0000000p-6, 0x1.d06e560000000p-3, -0x1.07ccf00000000p-5, 0x1.0024aa0000000p-2, -0x1.e31dd80000000p-4, -0x1.7f83ea0000000p-4, 0x1.2ebc0c0000000p-8, -0x1.3508660000000p-7, -0x1.f9b1b60000000p-4, 0x1.3dbc3c0000000p-6, 0x1.35ff680000000p-4, 0x1.4113760000000p-5, -0x1.889ff80000000p-4, -0x1.b14b020000000p-5, -0x1.b2341a0000000p-5, 0x1.3d11520000000p-5, -0x1.a3d9ac0000000p-8, -0x1.6d34a40000000p-5, -0x1.4c35440000000p-2, 0x1.7408960000000p-3, -0x1.09c3e60000000p-3, -0x1.6970680000000p-4, 0x1.1599a80000000p-2, -0x1.16377a0000000p-4, 0x1.fd35ea0000000p-5, 0x1.d38fc60000000p-5, 0x1.63bba80000000p-6, -0x1.fac5da0000000p-7, 0x1.c924e00000000p-3, 0x1.f5c4a00000000p-8, -0x1.4ad2b20000000p-5, 0x1.256d740000000p-2, 0x1.7831900000000p-6, 0x1.cbe70a0000000p-5, 0x1.8bc4a60000000p-5, 0x1.4e15740000000p-4, 0x1.4cde560000000p-3, -0x1.9abfea0000000p-4, -0x1.7784280000000p-4, 0x1.7b15220000000p-11, 0x1.d789280000000p-6, 0x1.0c0a4e0000000p-5, 0x1.2a4bec0000000p-7, 0x1.e977860000000p-5, 0x1.d8fc3e0000000p-7, -0x1.e9df020000000p-3, 0x1.46738a0000000p-3, -0x1.0dbf840000000p-2, 0x1.1a29e20000000p-2, 0x1.1c83a20000000p-6, 0x1.3260480000000p-6, 0x1.5597060000000p-4, -0x1.97feea0000000p-3, 0x1.ecf9dc0000000p-5, 0x1.4d42e60000000p-4, 0x1.5194860000000p-3, -0x1.b471ac0000000p-5, 0x1.8767f60000000p-4, 0x1.63a0300000000p-5, 0x1.89c9840000000p-6, 0x1.ff43400000000p-5, 0x1.0232a00000000p-3, -0x1.0748fa0000000p-4, 0x1.5ec57e0000000p-3, 0x1.c86f6a0000000p-5, 0x1.31ba660000000p-3, 0x1.efa1b20000000p-4, -0x1.9542720000000p-6, -0x1.b1823c0000000p-4, 0x1.dfd67c0000000p-4, 0x1.0bab3a0000000p-6, 0x1.44bf840000000p-3, 0x1.1ffa3a0000000p-4, 0x1.cde2be0000000p-6, -0x1.3e39600000000p-3, 0x1.bce6a80000000p-4, 0x1.16743a0000000p-4, 0x1.1f8eac0000000p-3, -0x1.87dc460000000p-4, 0x1.87bbb00000000p-6, -0x1.78c4060000000p-3, 0x1.78d60a0000000p-3, 0x1.fb8f1a0000000p-7, -0x1.f937a80000000p-4, 0x1.edab940000000p-3, -0x1.c3db800000000p-4, 0x1.43b5c40000000p-2, -0x1.e830a80000000p-4, 0x1.c6ca0a0000000p-2, 0x1.aa133e0000000p-5, -0x1.d85a1a0000000p-6, -0x1.9f656c0000000p-3, 0x1.ab95420000000p-2, 0x1.dc97680000000p-6, -0x1.d807560000000p-6, 0x1.e77a080000000p-2, 0x1.c1c4080000000p-7, 0x1.644e7a0000000p-2, 0x1.2c3d1c0000000p-5, 0x1.e2973c0000000p-4, 0x1.08854a0000000p-2, 0x1.ac246c0000000p-4, -0x1.da982a0000000p-3, 0x1.8cbe420000000p-3, 0x1.f2b51e0000000p-3, 0x1.844acc0000000p-3, -0x1.cd30f00000000p-5, -0x1.f8062c0000000p-6, -0x1.762bda0000000p-7, -0x1.bdb3500000000p-3, 0x1.76b64c0000000p-3, 0x1.c089180000000p-3, 0x1.7ce12c0000000p-3, 0x1.19d12c0000000p-3, -0x1.2b86e80000000p-7, 0x1.96cdac0000000p-4, -0x1.4349c40000000p-3, 0x1.9fee040000000p-5, 0x1.2899240000000p-2, -0x1.1307e80000000p-6, -0x1.893dba0000000p-2, -0x1.21a9d40000000p-3, 0x1.8207760000000p-3, -0x1.c0ac600000000p-7, -0x1.05c1140000000p-6, 0x1.1a961c0000000p-3, 0x1.075f740000000p-1, 0x1.304d060000000p-4, -0x1.76f87e0000000p-3, -0x1.19417e0000000p-3, -0x1.3a7d300000000p-4, 0x1.3746d60000000p-4, -0x1.42bf8e0000000p-3, 0x1.6be1be0000000p-3, 0x1.e5ad660000000p-6, -0x1.b0f6680000000p-6, 0x1.a17bd20000000p-3, -0x1.8eb13e0000000p-3, -0x1.25cefa0000000p-3, 0x1.d31f820000000p-3, 0x1.15cbc00000000p-4, -0x1.2bea020000000p-3, 0x1.e82ae00000000p-4, -0x1.ac34780000000p-4, 0x1.5b20ec0000000p-7, 0x1.1f924e0000000p-5, 0x1.cf83180000000p-4, 0x1.40af320000000p-4, 0x1.76260a0000000p-4, -0x1.4c31420000000p-2, 0x1.88ba7a0000000p-3, -0x1.c4ab8a0000000p-4, -0x1.021e400000000p-3, -0x1.09c12c0000000p-5, -0x1.1325ce0000000p-5, -0x1.b6ace80000000p-4, 0x1.2cfdc60000000p-5, -0x1.2328780000000p-7, 0x1.1ea7d20000000p-7, 0x1.b977440000000p-3, -0x1.a7443a0000000p-10, 0x1.37f49a0000000p-4, 0x1.7e98940000000p-6, 0x1.6d3b040000000p-5, 0x1.77da340000000p-3, -0x1.d1dcf00000000p-7, -0x1.4c09e00000000p-2, -0x1.6de0b20000000p-3, -0x1.42ee680000000p-3, 0x1.7e5f5a0000000p-3, 0x1.0ee9640000000p-6, 0x1.5e54740000000p-5, 0x1.7c70460000000p-3, 0x1.8a84880000000p-6, -0x1.d532c00000000p-5, 0x1.e23dd60000000p-3, 0x1.85d6d00000000p-6, 0x1.6621460000000p-4, 0x1.eab2e80000000p-6, 0x1.2219c00000000p-4, -0x1.d941f20000000p-4, 0x1.9eed420000000p-9, -0x1.101c2a0000000p-5, 0x1.843ab60000000p-4, 0x1.eea7ee0000000p-5, -0x1.50fad00000000p-5, -0x1.ccf6f00000000p-5, -0x1.8a9ca80000000p-4, -0x1.2641720000000p-4, 0x1.4b73a80000000p-3, 0x1.33943e0000000p-4, -0x1.aa1c100000000p-3, -0x1.a7bfa20000000p-3, -0x1.5d5f540000000p-7, 0x1.d284600000000p-3, 0x1.4039680000000p-5, -0x1.fcfdb20000000p-7, -0x1.7864280000000p-11, 0x1.b236ec0000000p-7, 0x1.5a49de0000000p-4, -0x1.88479c0000000p-6, -0x1.9f57800000000p-5, -0x1.5c53980000000p-3, -0x1.d944320000000p-5, 0x1.0ee2cc0000000p-3, -0x1.6650a20000000p-3, 0x1.09ed300000000p-4, -0x1.1c6fd60000000p-3, -0x1.3d80520000000p-3, 0x1.3a67800000000p-4, 0x1.0e373e0000000p-2, 0x1.0f873e0000000p-5, 0x1.928d060000000p-4, -0x1.1d93620000000p-4, 0x1.7190360000000p-4, -0x1.9065560000000p-3, 0x1.3a14760000000p-3, 0x1.433e4a0000000p-4, -0x1.97b77e0000000p-5, -0x1.cfca340000000p-6, -0x1.3448ae0000000p-8, 0x1.6280400000000p-6, 0x1.46ec2e0000000p-6, 0x1.21c4a00000000p-4, 0x1.edd9a20000000p-10, -0x1.ee70a40000000p-4, 0x1.d492380000000p-4, 0x1.107a740000000p-8, 0x1.9c821e0000000p-3, 0x1.05576e0000000p-3, -0x1.32d1440000000p-2, -0x1.dcbe860000000p-5, 0x1.cf34180000000p-4, 0x1.4f9eb00000000p-6, -0x1.2ab72a0000000p-3, -0x1.6622980000000p-3, -0x1.9c1eae0000000p-3, -0x1.29f88c0000000p-4, 0x1.55eaba0000000p-3, 0x1.44761c0000000p-3, -0x1.3099760000000p-8, 0x1.4cfce00000000p-5, -0x1.1672620000000p-8, 0x1.4c1dc00000000p-4, 0x1.90523e0000000p-6, -0x1.1ea5f40000000p-6, -0x1.f24c9a0000000p-4, -0x1.4b521c0000000p-3, -0x1.341ed20000000p-4, -0x1.8914ea0000000p-3, -0x1.bcf8660000000p-4, -0x1.d2b9340000000p-4, 0x1.c5e3d80000000p-5, -0x1.6878fc0000000p-4, -0x1.2416a00000000p-3, 0x1.46ead80000000p-6, -0x1.6f3dc00000000p-4, 0x1.bbc0d80000000p-4, 0x1.b50efc0000000p-5, -0x1.2a30020000000p-5, -0x1.3e8abc0000000p-6, 0x1.308b5c0000000p-3, 0x1.f445a40000000p-7, 0x1.50c05e0000000p-7, 0x1.35676a0000000p-4, -0x1.b53d1a0000000p-5, -0x1.26b5860000000p-8, -0x1.aa7dea0000000p-4, 0x1.56f79a0000000p-5, -0x1.379b7c0000000p-4, -0x1.71acea0000000p-6, -0x1.ad94f60000000p-6, 0x1.2eb4160000000p-3, -0x1.7750920000000p-6, -0x1.3e3ce80000000p-5, -0x1.95a6f40000000p-7, 0x1.9339060000000p-5, 0x1.bbe3b20000000p-4, -0x1.1ad1f60000000p-5, 0x1.f91a3c0000000p-6, -0x1.1bb80c0000000p-3, 0x1.1d18a40000000p-4, -0x1.1727a00000000p-7, 0x1.236fa40000000p-6, -0x1.e8e2e00000000p-6, -0x1.3da4ae0000000p-6, 0x1.3731840000000p-5, -0x1.a3e70e0000000p-4, 0x1.38282e0000000p-7, -0x1.f2a51a0000000p-3, -0x1.d0faee0000000p-4, -0x1.9f89760000000p-8, -0x1.775e640000000p-5, -0x1.1f312e0000000p-5, 0x1.8f34400000000p-4, 0x1.a777060000000p-5, 0x1.5ee3900000000p-6, 0x1.d04fe00000000p-7, -0x1.7283760000000p-7, -0x1.8378e60000000p-6, 0x1.7883520000000p-6, -0x1.cd86820000000p-7, -0x1.4314740000000p-6, 0x1.975f1e0000000p-5, 0x1.68e09e0000000p-5, 0x1.f659440000000p-6, 0x1.80554a0000000p-7, -0x1.ec82f40000000p-6, 0x1.02b0d40000000p-5, -0x1.0aa8b60000000p-7, 0x1.86c2800000000p-4, 0x1.19c56a0000000p-5, 0x1.6bcd900000000p-9, -0x1.f695120000000p-4, -0x1.e57a500000000p-5, 0x1.41c9940000000p-6, -0x1.52661a0000000p-4, 0x1.a733800000000p-4, -0x1.aa4d700000000p-5, 0x1.5b39ca0000000p-9, 0x1.0da8620000000p-3, 0x1.8309120000000p-4, 0x1.8df8280000000p-4, -0x1.914f240000000p-4, -0x1.0666c60000000p-6, 0x1.a64caa0000000p-4, -0x1.913b980000000p-5, 0x1.ea37b80000000p-4, 0x1.de85a00000000p-4, 0x1.724a320000000p-5, 0x1.42b2dc0000000p-3, 0x1.1ba6d20000000p-4, -0x1.6920c60000000p-3, 0x1.0324fc0000000p-6, 0x1.9eaca80000000p-3, 0x1.9488520000000p-3, 0x1.a320d80000000p-3, -0x1.96f30a0000000p-4, -0x1.56977e0000000p-5, -0x1.5570b00000000p-6, -0x1.1140ea0000000p-4, 0x1.d8219e0000000p-5, -0x1.e788c40000000p-7, -0x1.98fcc40000000p-5, -0x1.6ac5820000000p-4, -0x1.b070ba0000000p-4, -0x1.1735e00000000p-6, 0x1.ea68e40000000p-3, -0x1.89a6a60000000p-6, -0x1.5deae80000000p-7, 0x1.3df18e0000000p-6, 0x1.0b3d3e0000000p-3, 0x1.10f3240000000p-5, 0x1.54803a0000000p-4, -0x1.43f2380000000p-5, 0x1.faf3be0000000p-9, 0x1.347cc20000000p-4, 0x1.04f9c80000000p-5, 0x1.3509540000000p-6, 0x1.ac33400000000p-6, 0x1.9b17cc0000000p-8, 0x1.bb7a6a0000000p-4, 0x1.5e634e0000000p-8, 0x1.0ca0dc0000000p-4, 0x1.0840260000000p-3, -0x1.2f136a0000000p-3, 0x1.66b8c00000000p-5, -0x1.01d1360000000p-2, -0x1.0f3d4e0000000p-6, 0x1.c6ab5a0000000p-5, 0x1.713ea80000000p-6, 0x1.0add860000000p-6, 0x1.ed2f040000000p-9, 0x1.8f6d9c0000000p-5, 0x1.2161840000000p-5, -0x1.116f060000000p-4, 0x1.d45c6e0000000p-3, -0x1.3897840000000p-5, -0x1.5ccca20000000p-5, 0x1.fbc5aa0000000p-4, -0x1.38d53c0000000p-3, 0x1.3aafba0000000p-3, 0x1.1036620000000p-7, -0x1.7f8d2c0000000p-8, 0x1.ba6d7e0000000p-2, 0x1.59a3480000000p-3, 0x1.34a9b20000000p-6, -0x1.ec5ff00000000p-4, -0x1.85708a0000000p-4, 0x1.9858980000000p-3, 0x1.2fcea80000000p-5, 0x1.67a66c0000000p-3, -0x1.7a416c0000000p-4, -0x1.0c93ee0000000p-3, 0x1.0d38280000000p-4, -0x1.3921ae0000000p-4, -0x1.b70a300000000p-4, 0x1.582fe20000000p-3, -0x1.b514d60000000p-5, 0x1.585b5e0000000p-4, 0x1.e8de0e0000000p-3, 0x1.c9a44c0000000p-6, 0x1.0a4e900000000p-4, -0x1.2e21fa0000000p-5, 0x1.b58ec20000000p-8, 0x1.43d25a0000000p-4, 0x1.03153e0000000p-3, -0x1.9259000000000p-5, -0x1.fda69c0000000p-5, 0x1.2812be0000000p-5, 0x1.7b81800000000p-6, 0x1.22d1480000000p-2, 0x1.2622c60000000p-6, -0x1.1b50240000000p-6, -0x1.1e905c0000000p-5, 0x1.961c400000000p-3, -0x1.a007a80000000p-7, 0x1.cde8420000000p-3, -0x1.7124e60000000p-9, 0x1.7471420000000p-6, 0x1.41f0860000000p-2, -0x1.2813c80000000p-3, 0x1.1961520000000p-3, 0x1.4ccfda0000000p-3, -0x1.e5bce40000000p-6, 0x1.4560280000000p-5, 0x1.15855c0000000p-3, 0x1.6697100000000p-6, 0x1.66ac8e0000000p-3, -0x1.1e39000000000p-7, -0x1.07a22e0000000p-4, 0x1.3c9bea0000000p-4, 0x1.1056760000000p-7, -0x1.e4f4c40000000p-5, 0x1.8c6ee60000000p-5, 0x1.6117f00000000p-6, -0x1.6101500000000p-3, 0x1.c9893a0000000p-5, 0x1.4aa06a0000000p-3, 0x1.9e0f800000000p-6, 0x1.7a8a5c0000000p-6, 0x1.f272dc0000000p-4, -0x1.df180a0000000p-5, 0x1.5960300000000p-3, -0x1.0827c80000000p-2, 0x1.774a3a0000000p-3, 0x1.4d77220000000p-3, 0x1.89bf080000000p-4, 0x1.e0a8000000000p-5, -0x1.45286e0000000p-4, 0x1.5084a80000000p-3, 0x1.92cb720000000p-4, 0x1.2dd47e0000000p-3, 0x1.2269980000000p-4, 0x1.63e0080000000p-6, 0x1.1733a60000000p-2, 0x1.2688e40000000p-2, 0x1.501a6c0000000p-9, 0x1.22179a0000000p-2, 0x1.7ce1540000000p-3, 0x1.2878700000000p-2, -0x1.1d960c0000000p-2, -0x1.65e5480000000p-2, 0x1.a34fd20000000p-3, -0x1.384e7e0000000p-3, 0x1.8b03f20000000p-3, 0x1.8ab00c0000000p-3, 0x1.6289ac0000000p-4, 0x1.079e320000000p-2, -0x1.7247220000000p-5, 0x1.a609400000000p-3, -0x1.5bc0160000000p-2, -0x1.15abc60000000p-4, 0x1.370caa0000000p-3, -0x1.60d3460000000p-5, -0x1.ec2bc80000000p-6, 0x1.b852900000000p-5, -0x1.b511a00000000p-9, -0x1.16c9460000000p-4, 0x1.155dda0000000p-2, 0x1.844d480000000p-5, 0x1.6f52220000000p-5, 0x1.51aaac0000000p-2, 0x1.e00d3c0000000p-7, 0x1.11a5c60000000p-2, 0x1.7e6b0c0000000p-3, -0x1.07e8920000000p-3, 0x1.eccb920000000p-6, 0x1.0e64fa0000000p-2, -0x1.dbf75e0000000p-9, 0x1.51680c0000000p-3, -0x1.837a9a0000000p-5, 0x1.9bac2a0000000p-3, -0x1.6c57fe0000000p-2, 0x1.7928e60000000p-3, 0x1.2f3c060000000p-2, 0x1.4a540a0000000p-1, 0x1.0f66440000000p-2, 0x1.f605580000000p-6, 0x1.1cb76e0000000p-4, -0x1.f7c8d20000000p-5, -0x1.c6f45a0000000p-7, 0x1.47d2ec0000000p-3, 0x1.9d2a080000000p-3, -0x1.529e540000000p-3, -0x1.0cdcbe0000000p-6, 0x1.15d4360000000p-2, 0x1.fc53a40000000p-7, 0x1.6883860000000p-3, 0x1.a86ab20000000p-4, 0x1.1eddca0000000p-1, -0x1.d7b8fe0000000p-2, -0x1.95efee0000000p-2, 0x1.609f040000000p-3, -0x1.76f24e0000000p-3, -0x1.15f89a0000000p-3, 0x1.0685aa0000000p-4, 0x1.96d38e0000000p-3, -0x1.dd16920000000p-5, 0x1.9d93840000000p-3, 0x1.62e04a0000000p-3, -0x1.671ffa0000000p-2, -0x1.2061e60000000p-2, 0x1.9754540000000p-9, 0x1.8f29760000000p-3, -0x1.d1190e0000000p-8, 0x1.d26a1e0000000p-4, -0x1.12649e0000000p-2, -0x1.51e6640000000p-2, 0x1.39361c0000000p-4, 0x1.35cab40000000p-3, 0x1.8aae240000000p-8, -0x1.19f1fa0000000p-3, -0x1.db20ac0000000p-3, -0x1.520ad80000000p-5, -0x1.9a41700000000p-3, -0x1.2479940000000p-3, -0x1.73778c0000000p-3, 0x1.1657680000000p-5, 0x1.c825de0000000p-4, -0x1.048b3a0000000p-1, 0x1.fcb9700000000p-6, -0x1.dcd43a0000000p-5, -0x1.33b36a0000000p-4, 0x1.46a8c40000000p-6, 0x1.fdf5fe0000000p-3, 0x1.ab50540000000p-4, 0x1.aa0dea0000000p-3, 0x1.bd7b940000000p-3, -0x1.0585620000000p-4, -0x1.a407a00000000p-2, -0x1.b1f3a40000000p-5, 0x1.6fc8060000000p-3, 0x1.95ce860000000p-4, 0x1.b760800000000p-5, -0x1.5e628a0000000p-2, 0x1.3e96440000000p-2, -0x1.02c2220000000p-2, -0x1.f90a7a0000000p-5, 0x1.577e4e0000000p-3, 0x1.d04b220000000p-4, 0x1.e653de0000000p-3, 0x1.1db06a0000000p-6, 0x1.26af640000000p-5, -0x1.50311e0000000p-3, -0x1.26e4a20000000p-9, 0x1.f22dcc0000000p-4, 0x1.3b8c560000000p-3, -0x1.64d1e00000000p-4, -0x1.0fe0f40000000p-3, 0x1.b8780c0000000p-5, -0x1.5229100000000p-2, 0x1.e79c020000000p-4, -0x1.7c5c580000000p-3, 0x1.2c56cc0000000p-7, -0x1.ae42980000000p-3, 0x1.3e5d040000000p-4, 0x1.40d90e0000000p-8, -0x1.4d4e880000000p-4, -0x1.24a04e0000000p-3, -0x1.16dd2c0000000p-5, -0x1.24c3a40000000p-5, -0x1.53d5ac0000000p-5, 0x1.57fd3a0000000p-4, -0x1.ca126c0000000p-6, -0x1.e90e9a0000000p-6, -0x1.b326280000000p-8, -0x1.df8aa60000000p-4, 0x1.60cc6a0000000p-3, -0x1.05b06e0000000p-4, -0x1.7522b80000000p-6, -0x1.92f9ec0000000p-3, -0x1.1329260000000p-3, 0x1.ee5f5c0000000p-7, 0x1.85ac2c0000000p-4, -0x1.4b7f8e0000000p-6, -0x1.e1f8ce0000000p-4, -0x1.91b5920000000p-6, -0x1.1ad4e60000000p-3, -0x1.180e420000000p-5, -0x1.6c080a0000000p-2, 0x1.2a31800000000p-4, -0x1.1a06ca0000000p-5, -0x1.de54200000000p-6, -0x1.3954760000000p-4, -0x1.be7b000000000p-11, -0x1.8479ea0000000p-9, -0x1.8cca800000000p-3, -0x1.4623fa0000000p-7, -0x1.b3e8ca0000000p-2, 0x1.8ba1c60000000p-4, -0x1.3674b40000000p-4, -0x1.e6285c0000000p-5, 0x1.611efa0000000p-11, -0x1.295e760000000p-2, -0x1.620e6a0000000p-4, 0x1.5ba49a0000000p-4, 0x1.5132d40000000p-3, -0x1.7e563c0000000p-3, -0x1.65965a0000000p-2, -0x1.9d3f900000000p-8, -0x1.805ce40000000p-4, 0x1.3bc69a0000000p-4, 0x1.759dde0000000p-3, 0x1.c9c97c0000000p-4, -0x1.2f25480000000p-4, 0x1.06ebb20000000p-7, 0x1.13073e0000000p-5, -0x1.33f1220000000p-8, 0x1.fa90800000000p-11, -0x1.e856de0000000p-5, -0x1.d19e600000000p-4, 0x1.15af7a0000000p-4, -0x1.59a4480000000p-6, 0x1.0aeb740000000p-9, -0x1.0811860000000p-2, 0x1.0c52da0000000p-9, -0x1.3cdff60000000p-4, -0x1.addf540000000p-3, -0x1.45eece0000000p-5, -0x1.fd60da0000000p-7, -0x1.84ade40000000p-3, -0x1.45f3560000000p-5, 0x1.df406c0000000p-4, -0x1.22964a0000000p-2, 0x1.3b9c220000000p-5, -0x1.e90fd60000000p-5, 0x1.2b5cb20000000p-4, 0x1.695f920000000p-5, -0x1.462f6e0000000p-3, 0x1.9ed3f60000000p-5, 0x1.433bc60000000p-7, -0x1.7d9cf20000000p-6, 0x1.0224ec0000000p-6, 0x1.f8174c0000000p-8, -0x1.5916e20000000p-5, 0x1.0e64ec0000000p-4, -0x1.d743640000000p-3, -0x1.467e680000000p-3, 0x1.f421e60000000p-4, 0x1.4db0ac0000000p-4, 0x1.0f4ee20000000p-4, 0x1.3cc7460000000p-4, 0x1.a3de8a0000000p-7, -0x1.36c8b00000000p-6, -0x1.58e35a0000000p-4, 0x1.0be2940000000p-5, 0x1.7563180000000p-6, 0x1.48e57e0000000p-3, 0x1.0bb7a00000000p-8, -0x1.ab805e0000000p-5, -0x1.00ac880000000p-4, 0x1.ce88ac0000000p-5, 0x1.03bb840000000p-5, 0x1.8397740000000p-5, 0x1.11b54c0000000p-4, 0x1.2161720000000p-6, -0x1.d73d1c0000000p-4, 0x1.ee4d380000000p-4, -0x1.c5bff20000000p-6, -0x1.5bca240000000p-3, -0x1.eae4d40000000p-5, -0x1.bad9ca0000000p-8, 0x1.63e7c60000000p-3, 0x1.a02a200000000p-5, 0x1.0e73560000000p-4, -0x1.578e3e0000000p-3, -0x1.326fd60000000p-3, -0x1.6421940000000p-4, 0x1.9f64f40000000p-5, -0x1.4165f00000000p-5, -0x1.1ade300000000p-6, -0x1.0c81480000000p-4, 0x1.a063880000000p-7, 0x1.932afe0000000p-3, -0x1.e8c7700000000p-7, -0x1.43ba640000000p-7, -0x1.d754780000000p-6, 0x1.3363600000000p-6, 0x1.247e6e0000000p-7, -0x1.0b8bd40000000p-5, 0x1.5bfcd60000000p-4, 0x1.1956460000000p-6, -0x1.8dcd2e0000000p-4, 0x1.4a738c0000000p-3, -0x1.e7848a0000000p-6, -0x1.4c5e660000000p-11, 0x1.454c420000000p-4, -0x1.11dbde0000000p-5, -0x1.3146920000000p-6, -0x1.8b8a820000000p-6, 0x1.1bea360000000p-4, 0x1.f6e4ba0000000p-5, -0x1.a9c2d80000000p-4, 0x1.c1142a0000000p-5, 0x1.9af7840000000p-3, -0x1.efe86a0000000p-4, -0x1.0a4b9e0000000p-5, 0x1.6e74900000000p-6, -0x1.618e140000000p-4, 0x1.aa7dac0000000p-4, -0x1.e81b520000000p-3, -0x1.3ecd660000000p-2, -0x1.312d800000000p-4, 0x1.8b16b80000000p-4, 0x1.1b33740000000p-3, 0x1.66c62c0000000p-10, 0x1.2c47540000000p-4, -0x1.a1d50c0000000p-4, -0x1.e432b40000000p-5, 0x1.4dce000000000p-6, 0x1.2bec4a0000000p-2, 0x1.f553f20000000p-4, 0x1.c8aad80000000p-6, 0x1.be14280000000p-7, 0x1.92e5f80000000p-4, 0x1.f74c720000000p-5, -0x1.38101a0000000p-7, -0x1.97d44c0000000p-4, -0x1.78abbc0000000p-5, 0x1.b52ca60000000p-4, -0x1.fb5a9a0000000p-8, 0x1.08d52a0000000p-8, -0x1.9509140000000p-4, 0x1.8332f00000000p-7, 0x1.494b520000000p-4, 0x1.28c2620000000p-3, 0x1.17cd920000000p-6, -0x1.5f09fc0000000p-6, -0x1.32d4180000000p-3, 0x1.235cba0000000p-4, -0x1.1b6d7a0000000p-2, -0x1.2005de0000000p-5, 0x1.7336a00000000p-5, 0x1.6839300000000p-6, 0x1.e94f140000000p-5, -0x1.e70bb00000000p-5, 0x1.ff86cc0000000p-6, 0x1.8a901c0000000p-6, -0x1.c073e40000000p-4, 0x1.36c7ba0000000p-3, 0x1.41aa440000000p-3, 0x1.eda1b20000000p-5, 0x1.4743200000000p-3, 0x1.3ae5200000000p-5, 0x1.72bdaa0000000p-7, -0x1.d492dc0000000p-6, -0x1.b5beba0000000p-3, 0x1.fa27b80000000p-4, -0x1.02e6e00000000p-3, -0x1.92063e0000000p-5, -0x1.709f280000000p-4, -0x1.b1c8f40000000p-4, -0x1.9b890e0000000p-3, 0x1.63273e0000000p-7, -0x1.7532100000000p-4, -0x1.11ad640000000p-4, -0x1.1b19360000000p-7, 0x1.1cfaf80000000p-3, 0x1.21b5de0000000p-4, 0x1.8d45000000000p-4, -0x1.1c6b100000000p-4, 0x1.a417520000000p-5, 0x1.52236c0000000p-5, -0x1.1753f00000000p-2, -0x1.6224420000000p-3, -0x1.b1fcdc0000000p-4, -0x1.3b15900000000p-3, 0x1.a71f2a0000000p-3, 0x1.eaa5cc0000000p-4, -0x1.e2ef100000000p-5, -0x1.5ee3ec0000000p-3, 0x1.14e2280000000p-3, 0x1.1bdeba0000000p-3, -0x1.c8c1b20000000p-6, -0x1.d8f0a80000000p-7, -0x1.20de8e0000000p-5, 0x1.9ac1880000000p-6, -0x1.85f53a0000000p-7, 0x1.83a8380000000p-8, -0x1.9e9d8a0000000p-7, 0x1.e312b00000000p-3, -0x1.e66fa20000000p-4, -0x1.f943b20000000p-9, 0x1.832c660000000p-10, 0x1.965a3c0000000p-4, 0x1.6362940000000p-3, -0x1.506b440000000p-4, -0x1.96b0a60000000p-6, -0x1.147c6c0000000p-5, -0x1.10531e0000000p-3, -0x1.9de2a20000000p-3, 0x1.033ddc0000000p-5, -0x1.0f63880000000p-3, -0x1.1202d40000000p-5, -0x1.91e2200000000p-7, 0x1.f080ce0000000p-4, 0x1.00e5b40000000p-7, 0x1.4762240000000p-5, -0x1.4aecde0000000p-7, -0x1.68d7b80000000p-10, -0x1.9d66920000000p-8, 0x1.1b1f960000000p-4, -0x1.791af00000000p-3, -0x1.3311ae0000000p-6, -0x1.9594720000000p-4, -0x1.7115040000000p-4, 0x1.22e2240000000p-2, 0x1.14507c0000000p-3, 0x1.9d352e0000000p-4, 0x1.aa98280000000p-3, -0x1.fdbe580000000p-3, -0x1.1829820000000p-2, 0x1.88d48c0000000p-5, -0x1.0ca9280000000p-4, -0x1.b86b300000000p-4, 0x1.89e2d40000000p-5, 0x1.ab53e00000000p-5, -0x1.f0b5fe0000000p-5, -0x1.5e8e980000000p-5, 0x1.bdab600000000p-4, -0x1.e26c880000000p-4, -0x1.a5f69a0000000p-3, -0x1.2c3cc40000000p-4, 0x1.a022840000000p-4, -0x1.73b3a00000000p-4, -0x1.a2a9560000000p-3, -0x1.3175f60000000p-3, 0x1.bffe020000000p-4, 0x1.e3b1800000000p-5, 0x1.0031e60000000p-3, 0x1.4c55840000000p-4, 0x1.7a08360000000p-5, -0x1.9b9c260000000p-2, -0x1.4bdb180000000p-6, -0x1.a55c4e0000000p-2, -0x1.c9021e0000000p-5, 0x1.a8d09e0000000p-4, -0x1.6171c20000000p-5, -0x1.a810c80000000p-3, -0x1.cc6edc0000000p-5, -0x1.e2a89a0000000p-6, -0x1.53dd4c0000000p-5, 0x1.785f020000000p-6, 0x1.c70a480000000p-7, -0x1.70b5ee0000000p-5, -0x1.08ffd00000000p-6, 0x1.4ebee20000000p-3, 0x1.0ac67c0000000p-4, 0x1.f775600000000p-4, -0x1.acb7600000000p-4, -0x1.84d5520000000p-8, 0x1.6b400e0000000p-4, -0x1.072a940000000p-4, 0x1.3324620000000p-10, 0x1.71c2040000000p-3, 0x1.cfa6a00000000p-5, -0x1.3b410e0000000p-2, -0x1.c6c8a80000000p-4, 0x1.76d2e40000000p-3, 0x1.37586c0000000p-4, -0x1.50a9980000000p-5, 0x1.2b0f200000000p-8, -0x1.0332420000000p-5, -0x1.6fd0b80000000p-4, 0x1.4e327c0000000p-4, 0x1.8dc0f60000000p-3, 0x1.dfdcce0000000p-4, 0x1.ea41900000000p-9, -0x1.612e920000000p-3, -0x1.a752540000000p-5, -0x1.ad15ea0000000p-4, 0x1.6209de0000000p-3, 0x1.774eae0000000p-2, 0x1.05e9860000000p-3, -0x1.1c1a780000000p-5, -0x1.68ba820000000p-3, -0x1.36641c0000000p-6, -0x1.22f6820000000p-3, -0x1.bc78680000000p-3, -0x1.2f25b60000000p-4, 0x1.e7b0a80000000p-6, -0x1.b89c3e0000000p-5, 0x1.d21b720000000p-8, -0x1.c1221c0000000p-3, -0x1.a554320000000p-3, -0x1.1df1760000000p-4, 0x1.1226ec0000000p-6, 0x1.37b42e0000000p-4, 0x1.670d800000000p-6, -0x1.c177580000000p-4, -0x1.46e5540000000p-2, 0x1.d80a7c0000000p-5, -0x1.3a41120000000p-5, -0x1.53e8300000000p-3, -0x1.835f7c0000000p-4, -0x1.cc6a9e0000000p-4, -0x1.ca52400000000p-2, 0x1.18c9ee0000000p-5, -0x1.d42b840000000p-3, 0x1.381e5c0000000p-2, -0x1.24bb6a0000000p-3, 0x1.1392480000000p-7, -0x1.5bc6760000000p-4, -0x1.6e83600000000p-6, -0x1.094c680000000p-7, 0x1.b3b0100000000p-6, -0x1.46715c0000000p-6, -0x1.50e8d80000000p-6, -0x1.23b4a80000000p-2, 0x1.884a1e0000000p-3, 0x1.4502920000000p-5, -0x1.9de13c0000000p-4, -0x1.42617c0000000p-3, -0x1.895e180000000p-2, -0x1.646f5e0000000p-4, -0x1.eeafd60000000p-9, 0x1.8c058e0000000p-5, -0x1.e3897c0000000p-5, -0x1.b4ed4e0000000p-3, 0x1.44ae2c0000000p-6, -0x1.3c6f780000000p-2, 0x1.28c44e0000000p-2, 0x1.e463c60000000p-6, -0x1.613a440000000p-8, -0x1.2ca18a0000000p-4, -0x1.4453a80000000p-7, 0x1.11b41a0000000p-4, -0x1.7efbe60000000p-4, 0x1.755c620000000p-9, 0x1.e1a0bc0000000p-3, 0x1.2ed36e0000000p-5, -0x1.039da20000000p-3, -0x1.9565f60000000p-4, -0x1.90e7d00000000p-6, -0x1.85ea0a0000000p-2, -0x1.d373200000000p-7, 0x1.6a34080000000p-5, -0x1.836a060000000p-2, -0x1.9eba1c0000000p-4, 0x1.5fd4860000000p-3, 0x1.5ed6300000000p-4, 0x1.347cf40000000p-4, -0x1.a313d20000000p-4, -0x1.4138500000000p-5, 0x1.8a54140000000p-3, -0x1.89fc5e0000000p-6, 0x1.fef44e0000000p-5, -0x1.f8ad200000000p-5, -0x1.9d80a80000000p-4, -0x1.64887a0000000p-5, 0x1.e82b700000000p-4, 0x1.890c5c0000000p-8, 0x1.1c69880000000p-3, -0x1.5bc7460000000p-3, -0x1.2c9c380000000p-3, 0x1.acb2720000000p-4, -0x1.0a3ecc0000000p-2, -0x1.e4e1c20000000p-4, -0x1.1cf2760000000p-5, -0x1.aa61380000000p-3, -0x1.78c8300000000p-3, 0x1.4125600000000p-4, -0x1.26e4b40000000p-5, 0x1.82af560000000p-3, -0x1.662dfa0000000p-6, 0x1.d21a500000000p-6, -0x1.2ffef80000000p-3, 0x1.b87b140000000p-5, -0x1.0b85f40000000p-6, -0x1.d666720000000p-5, -0x1.1eab0e0000000p-2, -0x1.707b000000000p-5, -0x1.c8e1d40000000p-3, 0x1.9acda20000000p-4, 0x1.fa9f340000000p-5, -0x1.55cdfc0000000p-3, 0x1.91a7040000000p-4, -0x1.ee1e180000000p-3, -0x1.7188240000000p-4, -0x1.6575a20000000p-4, 0x1.2b4dc20000000p-3, 0x1.f21f8e0000000p-6, 0x1.2e5f180000000p-4, 0x1.be94740000000p-4, -0x1.1325e80000000p-3, 0x1.41c9ec0000000p-3, -0x1.bcf73c0000000p-4, 0x1.4dd8ec0000000p-5, -0x1.1515640000000p-3, 0x1.022d680000000p-5, 0x1.fb96a40000000p-5, -0x1.5af2620000000p-4, 0x1.1b3e2c0000000p-4, 0x1.e455060000000p-7, 0x1.9b6c3e0000000p-4, -0x1.98ecc00000000p-7, 0x1.0b74000000000p-6, 0x1.d512e80000000p-6, -0x1.5646360000000p-3, 0x1.ce39a20000000p-4, 0x1.b81bfa0000000p-3, -0x1.17dd2a0000000p-5}
, {-0x1.32b7840000000p-4, -0x1.8edf060000000p-5, 0x1.5e951c0000000p-5, -0x1.ca85480000000p-4, -0x1.019c5e0000000p-5, 0x1.024c140000000p-3, -0x1.1bb9060000000p-6, -0x1.45d8e80000000p-5, 0x1.634da00000000p-5, -0x1.853c620000000p-5, -0x1.5e213e0000000p-7, -0x1.65d05e0000000p-5, -0x1.aab4dc0000000p-7, 0x1.9100f20000000p-5, -0x1.6d6e5a0000000p-6, -0x1.13209c0000000p-5, -0x1.62466e0000000p-4, -0x1.bfe2040000000p-4, 0x1.dc068e0000000p-4, -0x1.b877e80000000p-6, -0x1.f19ec60000000p-5, -0x1.2bca720000000p-4, -0x1.82e1700000000p-7, -0x1.00e5b40000000p-4, -0x1.1632fc0000000p-4, -0x1.86f3a20000000p-6, 0x1.0039620000000p-8, -0x1.3406280000000p-7, -0x1.195dd40000000p-4, -0x1.78b8560000000p-4, -0x1.15458c0000000p-5, 0x1.6c36680000000p-5, -0x1.0550e60000000p-4, -0x1.6773200000000p-9, -0x1.c0b74e0000000p-6, 0x1.b8b7180000000p-8, -0x1.8eedb20000000p-4, -0x1.25de6c0000000p-4, -0x1.7877980000000p-5, -0x1.84d8bc0000000p-4, -0x1.0576a80000000p-4, -0x1.9424aa0000000p-9, -0x1.f132800000000p-6, 0x1.23af040000000p-6, -0x1.80a8d00000000p-4, -0x1.6891aa0000000p-5, -0x1.9c1a3c0000000p-4, -0x1.6f1ef80000000p-11, 0x1.bfa5ca0000000p-6, -0x1.be61f80000000p-5, -0x1.cbd3520000000p-6, -0x1.41c2060000000p-5, -0x1.1abd3c0000000p-5, -0x1.cc51740000000p-8, -0x1.82d9f80000000p-5, -0x1.eff7d40000000p-5, 0x1.08c2120000000p-6, -0x1.c690860000000p-6, 0x1.0882160000000p-5, -0x1.e90d260000000p-5, -0x1.7df6c60000000p-4, -0x1.08ee480000000p-5, -0x1.0efba20000000p-4, -0x1.141bc80000000p-6, -0x1.b1fde20000000p-7, 0x1.585f1e0000000p-7, 0x1.0090660000000p-6, -0x1.bec4680000000p-4, 0x1.244cf00000000p-5, 0x1.05516c0000000p-4, -0x1.ec6f8a0000000p-5, 0x1.6b67000000000p-10, 0x1.6794ee0000000p-7, 0x1.5f68e20000000p-5, -0x1.2d4d460000000p-4, -0x1.70f6580000000p-5, -0x1.f637800000000p-10, 0x1.5b88560000000p-7, 0x1.4659be0000000p-6, -0x1.3f078a0000000p-5, -0x1.991ac60000000p-4, 0x1.b8725c0000000p-6, 0x1.1a7a600000000p-5, 0x1.bbee440000000p-7, 0x1.6d1dd60000000p-7, -0x1.f4fc680000000p-6, -0x1.9c50740000000p-6, -0x1.9563280000000p-5, 0x1.1b5c680000000p-4, -0x1.12a1e40000000p-8, 0x1.30f0840000000p-8, 0x1.ee56e00000000p-7, -0x1.2fa31c0000000p-5, -0x1.2490d00000000p-5, 0x1.15bd100000000p-6, 0x1.6995c80000000p-6, 0x1.5a366c0000000p-8, 0x1.2ee4040000000p-5, -0x1.c3d4780000000p-5, -0x1.45b2e40000000p-6, -0x1.3bb4c80000000p-4, -0x1.5f12be0000000p-5, 0x1.80ae680000000p-5, -0x1.6dc93a0000000p-5, -0x1.1a6bd00000000p-4, 0x1.86fdbc0000000p-8, -0x1.057f960000000p-5, -0x1.1d1f6c0000000p-5, -0x1.66355a0000000p-4, -0x1.85659c0000000p-5, 0x1.dec1c20000000p-7, -0x1.0a82640000000p-7, 0x1.4940100000000p-8, -0x1.2bf6ba0000000p-4, -0x1.a67a860000000p-5, 0x1.905cc00000000p-7, 0x1.0176040000000p-5, -0x1.21d8e80000000p-5, 0x1.ab26300000000p-6, -0x1.12af660000000p-5, -0x1.775da40000000p-5, 0x1.97fd8e0000000p-6, -0x1.8a03d60000000p-5, -0x1.e2b3d00000000p-5, -0x1.77db780000000p-4, -0x1.188baa0000000p-4, -0x1.d9a14a0000000p-5, -0x1.87b59c0000000p-8, -0x1.7098a60000000p-13, -0x1.ab295c0000000p-4, 0x1.a5d8220000000p-4, -0x1.4192a00000000p-4, -0x1.9151ac0000000p-5, 0x1.c204140000000p-6, -0x1.2e3db00000000p-4, 0x1.c7e2700000000p-6, -0x1.ae59500000000p-7, 0x1.2584140000000p-5, -0x1.1ed4500000000p-4, -0x1.8c5b2a0000000p-5, -0x1.5f85340000000p-4, -0x1.4ef3500000000p-5, -0x1.5175220000000p-4, 0x1.0c26520000000p-5, -0x1.4a69820000000p-5, 0x1.383eba0000000p-5, 0x1.decc9e0000000p-5, -0x1.3fc1b20000000p-5, 0x1.1e48ca0000000p-6, -0x1.2b36b20000000p-4, 0x1.1179900000000p-7, -0x1.aa2cac0000000p-4, 0x1.89a05c0000000p-4, -0x1.b5c8580000000p-6, -0x1.6d84f20000000p-5, 0x1.2567b00000000p-6, -0x1.485b780000000p-7, -0x1.0642520000000p-3, -0x1.aecef60000000p-6, 0x1.1bf4580000000p-6, 0x1.03679c0000000p-6, 0x1.170f280000000p-7, -0x1.1d01580000000p-4, -0x1.8e0b780000000p-6, -0x1.42f82e0000000p-5, -0x1.577b480000000p-7, -0x1.a681fe0000000p-7, 0x1.431ffa0000000p-5, 0x1.589e080000000p-9, -0x1.296d300000000p-6, 0x1.934a900000000p-8, 0x1.cc33680000000p-6, -0x1.a53fc20000000p-5, -0x1.3fb3ca0000000p-5, -0x1.09f5640000000p-4, -0x1.80ba720000000p-5, -0x1.2af8660000000p-4, -0x1.1236780000000p-4, -0x1.1d1f260000000p-4, 0x1.11b4280000000p-5, 0x1.bc18ea0000000p-6, 0x1.2664900000000p-6, 0x1.943ec00000000p-7, 0x1.4189300000000p-6, -0x1.ee1a460000000p-6, -0x1.44897a0000000p-4, -0x1.3a44620000000p-4, 0x1.df76200000000p-9, -0x1.f745e40000000p-10, -0x1.5c42940000000p-4, -0x1.8350b60000000p-5, -0x1.deddb20000000p-10, 0x1.4b4b3c0000000p-8, -0x1.c786a60000000p-5, 0x1.c907e40000000p-8, -0x1.fa48180000000p-7, 0x1.2423e00000000p-6, 0x1.fa8ed80000000p-5, -0x1.89da660000000p-4, 0x1.43a6380000000p-5, 0x1.fab9180000000p-8, -0x1.ce15460000000p-5, -0x1.30ca000000000p-5, -0x1.03dc320000000p-4, -0x1.1058c40000000p-5, -0x1.5864720000000p-7, -0x1.5ecfb00000000p-4, -0x1.066dfc0000000p-4, -0x1.08591e0000000p-4, -0x1.ffa5f00000000p-5, 0x1.626dd80000000p-5, -0x1.4b89880000000p-5, -0x1.d4b99e0000000p-5, -0x1.2c4d2e0000000p-5, 0x1.2d830c0000000p-6, -0x1.7eae040000000p-5, 0x1.3f66be0000000p-6, -0x1.32f5de0000000p-6, 0x1.3937180000000p-4, -0x1.6437880000000p-5, 0x1.8d6d760000000p-5, -0x1.df33ba0000000p-5, 0x1.e59e300000000p-8, 0x1.5ae75c0000000p-5, -0x1.d6e50c0000000p-5, -0x1.73beba0000000p-6, -0x1.4a284c0000000p-4, 0x1.6ee6b60000000p-8, -0x1.2487a80000000p-4, -0x1.74a17e0000000p-5, -0x1.046b5a0000000p-6, -0x1.fb18f60000000p-5, -0x1.7082ca0000000p-6, 0x1.9363500000000p-5, 0x1.6927640000000p-5, -0x1.96bd500000000p-7, 0x1.494bea0000000p-6, 0x1.cf00aa0000000p-8, -0x1.dc306e0000000p-10, -0x1.8733ce0000000p-6, -0x1.8b51740000000p-5, -0x1.84e20a0000000p-4, -0x1.be00680000000p-5, 0x1.3ff7900000000p-5, 0x1.3b79800000000p-5, -0x1.9d1d7e0000000p-6, -0x1.fc21040000000p-6, 0x1.6cd9fe0000000p-4, -0x1.0f1a060000000p-4, -0x1.0d98220000000p-5, -0x1.1171580000000p-6, -0x1.bd4ce40000000p-5, 0x1.3c4fc00000000p-5, -0x1.11e9020000000p-5, -0x1.d6da3c0000000p-7, -0x1.42bb360000000p-5, -0x1.ea81a20000000p-8, -0x1.ca9efc0000000p-4, 0x1.5ad11c0000000p-5, -0x1.c19c120000000p-6, -0x1.087e6c0000000p-6, 0x1.cb40b40000000p-5, -0x1.1d9d120000000p-9, -0x1.449eee0000000p-6, 0x1.504b720000000p-10, -0x1.3e52640000000p-6, -0x1.85c3860000000p-5, -0x1.660a8c0000000p-4, -0x1.38fdb00000000p-5, 0x1.cc8f120000000p-6, -0x1.c4162a0000000p-4, 0x1.11eec20000000p-6, -0x1.0796400000000p-3, 0x1.82608c0000000p-7, 0x1.15d44a0000000p-5, 0x1.32a0b40000000p-4, 0x1.c9a2800000000p-6, -0x1.4259240000000p-4, 0x1.30d62a0000000p-4, -0x1.c0218e0000000p-5, 0x1.545cf40000000p-6, -0x1.3a26a00000000p-5, 0x1.2d316e0000000p-6, 0x1.8e7bc00000000p-7, 0x1.4213180000000p-6, -0x1.3712340000000p-4, -0x1.6aebb00000000p-8, -0x1.058efe0000000p-5, -0x1.de2d1c0000000p-5, 0x1.09e2c80000000p-5, -0x1.cd52fc0000000p-5, -0x1.6cac760000000p-4, -0x1.304f1a0000000p-6, 0x1.33fd940000000p-8, 0x1.0699ec0000000p-6, -0x1.ee109a0000000p-5, 0x1.88d9600000000p-7, 0x1.e3b39a0000000p-7, 0x1.5349440000000p-5, -0x1.5e9fe20000000p-5, -0x1.f121aa0000000p-5, -0x1.2e0ba40000000p-4, -0x1.98388c0000000p-4, -0x1.9d56920000000p-7, -0x1.79d91a0000000p-5, -0x1.16f0dc0000000p-6, -0x1.532cba0000000p-5, 0x1.776e1c0000000p-5, -0x1.0b28760000000p-5, -0x1.1b326a0000000p-6, -0x1.6eba140000000p-6, -0x1.f848280000000p-5, -0x1.1332040000000p-8, 0x1.90207c0000000p-6, -0x1.8983360000000p-10, -0x1.cb238a0000000p-8, -0x1.35b9920000000p-4, -0x1.936f8c0000000p-6, -0x1.2798080000000p-4, -0x1.2def540000000p-7, -0x1.71efbc0000000p-4, -0x1.7d51640000000p-4, 0x1.7208700000000p-5, -0x1.1e0fa00000000p-5, 0x1.315b380000000p-6, 0x1.048f2a0000000p-4, -0x1.13341e0000000p-5, 0x1.d274400000000p-10, 0x1.ae34440000000p-5, -0x1.cd810c0000000p-7, -0x1.ad439e0000000p-5, -0x1.eec57a0000000p-6, -0x1.886efc0000000p-4, -0x1.a313bc0000000p-6, -0x1.fee5040000000p-6, -0x1.6be3fe0000000p-5, -0x1.9482ae0000000p-4, -0x1.14a6120000000p-4, 0x1.51d8140000000p-5, -0x1.4347840000000p-7, 0x1.91ab8a0000000p-6, 0x1.8eee400000000p-5, 0x1.fff4180000000p-6, -0x1.a45fe00000000p-5, 0x1.93e5e60000000p-4, -0x1.87d58e0000000p-4, 0x1.eb89180000000p-7, 0x1.8a5f500000000p-7, -0x1.01126e0000000p-5, -0x1.76f6a60000000p-4, 0x1.4204a00000000p-8, -0x1.dea9d00000000p-6, -0x1.ca5ad80000000p-4, -0x1.16f2900000000p-6, -0x1.548bbe0000000p-4, -0x1.2de8380000000p-4, -0x1.dec9820000000p-5, 0x1.d3ecb20000000p-6, -0x1.60293c0000000p-6, 0x1.ceffe00000000p-9, -0x1.078eb00000000p-4, 0x1.c2a0200000000p-6, 0x1.b748400000000p-9, -0x1.c93aaa0000000p-5, -0x1.ddc9040000000p-4, 0x1.1c4e840000000p-6, -0x1.1050a80000000p-4, -0x1.f129a20000000p-5, 0x1.9d93960000000p-12, -0x1.66cb160000000p-4, -0x1.b5927e0000000p-5, 0x1.61e8f00000000p-5, -0x1.41cbd60000000p-7, -0x1.64a5560000000p-5, 0x1.cf3a500000000p-7, -0x1.4b57ce0000000p-4, 0x1.b034940000000p-8, -0x1.dc3ce60000000p-7, -0x1.71dc540000000p-7, -0x1.d3c4e20000000p-5, -0x1.ce57c40000000p-4, 0x1.966fa20000000p-7, -0x1.48e2520000000p-4, -0x1.c510ee0000000p-5, 0x1.25d76a0000000p-8, -0x1.13968a0000000p-9, 0x1.a4fea00000000p-4, -0x1.02773e0000000p-7, -0x1.de88020000000p-5, 0x1.93b66c0000000p-4, -0x1.35c26e0000000p-5, -0x1.53611a0000000p-5, 0x1.cf3be40000000p-4, 0x1.eba87a0000000p-5, -0x1.9608d80000000p-5, -0x1.289f9a0000000p-5, 0x1.45cbe60000000p-8, 0x1.aa10020000000p-5, -0x1.de5b200000000p-13, -0x1.9cf59e0000000p-10, 0x1.e8f8d20000000p-7, -0x1.01dc620000000p-6, 0x1.b2275a0000000p-6, 0x1.0d050e0000000p-4, -0x1.0ce8680000000p-5, -0x1.bd8cd40000000p-5, -0x1.6faf900000000p-5, 0x1.1eac480000000p-6, 0x1.043c820000000p-4, -0x1.85d2ca0000000p-4, 0x1.3724620000000p-5, -0x1.0332400000000p-10, -0x1.257d440000000p-5, -0x1.ad13e00000000p-6, -0x1.2467b60000000p-5, -0x1.bc68000000000p-8, 0x1.b449de0000000p-5, -0x1.02e9c80000000p-5, -0x1.9816ee0000000p-5, -0x1.0da8bc0000000p-5, -0x1.6d859c0000000p-4, -0x1.ecd6a60000000p-6, -0x1.5cbb820000000p-7, -0x1.fa49980000000p-5, -0x1.0fbee80000000p-5, 0x1.c99a9c0000000p-8, -0x1.18fc000000000p-5, 0x1.2344aa0000000p-8, -0x1.8559740000000p-5, 0x1.0a49e60000000p-7, -0x1.5a86740000000p-5, -0x1.5e136c0000000p-5, -0x1.1bc09c0000000p-5, -0x1.42adb60000000p-4, -0x1.6fc1f00000000p-6, 0x1.c70fa00000000p-7, -0x1.dd22d00000000p-6, -0x1.e8c0980000000p-7, 0x1.2f44fc0000000p-5, 0x1.33ef260000000p-4, -0x1.db438c0000000p-7, 0x1.d5be1a0000000p-6, -0x1.764d260000000p-5, -0x1.2577e20000000p-5, -0x1.0a667c0000000p-4, -0x1.ab8b680000000p-5, -0x1.d7cc9a0000000p-5, -0x1.d6823e0000000p-6, 0x1.3088fa0000000p-6, -0x1.423ed60000000p-6, -0x1.160f0e0000000p-6, -0x1.f29d020000000p-11, -0x1.32ecf40000000p-5, 0x1.8460ce0000000p-4, -0x1.5122ba0000000p-5, 0x1.166b500000000p-6, -0x1.11ed3c0000000p-8, 0x1.516bf20000000p-6, -0x1.1aeaf60000000p-4, 0x1.8933460000000p-6, -0x1.8a6ec20000000p-6, 0x1.5969560000000p-4, -0x1.45d0ec0000000p-5, -0x1.6ab7a00000000p-5, -0x1.0eae380000000p-5, -0x1.add9440000000p-6, -0x1.02ada00000000p-5, 0x1.5ca34a0000000p-6, 0x1.d3a13c0000000p-8, -0x1.f7d5ac0000000p-5, 0x1.1b2bcc0000000p-4, -0x1.217ce20000000p-4, 0x1.44b6c40000000p-4, -0x1.0c325e0000000p-7, -0x1.927a480000000p-6, 0x1.0d61280000000p-5, 0x1.ee27aa0000000p-6, 0x1.d6bb4a0000000p-7, -0x1.303c120000000p-5, 0x1.9aec900000000p-7, 0x1.c889d20000000p-5, -0x1.69e9bc0000000p-5, 0x1.ba7a020000000p-8, -0x1.22a92c0000000p-4, 0x1.4fe6fc0000000p-5, -0x1.3a38980000000p-6, -0x1.fa40d60000000p-7, 0x1.3287d80000000p-8, 0x1.5cd8c60000000p-8, -0x1.0aad620000000p-4, 0x1.2a08000000000p-11, 0x1.062ed60000000p-5, -0x1.25ef2a0000000p-4, -0x1.e719340000000p-9, -0x1.14948e0000000p-4, 0x1.3570680000000p-8, -0x1.504e300000000p-5, 0x1.5698940000000p-5, -0x1.7844e00000000p-8, -0x1.85e75e0000000p-5, 0x1.f9282c0000000p-6, -0x1.a091620000000p-5, 0x1.74b0980000000p-6, 0x1.0b985e0000000p-5, 0x1.f61d220000000p-7, -0x1.a834e80000000p-4, -0x1.65f6ac0000000p-5, -0x1.3e8d340000000p-22, -0x1.a5547a0000000p-4, -0x1.6b67580000000p-4, -0x1.8f20140000000p-5, 0x1.af43be0000000p-8, -0x1.79ae040000000p-7, -0x1.5df0740000000p-4, -0x1.f51c120000000p-11, -0x1.6abcf80000000p-7, 0x1.496a020000000p-7, -0x1.9eebe20000000p-9, -0x1.4f84480000000p-4, -0x1.f888580000000p-7, 0x1.44c39c0000000p-4, -0x1.6e16e40000000p-5, 0x1.a69e840000000p-8, -0x1.04903a0000000p-4, 0x1.56c0380000000p-12, 0x1.17082c0000000p-8, -0x1.1019a80000000p-4, 0x1.e171400000000p-6, -0x1.6c53900000000p-5, -0x1.4272e80000000p-7, 0x1.30bb2c0000000p-5, -0x1.de2b620000000p-6, -0x1.d219ac0000000p-7, -0x1.15f4460000000p-4, -0x1.2a70ca0000000p-6, -0x1.c41b580000000p-5, -0x1.2b70e20000000p-5, -0x1.a261f00000000p-5, 0x1.c3da2a0000000p-8, 0x1.781f100000000p-5, 0x1.ee8ed20000000p-7, -0x1.2da51e0000000p-7, 0x1.f50fa80000000p-6, -0x1.58a6200000000p-9, 0x1.3c297c0000000p-5, 0x1.f3c4a00000000p-9, -0x1.3e679e0000000p-8, -0x1.1b012c0000000p-4, -0x1.9c03440000000p-6, -0x1.63b60c0000000p-7, 0x1.3d91c80000000p-5, -0x1.29b3920000000p-5, 0x1.3fe7f40000000p-9, 0x1.c5b2340000000p-6, 0x1.1126c00000000p-7, -0x1.f3eede0000000p-5, -0x1.6a76020000000p-6, -0x1.3054f40000000p-5, 0x1.12878e0000000p-4, -0x1.69c9140000000p-4, -0x1.c1efb20000000p-5, -0x1.663a100000000p-7, -0x1.5d75560000000p-4, -0x1.bb6f700000000p-7, -0x1.1b7e820000000p-9, -0x1.b15b980000000p-8, 0x1.cd1fa00000000p-7, 0x1.7305d60000000p-4, -0x1.7bcf040000000p-5, -0x1.1760d20000000p-5, -0x1.01d5a20000000p-5, -0x1.67008a0000000p-4, -0x1.41ba820000000p-6, 0x1.8ed2760000000p-7, -0x1.2c418a0000000p-5, 0x1.ebd0520000000p-11, -0x1.4a227c0000000p-5, 0x1.0b352e0000000p-8, 0x1.01aa780000000p-7, -0x1.9c78e20000000p-5, -0x1.56cfcc0000000p-6, 0x1.1afa040000000p-4, -0x1.2be5dc0000000p-7, 0x1.3be6f60000000p-7, 0x1.cd8e9c0000000p-10, -0x1.21db2c0000000p-7, -0x1.4190060000000p-6, 0x1.fde9940000000p-10, 0x1.7821020000000p-7, -0x1.02e3040000000p-4, 0x1.d846220000000p-7, -0x1.3a57660000000p-5, -0x1.e59c740000000p-7, -0x1.5c7c3e0000000p-4, 0x1.8f68a80000000p-6, 0x1.5e286a0000000p-5, 0x1.f072bc0000000p-9, -0x1.5e59a60000000p-4, -0x1.e9286c0000000p-8, 0x1.577a120000000p-6, 0x1.6354d80000000p-6, -0x1.a23dc40000000p-5, 0x1.275eac0000000p-4, 0x1.f7a5980000000p-6, -0x1.f7f1160000000p-7, -0x1.c4b2000000000p-5, -0x1.2027200000000p-6, -0x1.6773080000000p-7, -0x1.89fc120000000p-8, 0x1.ab25100000000p-8, -0x1.762f3e0000000p-4, -0x1.22bc840000000p-6, -0x1.542f5a0000000p-4, -0x1.66c9d60000000p-4, -0x1.e50d1c0000000p-7, -0x1.20b4280000000p-4, -0x1.5f2fa20000000p-4, 0x1.5eb8340000000p-7, -0x1.ad26380000000p-6, -0x1.e4f35a0000000p-7, -0x1.6120560000000p-6, -0x1.7ef5180000000p-5, 0x1.5d3cb20000000p-8, -0x1.a15eac0000000p-6, -0x1.3a08460000000p-6, -0x1.40ed280000000p-4, -0x1.fc15cc0000000p-8, -0x1.29e4700000000p-5, 0x1.4294cc0000000p-5, -0x1.b81df20000000p-7, 0x1.a5a6380000000p-7, 0x1.66b3aa0000000p-5, 0x1.7d95aa0000000p-6, 0x1.00d0f00000000p-5, -0x1.bc455a0000000p-5, -0x1.8b1c540000000p-9, -0x1.344a2e0000000p-5, -0x1.db635e0000000p-5, -0x1.b07f1c0000000p-5, -0x1.1cb5f20000000p-5, 0x1.6fab560000000p-6, -0x1.a0ba640000000p-4, 0x1.b047380000000p-6, -0x1.22394e0000000p-5, -0x1.9ed6020000000p-5, 0x1.3844500000000p-4, 0x1.8a0ba20000000p-6, 0x1.07f8500000000p-5, 0x1.f6c6b80000000p-5, -0x1.256eb00000000p-4, -0x1.e9601e0000000p-5, -0x1.fbd71e0000000p-5, -0x1.6691e40000000p-5, 0x1.21d9a80000000p-5, -0x1.759fd20000000p-6, -0x1.f779880000000p-9, -0x1.435fd40000000p-6, -0x1.3c33180000000p-5, 0x1.67f5800000000p-8, 0x1.5bb03c0000000p-6, 0x1.c43cdc0000000p-6, -0x1.59593c0000000p-6, -0x1.d264340000000p-8, -0x1.e1017a0000000p-5, 0x1.b83d380000000p-5, -0x1.5db2920000000p-6, 0x1.79a8dc0000000p-8, 0x1.3c589c0000000p-5, -0x1.95116e0000000p-8, -0x1.d7604e0000000p-5, -0x1.30d3980000000p-7, -0x1.53e0680000000p-7, -0x1.8a132c0000000p-5, 0x1.39dd000000000p-12, -0x1.ba679e0000000p-5, -0x1.2d00720000000p-5, -0x1.e0eb040000000p-5, -0x1.4d53b20000000p-4, 0x1.1ed2580000000p-5, -0x1.7096040000000p-4, 0x1.307c340000000p-9, 0x1.ee32e00000000p-5, -0x1.4850740000000p-6, 0x1.b8a8840000000p-7, -0x1.9e36ee0000000p-6, -0x1.29467e0000000p-6, -0x1.69cc980000000p-5, 0x1.7340ae0000000p-6, -0x1.dcdfa20000000p-5, -0x1.d336f40000000p-6, -0x1.0574640000000p-4, 0x1.35e4c40000000p-5, -0x1.435a3e0000000p-5, -0x1.80d7220000000p-5, 0x1.2d31920000000p-6, 0x1.fee1680000000p-6, -0x1.6f3ae20000000p-4, -0x1.f6cc9c0000000p-7, -0x1.62e7ae0000000p-5, 0x1.084ec40000000p-7, -0x1.3098f40000000p-9, 0x1.039cc80000000p-7, -0x1.18ab420000000p-4, 0x1.1dcab60000000p-6, -0x1.716c8a0000000p-5, -0x1.e081c40000000p-6, 0x1.17a25e0000000p-4, -0x1.adaba80000000p-5, -0x1.5a37d80000000p-9, 0x1.27a15c0000000p-4, 0x1.4caccc0000000p-7, -0x1.4befd00000000p-7, 0x1.8c450a0000000p-5, -0x1.0f4ca60000000p-4, -0x1.ba61fe0000000p-8, -0x1.b7e1f60000000p-7, -0x1.0c6a220000000p-4, -0x1.009a2a0000000p-6, -0x1.f3cf700000000p-5, -0x1.03fcea0000000p-4, -0x1.080e020000000p-4, -0x1.7ba82c0000000p-6, 0x1.51de960000000p-4, 0x1.fcab060000000p-5, -0x1.d0e0820000000p-6, -0x1.6fd8da0000000p-5, -0x1.02435a0000000p-4, -0x1.d972220000000p-5, 0x1.4cbd120000000p-9, -0x1.c2ec540000000p-5, 0x1.444d960000000p-6, -0x1.dbc7440000000p-6, 0x1.4d151c0000000p-5, -0x1.c9e0420000000p-5, -0x1.ac74220000000p-6, -0x1.f8d1400000000p-8, -0x1.0857d00000000p-4, 0x1.916ed40000000p-5, -0x1.91d0600000000p-5, -0x1.5bd97c0000000p-6, -0x1.054d8c0000000p-5, -0x1.e97cf80000000p-7, 0x1.230ca60000000p-5, -0x1.44234c0000000p-4, -0x1.6153fe0000000p-5, 0x1.02ddca0000000p-9, 0x1.8f826c0000000p-5, 0x1.8098140000000p-6, -0x1.1112ba0000000p-7, -0x1.d3a1000000000p-6, -0x1.9e78340000000p-4, -0x1.1b5d780000000p-6, -0x1.ebb7c80000000p-5, -0x1.879f7e0000000p-5, -0x1.b915200000000p-7, -0x1.b8e8340000000p-6, -0x1.4223800000000p-9, -0x1.f3b98e0000000p-5, -0x1.e40a1e0000000p-6, -0x1.1a7fc60000000p-4, -0x1.2ec5840000000p-4, 0x1.b75f8e0000000p-6, 0x1.0cca900000000p-7, 0x1.599cc40000000p-6, -0x1.2047380000000p-5, 0x1.27e0140000000p-5, -0x1.5a58040000000p-4, -0x1.fabc5e0000000p-10, -0x1.48d1de0000000p-4, 0x1.5fd1ba0000000p-5, 0x1.7981160000000p-5, -0x1.508ac00000000p-5, 0x1.99c15c0000000p-6, 0x1.2c0cea0000000p-5, -0x1.7aa95c0000000p-5, 0x1.6151b80000000p-5, 0x1.0795640000000p-7, 0x1.deeb080000000p-9, -0x1.f1cde20000000p-5, -0x1.5e75080000000p-5, 0x1.0bd6ee0000000p-7, -0x1.5b88300000000p-5, -0x1.b7ffe80000000p-5, 0x1.b70ce60000000p-5, -0x1.cfdc020000000p-8, -0x1.2241260000000p-4, -0x1.c1c5fc0000000p-5, -0x1.0453260000000p-8, -0x1.e6531c0000000p-5, -0x1.b749200000000p-4, 0x1.116bce0000000p-4, -0x1.80e7c00000000p-6, 0x1.03555a0000000p-3, -0x1.e2e4ee0000000p-4, -0x1.2246760000000p-6, -0x1.9629020000000p-6, -0x1.3a888e0000000p-4, 0x1.5014320000000p-5, 0x1.3fe4400000000p-5, -0x1.16a2880000000p-7, 0x1.8efba60000000p-5, -0x1.48bbcc0000000p-5, -0x1.3cabb40000000p-4, -0x1.6beee80000000p-4, -0x1.dffe320000000p-6, -0x1.9be4900000000p-4, 0x1.584b380000000p-5, 0x1.241b740000000p-11, 0x1.6587620000000p-5, 0x1.3d7b1c0000000p-5, -0x1.4c63940000000p-5, 0x1.aec5340000000p-5, -0x1.b923260000000p-5, -0x1.7a63380000000p-6, -0x1.43eba80000000p-6, 0x1.3274920000000p-5, -0x1.5ece3a0000000p-5, 0x1.c86b2c0000000p-5, -0x1.671f260000000p-8, 0x1.4c62080000000p-6, -0x1.ea9dc60000000p-5, -0x1.0008760000000p-5, -0x1.dd5fce0000000p-6, -0x1.c888b60000000p-5, -0x1.01406a0000000p-3, -0x1.0bed8c0000000p-5, -0x1.fe20e80000000p-6, 0x1.96ffc00000000p-9, -0x1.f86ff80000000p-4, -0x1.38314c0000000p-5, 0x1.4f39140000000p-7, 0x1.e3e37a0000000p-5, 0x1.53ebe00000000p-6, -0x1.0c883c0000000p-4, 0x1.35805e0000000p-4, -0x1.58d8760000000p-4, -0x1.7e1baa0000000p-6, 0x1.4187c40000000p-5, -0x1.05f8680000000p-4, -0x1.73d3de0000000p-6, 0x1.c535fa0000000p-5, 0x1.3d86580000000p-6, 0x1.2049d40000000p-5, -0x1.b4a82e0000000p-5, -0x1.2789620000000p-8, 0x1.79a3c40000000p-6, -0x1.3dcfb80000000p-4, -0x1.39d33a0000000p-4, -0x1.3effaa0000000p-5, -0x1.b239a60000000p-4, 0x1.9365c00000000p-8, -0x1.80fe400000000p-6, 0x1.9f272a0000000p-5, -0x1.f38a9c0000000p-4, -0x1.bb4eea0000000p-5, 0x1.2a5cd40000000p-6, 0x1.e409b60000000p-5, -0x1.c098600000000p-5, 0x1.e9fece0000000p-6, -0x1.8b4cbc0000000p-5, -0x1.76aeba0000000p-7, -0x1.2c34300000000p-7, 0x1.2345100000000p-7, -0x1.6398e60000000p-5, -0x1.2066e60000000p-4, 0x1.0358f00000000p-5, -0x1.5cd9800000000p-8, -0x1.1f701a0000000p-6, 0x1.1fa83a0000000p-5, -0x1.f7df7c0000000p-6, -0x1.87d27a0000000p-6, 0x1.2c6a840000000p-5, -0x1.9524840000000p-4, -0x1.efa0b40000000p-6, 0x1.8dce240000000p-5, 0x1.b080f80000000p-5, -0x1.8c48160000000p-6, -0x1.84fe240000000p-5, -0x1.a599f60000000p-5, -0x1.cf46320000000p-4, -0x1.56d3980000000p-5, -0x1.057eda0000000p-4, -0x1.0f62080000000p-4, -0x1.6d94b20000000p-5, -0x1.262e4e0000000p-5, 0x1.f59aae0000000p-11, 0x1.109f300000000p-5, 0x1.063f020000000p-4, 0x1.6e24c00000000p-6, -0x1.81b9c00000000p-8, -0x1.e06c8e0000000p-5, -0x1.06e17e0000000p-6, 0x1.1c19dc0000000p-6, -0x1.0a339c0000000p-4, -0x1.220d620000000p-7, -0x1.a878b80000000p-8, -0x1.6d3caa0000000p-5, -0x1.4e8dd20000000p-5, 0x1.677ae20000000p-5, -0x1.fe51320000000p-4, -0x1.c861700000000p-6, 0x1.91fcf20000000p-7, -0x1.206e2a0000000p-6, -0x1.de44080000000p-6, 0x1.4e06f00000000p-7, -0x1.12a9260000000p-5, -0x1.0ace120000000p-5, -0x1.78ba180000000p-4, -0x1.4231ce0000000p-5, 0x1.9735840000000p-8, -0x1.6548a80000000p-5, -0x1.08e99c0000000p-4, -0x1.ba59de0000000p-4, -0x1.7d51b60000000p-9, 0x1.aa39e40000000p-5, 0x1.57e8f40000000p-4, -0x1.d17e9c0000000p-7, -0x1.0553b20000000p-3, -0x1.82bb7c0000000p-4, -0x1.84a51c0000000p-4, 0x1.6b21700000000p-8, -0x1.3e7d0e0000000p-4, 0x1.03989c0000000p-5, 0x1.05030c0000000p-5, -0x1.271e320000000p-6, -0x1.f2f5900000000p-4, 0x1.b52c700000000p-8, -0x1.5dbed00000000p-7, -0x1.2573f60000000p-6, 0x1.fd25000000000p-12, 0x1.7515060000000p-6, -0x1.f91d880000000p-5, -0x1.bfbad20000000p-5, -0x1.b9ffcc0000000p-5, -0x1.68c4a80000000p-5, -0x1.620a160000000p-6, 0x1.11bfce0000000p-7, 0x1.fa74900000000p-6, -0x1.6eb9060000000p-6, -0x1.1edb4a0000000p-6, -0x1.013efa0000000p-5, -0x1.665a580000000p-5, -0x1.d9fef40000000p-5, -0x1.eb66380000000p-4, -0x1.701a1c0000000p-5, -0x1.010b9a0000000p-3, -0x1.064ac00000000p-5, -0x1.2e1a600000000p-6, -0x1.3b1c280000000p-8, -0x1.930d4c0000000p-4, -0x1.0a46cc0000000p-5, -0x1.2fdbb00000000p-6, -0x1.b5c6840000000p-6, -0x1.2c1dbc0000000p-4, 0x1.3f2f960000000p-6, -0x1.7940660000000p-4, 0x1.6ff9920000000p-6, -0x1.109e9c0000000p-4, -0x1.b128880000000p-6, -0x1.0563340000000p-4, -0x1.3db7040000000p-4, 0x1.4765fe0000000p-9, 0x1.540e6a0000000p-4, -0x1.03af6c0000000p-4, 0x1.00cfdc0000000p-10, 0x1.fd6b3e0000000p-6, -0x1.6d22360000000p-6, -0x1.82a3d40000000p-6, 0x1.684e5a0000000p-6, -0x1.264aee0000000p-5, -0x1.0e285e0000000p-4, -0x1.0d2e7a0000000p-5, -0x1.14716a0000000p-4, -0x1.38d6940000000p-8, -0x1.0dcf4c0000000p-6, -0x1.ec6d080000000p-5, -0x1.a64ac40000000p-5, -0x1.4981e20000000p-4, -0x1.10291a0000000p-7, 0x1.22b2800000000p-6, -0x1.f35b240000000p-6, -0x1.3d88d80000000p-5, -0x1.3f046a0000000p-6, -0x1.7390280000000p-4, -0x1.2e24de0000000p-5, -0x1.023fcc0000000p-4, -0x1.4382c40000000p-6, -0x1.df53240000000p-6, 0x1.eed0980000000p-6, -0x1.2ec0cc0000000p-4, -0x1.a5ee900000000p-6, 0x1.9528480000000p-6, -0x1.215c880000000p-7, -0x1.32c9360000000p-5, -0x1.e50ade0000000p-5, 0x1.51a27c0000000p-6, -0x1.57ca3a0000000p-4, -0x1.2226520000000p-4, 0x1.0c8daa0000000p-7, -0x1.199e9e0000000p-5, -0x1.42043a0000000p-5, 0x1.b4350e0000000p-5, 0x1.0833e80000000p-6, -0x1.ca9c9a0000000p-5, -0x1.d182740000000p-7, 0x1.c1f85c0000000p-6, -0x1.3de3200000000p-4, -0x1.e6acea0000000p-7, -0x1.4c3c920000000p-4, -0x1.4554840000000p-5, 0x1.06200e0000000p-6, 0x1.93c1480000000p-6, -0x1.54b0e00000000p-5, 0x1.4c2d060000000p-7, -0x1.c01bc00000000p-9, -0x1.2eed440000000p-4, -0x1.6d9d260000000p-5, 0x1.bb35a60000000p-5, -0x1.423ed00000000p-5, 0x1.57b1660000000p-8, -0x1.39bec80000000p-4, -0x1.2abae20000000p-5, -0x1.7f09a00000000p-5, -0x1.ce3f7a0000000p-6, -0x1.8d54680000000p-4, -0x1.1fe02c0000000p-4, 0x1.5da97e0000000p-4, -0x1.459f300000000p-6, -0x1.90ecda0000000p-5, 0x1.66374c0000000p-4, 0x1.4cb8dc0000000p-8, -0x1.0d42a00000000p-5, 0x1.9cad7a0000000p-5, -0x1.04c1b60000000p-4, -0x1.91857c0000000p-4, -0x1.4af0b60000000p-8, -0x1.69a14c0000000p-5, 0x1.9e64140000000p-6, -0x1.1ae2640000000p-4, -0x1.2a9b0e0000000p-5, -0x1.f5651e0000000p-5, 0x1.5ac0180000000p-6, 0x1.79e5320000000p-6, -0x1.effa200000000p-7, 0x1.f5a7440000000p-8, -0x1.290da60000000p-4, -0x1.bde9940000000p-10, -0x1.0005fa0000000p-4, 0x1.138b160000000p-4, 0x1.aec8160000000p-7, -0x1.004ca00000000p-4, 0x1.9c96b00000000p-8, -0x1.f5105a0000000p-6, -0x1.ac2b800000000p-4, -0x1.4f64880000000p-7, 0x1.5015740000000p-5, -0x1.d7b79e0000000p-6, 0x1.b5ac600000000p-6, -0x1.883a540000000p-4, -0x1.2cb3fc0000000p-4, -0x1.e622840000000p-5, -0x1.5a921e0000000p-4, -0x1.16d42e0000000p-6, -0x1.6984ce0000000p-4, -0x1.4988620000000p-6, 0x1.12abb40000000p-6, -0x1.a42da00000000p-7, -0x1.2117980000000p-5, 0x1.5696140000000p-6, -0x1.25b3a80000000p-7, -0x1.11e3c60000000p-5, -0x1.b026880000000p-7, -0x1.4b24720000000p-4, -0x1.79fa760000000p-4, -0x1.e2539a0000000p-5, -0x1.24a2800000000p-6, 0x1.8c3c140000000p-6, -0x1.76ab640000000p-4, -0x1.b4bf620000000p-6, -0x1.c260a40000000p-4, -0x1.22e4420000000p-5, -0x1.c0528c0000000p-6, -0x1.2d568e0000000p-5, -0x1.03eefc0000000p-4, -0x1.60452c0000000p-5, -0x1.70cd080000000p-4, -0x1.1417ee0000000p-4, 0x1.9ebeb20000000p-7, -0x1.a5e02c0000000p-5, -0x1.01fad00000000p-3, 0x1.2735aa0000000p-4, -0x1.2e0ccc0000000p-8, -0x1.6f89b80000000p-5, 0x1.6877a20000000p-6, 0x1.573f280000000p-6, 0x1.5227440000000p-6, 0x1.b44d780000000p-5, -0x1.ed4ee00000000p-5, -0x1.91bd400000000p-4, -0x1.b2f7900000000p-6, -0x1.93c65a0000000p-4, 0x1.0705700000000p-8, -0x1.20fd240000000p-5, -0x1.32e0b40000000p-4, -0x1.3ef5a00000000p-5, -0x1.c34dea0000000p-4, 0x1.cafed40000000p-5, 0x1.45a24e0000000p-5, -0x1.7d37760000000p-5, -0x1.6607680000000p-5, -0x1.63911c0000000p-7, 0x1.01a49e0000000p-5, 0x1.4901780000000p-8, -0x1.9634a80000000p-4, 0x1.90c2140000000p-7, 0x1.8794080000000p-7, 0x1.6456d60000000p-5, -0x1.1613780000000p-4, 0x1.007e380000000p-7, -0x1.2877100000000p-5, -0x1.a963460000000p-5, 0x1.a15e500000000p-7, 0x1.5921be0000000p-6, -0x1.39b34c0000000p-4, -0x1.2291480000000p-4, -0x1.26b0900000000p-4, 0x1.248c8c0000000p-5, -0x1.2d29140000000p-4, -0x1.9b06bc0000000p-6, -0x1.de6ccc0000000p-7, 0x1.8455780000000p-7, 0x1.9d39980000000p-10, -0x1.e8c4600000000p-5, -0x1.d8e0220000000p-5, -0x1.57fa760000000p-5, -0x1.5ad45e0000000p-5, -0x1.58ea520000000p-4, -0x1.a36e5a0000000p-6, -0x1.5ef13a0000000p-5, -0x1.73f80e0000000p-5, 0x1.133fea0000000p-5, -0x1.d54e580000000p-7, -0x1.d47a780000000p-6, 0x1.0cb15e0000000p-6, -0x1.ecf8ce0000000p-7, -0x1.9a21160000000p-5, 0x1.b9dc260000000p-6, -0x1.15e5980000000p-4, -0x1.1a13780000000p-7, -0x1.5c43a80000000p-7, 0x1.c1f8dc0000000p-7, 0x1.7812f80000000p-10, -0x1.bac0020000000p-5, -0x1.455c5a0000000p-6, -0x1.3c3a4e0000000p-5, -0x1.4927800000000p-8, -0x1.3027b60000000p-7, -0x1.a656b40000000p-5, 0x1.fed5240000000p-10, 0x1.8d73cc0000000p-5, 0x1.49c4ea0000000p-5, 0x1.4bd4a80000000p-5, -0x1.2210500000000p-5, -0x1.8bfeca0000000p-4, 0x1.ba95d20000000p-5, -0x1.9220a40000000p-5, -0x1.ad58780000000p-5, 0x1.b8cb020000000p-9, -0x1.a0d4880000000p-5, -0x1.3845380000000p-7, -0x1.4611220000000p-5, -0x1.48e6ec0000000p-4, -0x1.7651560000000p-6, -0x1.f2bfea0000000p-7, -0x1.13035a0000000p-4, -0x1.bbef340000000p-8, 0x1.5e058a0000000p-4, -0x1.3cfe9c0000000p-6, -0x1.748fd20000000p-10, 0x1.269c300000000p-7, -0x1.14bf620000000p-4, -0x1.5a634a0000000p-6, -0x1.05b0200000000p-9, 0x1.f534b00000000p-8, 0x1.8aff3e0000000p-4, -0x1.1bb7800000000p-10, 0x1.b966100000000p-8, -0x1.92539a0000000p-5, 0x1.a27c400000000p-6, -0x1.17ce100000000p-5, 0x1.4b9b5e0000000p-5, 0x1.b7e7aa0000000p-5, 0x1.4b96d20000000p-6, 0x1.954f040000000p-7, -0x1.3f53d00000000p-6, 0x1.ab1c520000000p-5, 0x1.b88acc0000000p-6, -0x1.4e111e0000000p-6, -0x1.7a1a0c0000000p-4, 0x1.8964d80000000p-6, -0x1.7ae7de0000000p-5, -0x1.73e94c0000000p-6, 0x1.09d6da0000000p-6, -0x1.00f3800000000p-5, 0x1.732e3e0000000p-6, -0x1.1e51280000000p-5, 0x1.6e09500000000p-7, -0x1.3cc3240000000p-9, 0x1.74a4440000000p-7, -0x1.ce80b40000000p-5, 0x1.2451cc0000000p-5, -0x1.eadd180000000p-9, -0x1.9565f60000000p-4, -0x1.0ca3b60000000p-4, -0x1.0f0bcc0000000p-6, 0x1.a970840000000p-5, 0x1.94d2240000000p-8, 0x1.1918e60000000p-5, -0x1.51ce140000000p-7, -0x1.623da80000000p-4, -0x1.8c4fd80000000p-6, -0x1.a70e260000000p-5, -0x1.74d1d00000000p-6, -0x1.a4ee300000000p-7, 0x1.b8f7500000000p-4, 0x1.9b1be40000000p-10, -0x1.8f5c7c0000000p-4, -0x1.dec7740000000p-6, -0x1.d261ea0000000p-6, 0x1.b50a3e0000000p-4, -0x1.71b6360000000p-4, -0x1.706d5c0000000p-4, -0x1.ecbcee0000000p-4, -0x1.9218080000000p-4, -0x1.9c38520000000p-5, -0x1.21679e0000000p-4, -0x1.a8431a0000000p-5, -0x1.dd4b780000000p-5, -0x1.1113960000000p-4, 0x1.fa52d80000000p-11, -0x1.8887240000000p-5, -0x1.7253f20000000p-4, 0x1.d0d5b00000000p-6, 0x1.4088200000000p-9, 0x1.d39e020000000p-8, 0x1.b041b60000000p-4, 0x1.282f900000000p-5, -0x1.64608e0000000p-5, -0x1.dac75c0000000p-6, -0x1.f2a3700000000p-8, -0x1.3850820000000p-5, -0x1.e826e00000000p-5, -0x1.c47e2a0000000p-5, 0x1.1fa7b60000000p-5, 0x1.69b43e0000000p-5, -0x1.79e1560000000p-6, -0x1.3913d80000000p-5, -0x1.26a3cc0000000p-4, 0x1.232cf80000000p-6, -0x1.5fb9840000000p-4, -0x1.441c420000000p-6, 0x1.2bf5e80000000p-6, 0x1.a608380000000p-7, -0x1.6d29540000000p-4, -0x1.bd68ec0000000p-8, -0x1.8681b40000000p-6, 0x1.b34a000000000p-5, -0x1.9b17260000000p-6, 0x1.55c76a0000000p-5, 0x1.49beae0000000p-7, -0x1.d871c00000000p-9, -0x1.d340fc0000000p-5, 0x1.7d51e80000000p-4, -0x1.c423d20000000p-10, -0x1.5fa02c0000000p-4, 0x1.78a8f40000000p-5, 0x1.6499e60000000p-4, -0x1.b6bacc0000000p-7, 0x1.688ce20000000p-9, -0x1.608dda0000000p-9, 0x1.c1a8fe0000000p-7, -0x1.0a136a0000000p-4, -0x1.5151360000000p-8, -0x1.2f27a80000000p-4, -0x1.e7860c0000000p-5, 0x1.2acdbe0000000p-4, 0x1.968e400000000p-6, -0x1.69133a0000000p-5, 0x1.a15eae0000000p-7, -0x1.d8ee2c0000000p-6, -0x1.5e18080000000p-5, -0x1.b5e6140000000p-5, -0x1.be0a040000000p-5, 0x1.9901be0000000p-9, -0x1.04b5760000000p-4, -0x1.70f3480000000p-5, -0x1.eb8b8e0000000p-6, -0x1.a0fc2e0000000p-5, 0x1.50c53c0000000p-9, 0x1.47dc4e0000000p-5, -0x1.df7a960000000p-6, -0x1.40eae40000000p-4, -0x1.d67bba0000000p-6, 0x1.16d5d80000000p-5, -0x1.5d91280000000p-5, -0x1.df0dd80000000p-4, 0x1.69ea6a0000000p-11, -0x1.cc91800000000p-10, -0x1.7c0fcc0000000p-5, -0x1.81af620000000p-4, 0x1.c144a00000000p-6, 0x1.3219180000000p-5, -0x1.0fea2a0000000p-5, -0x1.01b2400000000p-8, 0x1.63d0b40000000p-6, -0x1.76d4ec0000000p-4, -0x1.dc0b9a0000000p-7, -0x1.8cca440000000p-5, 0x1.3ec0340000000p-5, 0x1.b1e1640000000p-7, 0x1.be26420000000p-7, -0x1.1300b00000000p-9, 0x1.74a0b00000000p-8, -0x1.0e5fda0000000p-4, -0x1.7b2b520000000p-4, 0x1.34b74c0000000p-6, -0x1.93f4d40000000p-4, -0x1.7a945a0000000p-5, -0x1.6cd9ac0000000p-7, -0x1.19b07c0000000p-4, -0x1.61d0e00000000p-5, 0x1.01e5e00000000p-6, -0x1.702e020000000p-5, -0x1.637c6a0000000p-4, 0x1.23dd440000000p-5, 0x1.ae36dc0000000p-5, -0x1.2f64fc0000000p-4, -0x1.94bdfc0000000p-5, 0x1.57048c0000000p-10, 0x1.b23e7e0000000p-9, -0x1.67454e0000000p-5, -0x1.1fe6b20000000p-4, -0x1.4fb8e80000000p-4, -0x1.c1710c0000000p-6, -0x1.975c4e0000000p-7, 0x1.5373cc0000000p-5, 0x1.4aa4d40000000p-4, -0x1.d394140000000p-5, -0x1.846f840000000p-7, 0x1.fb0b640000000p-5, 0x1.b29f6e0000000p-6, 0x1.5f89780000000p-7, 0x1.21086c0000000p-6, -0x1.287d400000000p-6, -0x1.b1bdd80000000p-5, -0x1.a82a900000000p-5, -0x1.b788020000000p-6, 0x1.2e4c620000000p-5, -0x1.cf806a0000000p-6, -0x1.1c84240000000p-5, -0x1.5939d40000000p-4, -0x1.f786580000000p-5, 0x1.7a89e00000000p-4, -0x1.6a06aa0000000p-6, -0x1.1fa24e0000000p-5, -0x1.d6f8720000000p-4, -0x1.455a560000000p-7, -0x1.dd013a0000000p-6, -0x1.4d9c420000000p-6, -0x1.66c34c0000000p-4, -0x1.4a29820000000p-7, -0x1.1602c40000000p-5, 0x1.5a6d540000000p-5, -0x1.8522540000000p-6, 0x1.9511c00000000p-6, -0x1.874e520000000p-5, -0x1.56390a0000000p-5, 0x1.9c28a00000000p-9, -0x1.47aefa0000000p-4, -0x1.19832e0000000p-8, -0x1.221dac0000000p-9, -0x1.7bf91c0000000p-4, -0x1.1afc2c0000000p-6, 0x1.1488300000000p-7, -0x1.f9407a0000000p-6, 0x1.10b2200000000p-4, -0x1.2e00240000000p-5, 0x1.58715a0000000p-7, -0x1.b2703a0000000p-7, 0x1.c527160000000p-11, -0x1.9d64660000000p-5, -0x1.b3c6a60000000p-7, -0x1.3a8c480000000p-5, -0x1.0fc2460000000p-4, -0x1.0f28220000000p-4, -0x1.8bc6ec0000000p-5, -0x1.0377680000000p-5, 0x1.aa9c680000000p-7, -0x1.1c0a600000000p-9, 0x1.89a2c60000000p-5, -0x1.edd7a00000000p-6, 0x1.27e7520000000p-5, -0x1.6b0bee0000000p-5, -0x1.9defa40000000p-6, -0x1.5fe1920000000p-4, -0x1.c5cbc80000000p-5, 0x1.426d020000000p-6, -0x1.52822a0000000p-7, -0x1.279bac0000000p-4, -0x1.449f800000000p-6, 0x1.b7fa940000000p-5, 0x1.f031440000000p-8, -0x1.c43a2e0000000p-6, 0x1.35edd80000000p-4, 0x1.c61c5c0000000p-6, -0x1.412c9a0000000p-5, 0x1.6ee1b80000000p-4, -0x1.1bb15e0000000p-9, -0x1.0e8ede0000000p-4, -0x1.6f84fc0000000p-6, -0x1.ff10360000000p-5, -0x1.bc1b220000000p-5, -0x1.c6735e0000000p-5, 0x1.7cb5b80000000p-8, -0x1.07eaf80000000p-6, -0x1.0c9ba80000000p-8, 0x1.dd8b360000000p-4, 0x1.4c7c3e0000000p-4, 0x1.d47afa0000000p-6, -0x1.beeab20000000p-5, -0x1.cb34c40000000p-7, -0x1.5858300000000p-4, 0x1.aa0db40000000p-6, -0x1.01311e0000000p-5, -0x1.c03c7a0000000p-4, 0x1.b365500000000p-6, 0x1.1093a00000000p-4, -0x1.d2f0f00000000p-5, -0x1.4fd5bc0000000p-6, 0x1.ca5e500000000p-6, -0x1.2a25a40000000p-4, -0x1.3e074a0000000p-6, -0x1.5e60860000000p-4, -0x1.4cdd020000000p-5, -0x1.1522840000000p-8, -0x1.210ba80000000p-5, -0x1.2bf9780000000p-5, -0x1.26615a0000000p-4, -0x1.b607e80000000p-7, 0x1.669c260000000p-4, -0x1.7431d80000000p-7, -0x1.e3f1ea0000000p-7, -0x1.1716a40000000p-6, 0x1.8d06fa0000000p-5, -0x1.fd2b7a0000000p-5, -0x1.0af38c0000000p-5, -0x1.b6b9960000000p-5, -0x1.51bcd20000000p-4, -0x1.2044e60000000p-6, 0x1.00f9a80000000p-6, -0x1.a67a260000000p-6, -0x1.b9dbfe0000000p-6, -0x1.6b1ab00000000p-7, 0x1.6816980000000p-9, 0x1.06acf60000000p-13, 0x1.567fe60000000p-5, -0x1.4289060000000p-6, -0x1.4ebac20000000p-5, -0x1.bf7bdc0000000p-7, -0x1.0d56940000000p-3, -0x1.41170e0000000p-5, -0x1.19daec0000000p-7, 0x1.b48bf00000000p-11, -0x1.3b6d2a0000000p-5, 0x1.3ffa680000000p-5, -0x1.0d0d2e0000000p-4, -0x1.1919000000000p-5, -0x1.d511fe0000000p-10, 0x1.70371a0000000p-5, 0x1.7d886c0000000p-7, 0x1.f636ec0000000p-5, -0x1.1576840000000p-4, -0x1.7c05560000000p-6, -0x1.6950d60000000p-4, -0x1.5ad87c0000000p-11, -0x1.10d7d40000000p-6, -0x1.d195460000000p-7, -0x1.2d660c0000000p-4, -0x1.ae0aca0000000p-4, -0x1.08909a0000000p-4, 0x1.1dfbcc0000000p-4, -0x1.0bb6a00000000p-5, -0x1.ded9ac0000000p-7, -0x1.1f788e0000000p-5, -0x1.6467100000000p-4, -0x1.1efe260000000p-4, -0x1.6729380000000p-8, 0x1.89a7b60000000p-7, -0x1.ef7ede0000000p-9, 0x1.c470180000000p-6, 0x1.34618a0000000p-5, -0x1.3b3e280000000p-6, 0x1.621a600000000p-7, -0x1.8760100000000p-5, -0x1.b35b800000000p-5, -0x1.1111cc0000000p-6, -0x1.30833c0000000p-4, -0x1.20f72e0000000p-5, -0x1.d653360000000p-7, -0x1.9198de0000000p-5, -0x1.fccbe20000000p-9, -0x1.52790c0000000p-4, 0x1.d8d1ec0000000p-7, 0x1.0167e40000000p-5, -0x1.6f891e0000000p-6, -0x1.b2b6b60000000p-5, -0x1.0644920000000p-4, -0x1.6946d20000000p-5, -0x1.0a61920000000p-4, -0x1.c803fc0000000p-4, -0x1.bd08c40000000p-6, -0x1.4aa3980000000p-5, -0x1.6eac860000000p-4, 0x1.3e51300000000p-6, 0x1.20cc9a0000000p-6, -0x1.7fc31a0000000p-5, -0x1.63fe300000000p-7, -0x1.688ad20000000p-6, -0x1.e05adc0000000p-7, -0x1.4a9e420000000p-6, -0x1.2eca780000000p-5, -0x1.eba4900000000p-8, -0x1.6788240000000p-4, 0x1.73e3be0000000p-7, -0x1.a0d9180000000p-5, -0x1.9c7f840000000p-5, 0x1.6a70380000000p-4, 0x1.6a3a480000000p-6, -0x1.9edd000000000p-6, -0x1.c25f1c0000000p-7, -0x1.0439140000000p-5, -0x1.9ff52c0000000p-5, -0x1.8b9e020000000p-6, 0x1.c7c0200000000p-6, -0x1.605a1a0000000p-4, -0x1.7dcde20000000p-5, 0x1.d3ca040000000p-6, -0x1.2fb3e20000000p-6, 0x1.c535780000000p-7, -0x1.3bc38e0000000p-5, 0x1.1ec81a0000000p-6, -0x1.8a341e0000000p-4, 0x1.29c01a0000000p-5, -0x1.f036960000000p-5, 0x1.ba84c40000000p-6, -0x1.cdd1240000000p-5, -0x1.2e05b40000000p-5, -0x1.c936100000000p-6, -0x1.781c6c0000000p-4, 0x1.71939c0000000p-4, 0x1.7846f20000000p-4, -0x1.5c52d80000000p-8, -0x1.1e5a940000000p-5, 0x1.7614c00000000p-5, -0x1.ebbcfe0000000p-4, 0x1.0ba41c0000000p-5, -0x1.b8a4800000000p-9, 0x1.2210680000000p-5, 0x1.2469a40000000p-6, -0x1.577dca0000000p-5, -0x1.5cdb180000000p-8, -0x1.3b6d9e0000000p-4, -0x1.5266d60000000p-6, -0x1.c21c960000000p-6, 0x1.62a2460000000p-5, 0x1.6ec5880000000p-8, -0x1.75ae980000000p-5, 0x1.a527cc0000000p-5, -0x1.2a94c80000000p-6, -0x1.1789540000000p-5, 0x1.fa96d20000000p-5, -0x1.0068ec0000000p-7, -0x1.d1ba3c0000000p-5, -0x1.fcadce0000000p-6, -0x1.795c800000000p-5, -0x1.8e2b5c0000000p-5, -0x1.163a2a0000000p-8, 0x1.8cbce40000000p-5, 0x1.3061fe0000000p-7, -0x1.1ed82e0000000p-6, -0x1.0383de0000000p-5, 0x1.1968220000000p-4, 0x1.ad51600000000p-5, 0x1.b319960000000p-7, 0x1.229df60000000p-5, 0x1.7dc5860000000p-5, -0x1.0901860000000p-5, 0x1.bbe06e0000000p-6, 0x1.bd0e7c0000000p-11, -0x1.936d900000000p-6, 0x1.1505380000000p-5, -0x1.1b84940000000p-5, -0x1.027faa0000000p-4, -0x1.75417a0000000p-5, -0x1.09f6520000000p-5, -0x1.0cfa920000000p-7, -0x1.4e7b5c0000000p-7, 0x1.1a29800000000p-11, 0x1.4c02060000000p-6, 0x1.f7e14e0000000p-5, -0x1.c69ec00000000p-5, -0x1.40c8dc0000000p-5, 0x1.a7a97e0000000p-9, 0x1.1e6bae0000000p-4, -0x1.014e6e0000000p-4, -0x1.24ecc00000000p-5, -0x1.b894480000000p-5, 0x1.93f7fa0000000p-5, -0x1.5ac7c00000000p-4, -0x1.4770fa0000000p-4, -0x1.2b43040000000p-4, -0x1.51eb600000000p-4, -0x1.6165e80000000p-4, -0x1.45909e0000000p-7, -0x1.c35a540000000p-5, 0x1.d937640000000p-5, -0x1.08bd6c0000000p-4, 0x1.a3afe00000000p-9, -0x1.a530800000000p-4, -0x1.39359e0000000p-5, -0x1.9e53b00000000p-6, 0x1.8809cc0000000p-5, 0x1.0015480000000p-4, -0x1.0a50600000000p-9, -0x1.9694740000000p-5, -0x1.35fd7c0000000p-4, -0x1.ce53ac0000000p-5, -0x1.43d5a20000000p-5, 0x1.4332d00000000p-5, -0x1.e101ae0000000p-18, -0x1.6a84040000000p-4, -0x1.4c9e640000000p-4, -0x1.1654380000000p-7, -0x1.9790240000000p-4, -0x1.28d3e40000000p-4, -0x1.66c9ac0000000p-5, 0x1.0679460000000p-3, -0x1.e7ce860000000p-6, -0x1.6a04a00000000p-4, -0x1.0e134a0000000p-4, 0x1.b1e6c20000000p-7, -0x1.8914740000000p-5, -0x1.05b3a60000000p-5, -0x1.cb6e0e0000000p-7, -0x1.5416100000000p-7, 0x1.3bfdda0000000p-4, 0x1.9e7d9a0000000p-8, 0x1.954e100000000p-8, -0x1.4714e00000000p-4, 0x1.6eab4c0000000p-4, -0x1.6ae77a0000000p-5, -0x1.7a98c20000000p-5, 0x1.142a8a0000000p-5, -0x1.ea70f20000000p-6, -0x1.005cde0000000p-3, -0x1.0ac7cc0000000p-9, -0x1.0f4e260000000p-5, -0x1.3aceca0000000p-5, 0x1.875d180000000p-6, -0x1.231e9a0000000p-6, -0x1.1dffb00000000p-6, 0x1.e6b9b00000000p-8, 0x1.a2b9f00000000p-5, -0x1.d3a8360000000p-9, -0x1.2fb2920000000p-4, -0x1.cb79000000000p-4, -0x1.4a387e0000000p-5, 0x1.2b9ff20000000p-4, -0x1.16cf280000000p-4, -0x1.d9155a0000000p-6, 0x1.583cda0000000p-8, -0x1.4043f80000000p-7, 0x1.078d820000000p-9, -0x1.0f82980000000p-4, -0x1.2d02de0000000p-5, -0x1.085fec0000000p-5, -0x1.20405a0000000p-3, -0x1.b5a2f00000000p-4, 0x1.cd81c00000000p-6, -0x1.b25f580000000p-4, -0x1.fed61c0000000p-13, 0x1.24ab780000000p-7, 0x1.9f8d840000000p-6, -0x1.15448c0000000p-3, 0x1.371bf00000000p-6, 0x1.b365f00000000p-6, 0x1.0bd2ec0000000p-5, 0x1.7bc0000000000p-15, 0x1.eef00e0000000p-7, -0x1.0503cc0000000p-4, -0x1.5457f60000000p-4, 0x1.7f33ee0000000p-4, -0x1.7a72480000000p-9, -0x1.097ce80000000p-3, -0x1.75608a0000000p-5, -0x1.6634ee0000000p-5, -0x1.77bc740000000p-5, 0x1.d4e2e80000000p-5, -0x1.b489d20000000p-5, -0x1.998d980000000p-6, -0x1.d076340000000p-11, -0x1.07055e0000000p-4, 0x1.3d0bb80000000p-6, -0x1.fb3cc20000000p-4, 0x1.e3bf120000000p-5, 0x1.1bd0040000000p-5, 0x1.d0c2fe0000000p-7, 0x1.d8d5840000000p-7, -0x1.983f540000000p-5, 0x1.2c14440000000p-6, -0x1.9c38280000000p-5, 0x1.903ac60000000p-6, 0x1.b240e20000000p-6, -0x1.c8dc5c0000000p-6, -0x1.ab76380000000p-6, -0x1.e5090a0000000p-4, -0x1.51985e0000000p-4, 0x1.8fcea20000000p-5, -0x1.c612380000000p-6, 0x1.57d1820000000p-7, 0x1.c43d860000000p-5, -0x1.73340c0000000p-4, -0x1.2518aa0000000p-5, 0x1.e1b96c0000000p-6, 0x1.6b8da20000000p-5, 0x1.f812900000000p-7, 0x1.2ea9e40000000p-6, -0x1.94114a0000000p-6, -0x1.7560380000000p-4, -0x1.21185c0000000p-4, -0x1.b81eb80000000p-11, -0x1.99f6b60000000p-6, -0x1.99cd580000000p-6, -0x1.ee92280000000p-5, -0x1.f800b00000000p-4, 0x1.737b7e0000000p-6, 0x1.0644d00000000p-4, -0x1.5e23fa0000000p-6, -0x1.bca9380000000p-6, -0x1.2449de0000000p-4, -0x1.2a4faa0000000p-7, -0x1.3ea5c40000000p-5, -0x1.0159020000000p-6, -0x1.b76e900000000p-4, -0x1.abed020000000p-6, 0x1.ea96f80000000p-6, 0x1.d65b8c0000000p-8, 0x1.35d8a60000000p-6, -0x1.28bcf40000000p-5, -0x1.4ad2720000000p-5, 0x1.c0c1480000000p-5, 0x1.9f99400000000p-9, -0x1.6d0d880000000p-4, -0x1.8365ac0000000p-5, -0x1.00b7f60000000p-9, -0x1.ccdd260000000p-4, -0x1.31d8ce0000000p-4, -0x1.489e2c0000000p-5, -0x1.513ca40000000p-6, 0x1.221efa0000000p-5, 0x1.4cf2840000000p-5, -0x1.af34aa0000000p-8, -0x1.f5a89c0000000p-5, 0x1.9733360000000p-5, -0x1.730f100000000p-5, -0x1.07a4620000000p-6, -0x1.48cafe0000000p-4, -0x1.fa95dc0000000p-5, -0x1.e680ae0000000p-5, -0x1.6e56100000000p-6, 0x1.c1748a0000000p-7, -0x1.79f3b20000000p-5, -0x1.35fea00000000p-8, 0x1.1eafd00000000p-5, -0x1.3ffdec0000000p-5, -0x1.fb008a0000000p-5, 0x1.e065c00000000p-6, -0x1.038d2a0000000p-4, -0x1.84081a0000000p-4, -0x1.b2fcd60000000p-4, 0x1.08d3840000000p-5, -0x1.b6153a0000000p-5, -0x1.45a0ce0000000p-4, -0x1.b7fd580000000p-4, 0x1.8925420000000p-4, -0x1.048c0e0000000p-7, -0x1.7ff3120000000p-5, 0x1.3d7ac80000000p-6, 0x1.c1856a0000000p-8, -0x1.387cdc0000000p-6, 0x1.c926e60000000p-5, -0x1.6743b60000000p-5, -0x1.5fadd40000000p-5, -0x1.811b7e0000000p-6, -0x1.b871800000000p-5, -0x1.188f900000000p-4, -0x1.a2c8980000000p-5, -0x1.d1241e0000000p-5, -0x1.4c57f80000000p-4, -0x1.b548b00000000p-6, 0x1.607f580000000p-4, -0x1.0bb0500000000p-4, 0x1.be42a20000000p-8, -0x1.633cf80000000p-4, -0x1.cdee520000000p-5, -0x1.8ecc8a0000000p-6, 0x1.7dfb460000000p-4, -0x1.92ab0a0000000p-7, -0x1.21f6d00000000p-5, 0x1.87c2e00000000p-5, 0x1.5468080000000p-6, -0x1.cec5d60000000p-5, 0x1.19c2800000000p-11, 0x1.eb7df00000000p-7, -0x1.37ff0a0000000p-7, -0x1.d954e00000000p-6, -0x1.93d66c0000000p-5, -0x1.5ae80e0000000p-6, -0x1.e3c4420000000p-5, -0x1.f31a180000000p-9, 0x1.c1a8900000000p-6, -0x1.069fb40000000p-5, -0x1.5a8f600000000p-6, 0x1.7034d60000000p-4, -0x1.9bfce20000000p-6, -0x1.52873a0000000p-5, -0x1.5b5b9c0000000p-4, -0x1.8399340000000p-5, -0x1.2a7e2a0000000p-4, -0x1.4fdfbc0000000p-7, -0x1.2296fa0000000p-4, 0x1.615a500000000p-8, -0x1.f4f4a00000000p-5, -0x1.2ee7f00000000p-6, -0x1.fed3860000000p-5, -0x1.3b40f00000000p-4, 0x1.6704980000000p-6, 0x1.5505040000000p-6, -0x1.53be3a0000000p-4, 0x1.465ec40000000p-6, -0x1.307af80000000p-5, -0x1.3779dc0000000p-7, -0x1.426ce80000000p-4, -0x1.0a29d40000000p-5, -0x1.2a57e40000000p-5, -0x1.6df87c0000000p-6, -0x1.8d4e700000000p-4, -0x1.25f5de0000000p-4, 0x1.9129b20000000p-9, 0x1.cc910a0000000p-6, 0x1.5dd7ec0000000p-8, 0x1.10f5220000000p-4, 0x1.9bbb880000000p-8, -0x1.39b96e0000000p-5, 0x1.fe73100000000p-6, -0x1.7126820000000p-5, -0x1.0924c80000000p-5, -0x1.0c93920000000p-4, 0x1.3f095e0000000p-4, 0x1.c3a6ae0000000p-5, -0x1.6b59600000000p-5, -0x1.be6d1a0000000p-5, -0x1.16831a0000000p-4, -0x1.1b0b580000000p-4, 0x1.410f0e0000000p-5, -0x1.54cf880000000p-4, 0x1.3688dc0000000p-6, 0x1.76a9bc0000000p-6, -0x1.4f919c0000000p-7, 0x1.a23edc0000000p-6, 0x1.9898bc0000000p-9, -0x1.17a9ea0000000p-4, 0x1.069d1a0000000p-6, -0x1.4c56e60000000p-6, 0x1.6498460000000p-6, 0x1.cca4ca0000000p-5, -0x1.17a1b00000000p-5, -0x1.1e11320000000p-7, -0x1.df65f60000000p-5, -0x1.2e86c00000000p-10, -0x1.8339de0000000p-8, -0x1.a83be40000000p-7, -0x1.3caf840000000p-7, -0x1.681fc20000000p-4, -0x1.1e3e560000000p-7, -0x1.7e8c060000000p-5, -0x1.bb68820000000p-6, -0x1.d0b7b20000000p-7, -0x1.01e0fc0000000p-6, -0x1.72228e0000000p-5, 0x1.0253d20000000p-4, -0x1.93cdbc0000000p-5, 0x1.89d9bc0000000p-6, -0x1.d7553e0000000p-6, -0x1.76b83c0000000p-5, -0x1.48a28e0000000p-4, -0x1.5824500000000p-5, 0x1.f7d0ae0000000p-6, 0x1.aab3b00000000p-6, -0x1.a298f80000000p-4, 0x1.3b4ea80000000p-5, -0x1.b3bb200000000p-5, -0x1.35ab8c0000000p-4, -0x1.05cda00000000p-4, -0x1.fb48200000000p-5, -0x1.75358c0000000p-8, -0x1.593bea0000000p-6, -0x1.0c22340000000p-7, -0x1.6aafbe0000000p-5, -0x1.fd4d420000000p-6, 0x1.b412a40000000p-4, 0x1.3631f80000000p-4, -0x1.7dad880000000p-5, -0x1.4d22c80000000p-5, -0x1.048f280000000p-7, 0x1.a33aac0000000p-5, 0x1.67ea8a0000000p-6, 0x1.858e480000000p-7, 0x1.9690880000000p-7, -0x1.729fb80000000p-5, -0x1.2fee740000000p-6, -0x1.c76a740000000p-7, 0x1.9e9ca20000000p-7, 0x1.432d6a0000000p-6, 0x1.45e82a0000000p-4, 0x1.011fa40000000p-4, 0x1.eb156e0000000p-5, 0x1.3f3f200000000p-5, 0x1.d536780000000p-5, -0x1.2c08500000000p-4, -0x1.4bb4660000000p-9, -0x1.0585060000000p-5, -0x1.04bd540000000p-4, 0x1.dbfde40000000p-7, -0x1.a1448c0000000p-4, 0x1.79171c0000000p-6, -0x1.072a940000000p-7, -0x1.3856b80000000p-5, -0x1.89ba0c0000000p-4, 0x1.80ab920000000p-13, 0x1.4969180000000p-7, -0x1.8977e00000000p-6, -0x1.8326000000000p-4, 0x1.0a4fd00000000p-8, 0x1.d9c04e0000000p-6, -0x1.7d3c120000000p-5, -0x1.108de20000000p-4, 0x1.19dd9c0000000p-3, 0x1.a7d6f40000000p-6, -0x1.c89d360000000p-4, -0x1.e6be400000000p-5, -0x1.f0685a0000000p-8, -0x1.3ec7120000000p-6, -0x1.21ab220000000p-5, 0x1.736bc80000000p-5, 0x1.1d778e0000000p-8, 0x1.456adc0000000p-7, -0x1.00a71a0000000p-4, -0x1.11135e0000000p-6, -0x1.d1b64a0000000p-5, 0x1.1ea4e40000000p-4, -0x1.c677ae0000000p-6, 0x1.e8a1180000000p-6, 0x1.93e80a0000000p-4, 0x1.8be3a00000000p-7, 0x1.2cf7c00000000p-7, 0x1.4ae88c0000000p-7, -0x1.0ab0480000000p-7, -0x1.0ffd5a0000000p-5, 0x1.4833320000000p-3, 0x1.91a0ee0000000p-5, -0x1.ada6da0000000p-8, -0x1.7d27600000000p-4, -0x1.d73ce20000000p-7, -0x1.f08b520000000p-5, -0x1.98f51c0000000p-6, -0x1.1f9f4a0000000p-5, -0x1.ade9de0000000p-5, -0x1.3549460000000p-4, -0x1.03e9600000000p-8, 0x1.666d7c0000000p-6, 0x1.801ea80000000p-7, 0x1.010b140000000p-4, 0x1.90adcc0000000p-5, -0x1.8b248e0000000p-6, -0x1.452ba00000000p-4, 0x1.9b75660000000p-5, 0x1.1955c20000000p-4, 0x1.7a1f0e0000000p-4, 0x1.2259c00000000p-5, -0x1.2280080000000p-6, -0x1.1eb5900000000p-4, -0x1.41d3420000000p-5, -0x1.9267760000000p-8, -0x1.73ba4c0000000p-6, -0x1.8b690a0000000p-5, -0x1.65be3c0000000p-5, -0x1.bb1fac0000000p-6, -0x1.0fe6760000000p-3, -0x1.d4dae40000000p-7, -0x1.27fdfe0000000p-4, 0x1.54e8ec0000000p-5, -0x1.9bec1c0000000p-6, -0x1.3524940000000p-4, -0x1.1f3fb00000000p-6, -0x1.3b1c200000000p-5, -0x1.7a8c5a0000000p-5, -0x1.3d3f900000000p-7, -0x1.4648320000000p-5, 0x1.2045a40000000p-6, 0x1.fea5960000000p-7, 0x1.9f875a0000000p-6, 0x1.7afefc0000000p-5, -0x1.05a7740000000p-3, -0x1.d0caf20000000p-6, -0x1.0ba80c0000000p-8, 0x1.d3da180000000p-6, -0x1.baf55c0000000p-7, -0x1.33a38a0000000p-4, -0x1.94cdf00000000p-4, -0x1.8038ee0000000p-4, 0x1.55c3880000000p-6, -0x1.b2a0de0000000p-9, -0x1.7a18840000000p-5, 